{"<|endoftext|>":0,"<|user|>":1,"<|bot|>":2,"<|sys|>":3,"<|gab1|>":4,"<|gab2|>":5,"<|gab3|>":6,"<|gab4|>":7,"<|gab5|>":8,"!":9,"\"":10,"#":11,"$":12,"%":13,"&":14,"'":15,"(":16,")":17,"*":18,"+":19,",":20,"-":21,".":22,"/":23,"0":24,"1":25,"2":26,"3":27,"4":28,"5":29,"6":30,"7":31,"8":32,"9":33,":":34,";":35,"<":36,"=":37,">":38,"?":39,"@":40,"A":41,"B":42,"C":43,"D":44,"E":45,"F":46,"G":47,"H":48,"I":49,"J":50,"K":51,"L":52,"M":53,"N":54,"O":55,"P":56,"Q":57,"R":58,"S":59,"T":60,"U":61,"V":62,"W":63,"X":64,"Y":65,"Z":66,"[":67,"\\":68,"]":69,"^":70,"_":71,"`":72,"a":73,"b":74,"c":75,"d":76,"e":77,"f":78,"g":79,"h":80,"i":81,"j":82,"k":83,"l":84,"m":85,"n":86,"o":87,"p":88,"q":89,"r":90,"s":91,"t":92,"u":93,"v":94,"w":95,"x":96,"y":97,"z":98,"{":99,"|":100,"}":101,"~":102,"¡":103,"¢":104,"£":105,"¤":106,"¥":107,"¦":108,"§":109,"¨":110,"©":111,"ª":112,"«":113,"¬":114,"®":115,"¯":116,"°":117,"±":118,"²":119,"³":120,"´":121,"µ":122,"¶":123,"·":124,"¸":125,"¹":126,"º":127,"»":128,"¼":129,"½":130,"¾":131,"¿":132,"À":133,"Á":134,"Â":135,"Ã":136,"Ä":137,"Å":138,"Æ":139,"Ç":140,"È":141,"É":142,"Ê":143,"Ë":144,"Ì":145,"Í":146,"Î":147,"Ï":148,"Ð":149,"Ñ":150,"Ò":151,"Ó":152,"Ô":153,"Õ":154,"Ö":155,"×":156,"Ø":157,"Ù":158,"Ú":159,"Û":160,"Ü":161,"Ý":162,"Þ":163,"ß":164,"à":165,"á":166,"â":167,"ã":168,"ä":169,"å":170,"æ":171,"ç":172,"è":173,"é":174,"ê":175,"ë":176,"ì":177,"í":178,"î":179,"ï":180,"ð":181,"ñ":182,"ò":183,"ó":184,"ô":185,"õ":186,"ö":187,"÷":188,"ø":189,"ù":190,"ú":191,"û":192,"ü":193,"ý":194,"þ":195,"ÿ":196,"Ā":197,"ā":198,"Ă":199,"ă":200,"Ą":201,"ą":202,"Ć":203,"ć":204,"Ĉ":205,"ĉ":206,"Ċ":207,"ċ":208,"Č":209,"č":210,"Ď":211,"ď":212,"Đ":213,"đ":214,"Ē":215,"ē":216,"Ĕ":217,"ĕ":218,"Ė":219,"ė":220,"Ę":221,"ę":222,"Ě":223,"ě":224,"Ĝ":225,"ĝ":226,"Ğ":227,"ğ":228,"Ġ":229,"ġ":230,"Ģ":231,"ģ":232,"Ĥ":233,"ĥ":234,"Ħ":235,"ħ":236,"Ĩ":237,"ĩ":238,"Ī":239,"ī":240,"Ĭ":241,"ĭ":242,"Į":243,"į":244,"İ":245,"ı":246,"Ĳ":247,"ĳ":248,"Ĵ":249,"ĵ":250,"Ķ":251,"ķ":252,"ĸ":253,"Ĺ":254,"ĺ":255,"Ļ":256,"ļ":257,"Ľ":258,"ľ":259,"Ŀ":260,"ŀ":261,"Ł":262,"ł":263,"Ń":264,"Ġd":265,"Ã©":266,"es":267,"Ġl":268,"en":269,"on":270,"Ġp":271,"Ġde":272,"an":273,"Ġs":274,"Ġc":275,"re":276,"Ġa":277,"ou":278,"er":279,"ti":280,"is":281,"in":282,"qu":283,"ar":284,"ent":285,"le":286,"it":287,"et":288,"Ġla":289,"Ġm":290,"un":291,"ur":292,"or":293,"te":294,"Ġle":295,"il":296,"ĠÃ":297,"Ġet":298,"Ġf":299,"ĠÃł":300,"om":301,"Ġen":302,"Ġt":303,"Ġqu":304,"Ã¨":305,"tion":306,"ra":307,"Ġun":308,"Ġn":309,"el":310,"est":311,"our":312,"al":313,"rÃ©":314,"us":315,"Ġdes":316,"ant":317,"Ġv":318,"Ġles":319,"ment":320,"ri":321,"ro":322,"ĠÃ©":323,"Ġdu":324,"Ġ1":325,"ans":326,"Ġpar":327,"ĠL":328,"ce":329,"Ġau":330,"Ġ,":331,"as":332,"ĠC":333,"ont":334,"au":335,"Ġest":336,"ch":337,"me":338,"ie":339,"ta":340,"Ġb":341,"ve":342,"que":343,"ĠdÃ©":344,"ne":345,"ol":346,"res":347,"ĠS":348,"Ġ.":349,"Ġcom":350,"si":351,"se":352,"tÃ©":353,"Ġg":354,"Ġ2":355,"Ġre":356,"ation":357,"ĠM":358,"Ġdans":359,"Ġj":360,"ai":361,"Ã©e":362,"ci":363,"ais":364,"de":365,"Ġune":366,"Ġ(":367,"âĢ":368,"at":369,"ĠP":370,"Ġse":371,"Ġpour":372,"ag":373,"li":374,"ĠA":375,"Ġcon":376,"oi":377,"Ġpl":378,"mp":379,"ait":380,"Ġch":381,"ĠrÃ©":382,"ĠB":383,"Ġqui":384,"di":385,"Ġin":386,"Ġque":387,"Ġsur":388,"elle":389,"ran":390,"Ġ20":391,"Ġ19":392,"âĢĻ":393,"eu":394,"os":395,"ers":396,"ĠD":397,"Ġpro":398,"tre":399,"Ġil":400,"ĠE":401,"ĠI":402,"les":403,"Ġh":404,"ain":405,"ĠÂ":406,"Ã¨re":407,"Ġr":408,"ous":409,"Ġe":410,"ale":411,"ac":412,"itÃ©":413,"pp":414,"tu":415,"ĠR":416,"Ãª":417,"ff":418,"am":419,"ouv":420,"Ġo":421,"end":422,"ĠF":423,"ĠT":424,"Ġplus":425,"vi":426,"ab":427,"vec":428,"ille":429,"ui":430,"Ġson":431,"ul":432,"Ã¨s":433,"urs":434,"mi":435,"ĠG":436,"Ġavec":437,"ux":438,"Ġpas":439,"ig":440,"nÃ©":441,"une":442,"ge":443,"ter":444,"Ġdi":445,"ons":446,"ĠJ":447,"pe":448,"mb":449,"ue":450,"pr":451,"ois":452,"ort":453,"aire":454,"Ġav":455,"Ã©s":456,"Ġ:":457,"ĠN":458,"ques":459,"ite":460,"Ġan":461,"Ġsa":462,"ic":463,"ĠprÃ©":464,"Ġsu":465,"Ġpr":466,"and":467,"ĠIl":468,"onn":469,"tes":470,"ĠLe":471,"ine":472,"Ġce":473,"Ġsont":474,"Ġcomm":475,"uis":476,"ĠH":477,"Ã©ri":478,"ors":479,"ir":480,"ction":481,"ette":482,"ut":483,"ĠV":484,"ique":485,"Ġtr":486,"Ġou":487,"age":488,"Ġex":489,"ot":490,"Ġne":491,"ien":492,"che":493,"oc":494,"Ġparti":495,"op":496,"ad":497,"Ġra":498,"Ã§":499,"aux":500,"00":501,"ces":502,"ins":503,"ist":504,"ub":505,"Ġal":506,"entre":507,"Ġtou":508,"ion":509,"ĠÂ»":510,"og":511,"Ġ201":512,"ill":513,"ĠLa":514,"ĠÂ«":515,"ĠÃ©tÃ©":516,"ord":517,"Ġaux":518,"Ġcomp":519,"Ã´":520,"remi":521,"Ġsi":522,"ay":523,"oir":524,"ts":525,"ond":526,"ard":527,"Ġtra":528,"Ġnom":529,"Ġdeux":530,"ni":531,"ap":532,"ence":533,"Ġcomme":534,"Ġar":535,"mes":536,"ise":537,"Ġmo":538,"Ã©es":539,"Ġpremi":540,"Ġses":541,"Ġcons":542,"ure":543,"ati":544,"ĠÃ©ta":545,"Ġac":546,"im":547,"Ġcont":548,"Ġmais":549,"bre":550,"lle":551,"Ġmar":552,"tr":553,"Le":554,"ĠCh":555,"um":556,"av":557,"),":558,"ĠO":559,"Ġpeu":560,"tres":561,"teur":562,"ance":563,"ants":564,"ens":565,"lÃ©":566,"Ġte":567,"prÃ¨s":568,"ĠK":569,"ace":570,"Ġfor":571,"Ã¢":572,"ours":573,"Ġfait":574,"Ġ3":575,"Ġelle":576,"ĠdÃ©c":577,"ĠEn":578,").":579,"du":580,"Ã©r":581,"ĠU":582,"Ġcette":583,"iv":584,"Ġ18":585,"id":586,"Ãł":587,"Ġapp":588,"Ġno":589,"ations":590,"Ġont":591,"ĠW":592,"par":593,"sent":594,"Ġentre":595,"co":596,"Ġmon":597,"ĠLes":598,"Ġser":599,"Ã®":600,"Ãªme":601,"ph":602,"oit":603,"tique":604,"eur":605,"mbre":606,"oire":607,"erm":608,"sion":609,"Ġlui":610,"Ġdis":611,"ĠmÃ©":612,"alement":613,"Ġ200":614,"alis":615,"Ã¨me":616,"ouve":617,"tin":618,"Ġfin":619,"ct":620,"ĠFran":621,"ouver":622,"ier":623,"Ġ\"":624,"Ġcar":625,"imp":626,"oin":627,"Ġcl":628,"rit":629,"cu":630,"âĢĶ":631,"oy":632,"ments":633,"cip":634,"En":635,"Ġje":636,"rois":637,"all":638,"tif":639,"Ġes":640,"lis":641,"La":642,"ing":643,"Ã©ra":644,"elles":645,"Ġgran":646,"ten":647,"rou":648,"oci":649,"ass":650,"ĠPar":651,"ture":652,"ss":653,"onne":654,"aine":655,"ubli":656,"ang":657,"eux":658,"ussi":659,"Ġter":660,"aires":661,"Ã©d":662,"ex":663,"Ã©g":664,"Ġy":665,"Ġleur":666,"amp":667,"st":668,"ante":669,"lement":670,"ĠÃ©g":671,"Ġju":672,"Ġ4":673,"ib":674,"ob":675,"ong":676,"des":677,"Ġme":678,"tions":679,"Ġ202":680,"Ã©nÃ©":681,"nÃ©es":682,"Ã¹":683,"Ġat":684,"ĠÃ©tait":685,"Ġche":686,"min":687,"ven":688,"ĠÃ©c":689,"Ġ5":690,"itu":691,"tra":692,"mÃ©":693,"sid":694,"ĠmÃªme":695,"Ġsous":696,"nes":697,"Ġrec":698,"Ġtrav":699,"Ġma":700,"Ġmil":701,"ec":702,"ĠMar":703,"enne":704,"aient":705,"ĠrÃ©g":706,"Ġti":707,"Ġfran":708,"Ġans":709,"Ġinter":710,"puis":711,"qui":712,"ser":713,"Ġpuis":714,"use":715,"onc":716,"Ġlors":717,"Ġpe":718,"po":719,"ĠoÃ¹":720,"ient":721,"ire":722,"endant":723,"Ġaussi":724,"ici":725,"Ġdont":726,"Ġpers":727,"ĠÃª":728,"for":729,"ate":730,"pl":731,"nÃ©e":732,"Ã»":733,"Ġces":734,"Ġ199":735,"Ġfil":736,"Ã¨res":737,"iste":738,"Ġder":739,"ĠaprÃ¨s":740,"Ġtout":741,"Ġor":742,"insi":743,"cle":744,"Ġimp":745,"ales":746,"Ã©ta":747,"olog":748,"Ġcou":749,"Ġjus":750,"Ġob":751,"tis":752,"able":753,"ĠElle":754,"titu":755,"Ġpol":756,"Ġtrois":757,"man":758,"Ġsou":759,"orte":760,"ron":761,"Ġvous":762,"ĠÃªtre":763,"Ã©n":764,"th":765,"..":766,"Ã§ais":767,"ĠÃ©galement":768,"Ġavait":769,"Ġ%":770,"Ġdiff":771,"ĠÃī":772,"uit":773,"tant":774,"Ġpos":775,"Ġcol":776,"uer":777,"ieu":778,"Ġbien":779,"ĠFrance":780,"em":781,"Ġres":782,"Ġpubli":783,"Ġmin":784,"ĠAn":785,"ble":786,"Ġon":787,"Ġro":788,"Ã©c":789,"Ġprin":790,"Ġcommune":791,"Ġam":792,"Ġcontre":793,"Ġalors":794,"Ġ6":795,"Ġtemp":796,"Ġpeut":797,"Ã©m":798,"Ġk":799,"ĠsiÃ¨":800,"Ã©v":801,"Ġnombre":802,"Ġainsi":803,"uti":804,"Ġsec":805,"Ġcommun":806,"riv":807,"fin":808,"iss":809,"ents":810,"Ġren":811,"ĠX":812,"ĠJe":813,"Ġpremier":814,"Ġderni":815,"Ġjou":816,"Ġ'":817,"la":818,"Ġad":819,"alitÃ©":820,"anc":821,"Il":822,"igne":823,"ĠfranÃ§ais":824,"iques":825,"Ġrep":826,"enti":827,"ĠgÃ©nÃ©":828,"eau":829,"elon":830,"Ã¯":831,"Ġsitu":832,"jet":833,"Åĵ":834,"Ġdepuis":835,"lÃ¨":836,"ĠdÃ©b":837,"he":838,"endre":839,"ays":840,"ĠpremiÃ¨re":841,"Ġ)":842,"Ġtour":843,"Ġph":844,"tement":845,"omm":846,"Ġacc":847,"Ã©tÃ©":848,"aint":849,"ense":850,"aut":851,"ves":852,"vis":853,"mment":854,"Ġfut":855,"cher":856,"pÃ©":857,"ĠcrÃ©":858,"Ġ-":859,"Les":860,"Ġpersonn":861,"Ġcel":862,"ieurs":863,"lu":864,"ĠAl":865,"app":866,"Ġ17":867,"ert":868,"Ġjour":869,"Ġeff":870,"Ġ7":871,"Ġperm":872,"Ġsans":873,"core":874,"ĠtrÃ¨s":875,"Ġprop":876,"ari":877,"ures":878,"Ġconf":879,"Ġdire":880,"ver":881,"ente":882,"ĠDe":883,"ĠnÃ©":884,"vers":885,"Ġman":886,"od":887,"omme":888,"ĠgÃ©nÃ©ra":889,"Ġgrou":890,"emp":891,"rer":892,"Ġ;":893,"Ġcer":894,"Ãī":895,"Ãªte":896,"tri":897,"Ġsy":898,"Ġconc":899,"ner":900,"Ġpartie":901,"Ġfaire":902,"Ġ198":903,"Ġdev":904,"cien":905,"ĠÃ©v":906,"Ġab":907,"Ã©p":908,"ages":909,"tru":910,"asse":911,"Ġ8":912,"Ġquel":913,"ris":914,"Ġavant":915,"Ġconn":916,"ines":917,"out":918,"Ġfois":919,"ĠCe":920,"ĠannÃ©es":921,"ĠQ":922,"aÃ®":923,"Ġsoci":924,"agne":925,"Ġjusqu":926,"Ġsui":927,"iÃ¨me":928,"Ġent":929,"000":930,"Ġco":931,"ĠprÃ©sent":932,"ler":933,"Ġ197":934,"Ġsc":935,"ges":936,"Ġtrans":937,"aison":938,"Ġexp":939,"Ġprof":940,"Ġgrand":941,"ues":942,"Ġper":943,"Ġnouv":944,"Ġnous":945,"utilis":946,"Ġcour":947,"Ġca":948,"rent":949,"Ġville":950,"Ġpays":951,"Ġencore":952,"Ġnation":953,"Ġsep":954,"gan":955,"Ġri":956,"19":957,"ĠrÃ©p":958,"az":959,"Ġass":960,"itÃ©s":961,"Ġvers":962,"Ġplusieurs":963,"Ġaut":964,"vent":965,"are":966,"olu":967,"Ġremp":968,"Ġpoli":969,"ath":970,"tiques":971,"Ġprodu":972,"Ġmont":973,"ĠÃ©le":974,"Ġins":975,"Ġpeti":976,"Ġvo":977,"ĠSaint":978,"Ġpoin":979,"II":980,"omp":981,"ud":982,"Ġnota":983,"Ġfam":984,"Ġnouve":985,"Ġvi":986,"ches":987,"Ġfem":988,"Ġbas":989,"ĠsiÃ¨cle":990,"opp":991,"Ġpo":992,"Ġdit":993,"Ġvie":994,"ils":995,"omb":996,"els":997,"Ġ15":998,"Ġcor":999,"Ġmonde":1000,"Ġth":1001,"ĠdÃ©p":1002,"Ġhab":1003,"nement":1004,"Ġlong":1005,"Ġmort":1006,"ov":1007,"Un":1008,"rÃ©e":1009,"Ġmus":1010,"Ġprincip":1011,"vient":1012,"Ã»t":1013,"Ġtrava":1014,"Ġavoir":1015,"Ġgroupe":1016,"ĠIn":1017,"ric":1018,"ĠY":1019,"ode":1020,"Ã©ric":1021,"if":1022,"vier":1023,"oute":1024,"its":1025,"ru":1026,"ctions":1027,"ies":1028,"Ġ9":1029,"Ġtous":1030,"Ġni":1031,"lan":1032,"Ġrapp":1033,"Ġmal":1034,"ĠsÃ©":1035,"Ġplace":1036,"oul":1037,"Ġ10":1038,"Ġcin":1039,"Ġesp":1040,"Ġtemps":1041,"ĠÃ©p":1042,"Ġpermet":1043,"uss":1044,"pes":1045,"ose":1046,"teurs":1047,"Ġaff":1048,"Ġnotamment":1049,"Ġcap":1050,"tÃ©ri":1051,"ĠdÃ©f":1052,"Ġcerta":1053,"Ġpop":1054,"ich":1055,"mand":1056,"Ġsta":1057,"tiv":1058,"ats":1059,"Ġsol":1060,"ĠParis":1061,"Ġann":1062,"tÃ©s":1063,"Ġleurs":1064,"ĠUn":1065,"illes":1066,"vel":1067,"Ġ000":1068,"ton":1069,"Ġmoins":1070,"lig":1071,"tats":1072,"Ġquat":1073,"Ãªtre":1074,"agn":1075,"Ġdro":1076,"Ġ16":1077,"ĠprÃ©sid":1078,"Ġ196":1079,"cep":1080,"ak":1081,"ĠdÃ©par":1082,"Ġ194":1083,"Ġpopul":1084,"Ġfond":1085,"ign":1086,"Ã¨ne":1087,"uerre":1088,"Ã©rie":1089,"quipe":1090,"vre":1091,"ĠAu":1092,"ole":1093,"Ġoff":1094,"ieux":1095,"Ġdonc":1096,"ĠrÃ©gion":1097,"20":1098,"Ġvis":1099,"ern":1100,"ĠrÃ©alis":1101,"int":1102,"Ġutilis":1103,"tive":1104,"ĠAr":1105,"mer":1106,"ĠPour":1107,"illet":1108,"one":1109,"Ġmes":1110,"Ã©lÃ©":1111,"tÃ©g":1112,"Ġautres":1113,"raph":1114,"ia":1115,"Ġpass":1116,"riÃ¨re":1117,"Ġinc":1118,"lus":1119,"Ġas":1120,"rÃ©sent":1121,"Ġfa":1122,"mÃ©e":1123,"ĠdiffÃ©r":1124,"mis":1125,"mble":1126,"Ġrest":1127,"esse":1128,"eure":1129,"chÃ©":1130,"cc":1131,"antes":1132,"tat":1133,"Ġmilli":1134,"Ġnouveau":1135,"Ġchamp":1136,"ellement":1137,"dition":1138,"Ġpri":1139,"rop":1140,"enn":1141,"onde":1142,"ĠÃ©tu":1143,"lo":1144,"pi":1145,"ĠprÃ©c":1146,"Ã©rÃ©":1147,"rait":1148,"ains":1149,"Ġfilm":1150,"anvier":1151,"Ġservi":1152,"ĠreprÃ©sent":1153,"ateur":1154,"ĠÃĢ":1155,"Ġmat":1156,"ind":1157,"per":1158,"Ġag":1159,"Ġpouv":1160,"uses":1161,"ĠcÃ´":1162,"Ġjanvier":1163,"Ġsoit":1164,"ganis":1165,"Ġsaison":1166,"Ġils":1167,"ĠMais":1168,"Ġgouver":1169,"tembre":1170,"Ġmai":1171,"sition":1172,"ĠZ":1173,"Ġselon":1174,"orti":1175,"Ġchar":1176,"Ġcours":1177,"Ġver":1178,"Ġfamille":1179,"ĠdÃ©but":1180,"Ġmis":1181,"ĠpÃ©ri":1182,"ade":1183,"ĠrÃ©s":1184,"Ġnon":1185,"Ġseptembre":1186,"lie":1187,"rier":1188,"Ġcan":1189,"ature":1190,"cont":1191,"ĠQu":1192,"ili":1193,"Ġhabit":1194,"Ġfr":1195,"art":1196,"acc":1197,"Ġsuite":1198,"Ġtoute":1199,"su":1200,"onom":1201,"velopp":1202,"Ġjuin":1203,"Ġz":1204,"ĠJean":1205,"Ġcas":1206,"avi":1207,"Ġindi":1208,"Ġjuillet":1209,"Ġsuiv":1210,"Ġenf":1211,"oÃ»t":1212,"Ġ12":1213,"gÃ©":1214,"cid":1215,"quÃ©":1216,"gn":1217,"ĠlÃ©g":1218,"gl":1219,"Ġemp":1220,"aque":1221,"rÃª":1222,"Ġpendant":1223,"Ġseu":1224,"Ġmen":1225,"Ġ195":1226,"ĠRe":1227,"ril":1228,"ah":1229,"Ġ14":1230,"Ġdou":1231,"ell":1232,"Ġli":1233,"Ġlieu":1234,"Ġmoy":1235,"ĠOn":1236,"Ġpartir":1237,"autres":1238,"aiss":1239,"Ã¨tres":1240,"ĠDans":1241,"Ġmet":1242,"ĠUne":1243,"lar":1244,"ĠdÃ©velopp":1245,"ĠamÃ©ric":1246,"Ã©t":1247,"Ġquelques":1248,"tel":1249,"rib":1250,"Ġgrande":1251,"ions":1252,"aines":1253,"urant":1254,"ĠCette":1255,"Ġloc":1256,"cou":1257,"Ġcompr":1258,"ix":1259,"ze":1260,"ann":1261,"Ġdom":1262,"Ġmars":1263,"Ġquatre":1264,"Ġeur":1265,"Ġappar":1266,"ĠÂ».":1267,"Ġpublic":1268,"Ġkm":1269,"ison":1270,"ug":1271,"Ã´le":1272,"ouvent":1273,"Ġcli":1274,"Ġmois":1275,"ĠTh":1276,"jours":1277,"ata":1278,"isse":1279,"ach":1280,"form":1281,"Ġclub":1282,"Ġ13":1283,"ow":1284,"obre":1285,"Ġim":1286,"nation":1287,"Ġpres":1288,"Ġinf":1289,"Ã©ration":1290,"Ġnouvelle":1291,"pec":1292,"Ġ?":1293,"Ġpor":1294,"ĠÃ©t":1295,"istre":1296,"Ġ11":1297,"lier":1298,"Åĵu":1299,"bles":1300,"Ġdon":1301,"oh":1302,"Ġcent":1303,"Ġfon":1304,"gra":1305,"Ġvic":1306,"Ġoct":1307,"vembre":1308,"rÃ©s":1309,"Ġpi":1310,"ps":1311,"ograph":1312,"Ġsal":1313,"Ġret":1314,"ore":1315,"Ã©tait":1316,"uc":1317,"ry":1318,"Ġ193":1319,"ourd":1320,"fois":1321,"erg":1322,"An":1323,"Ġfer":1324,"Ġjours":1325,"Ġtitre":1326,"Ġreg":1327,"mar":1328,"cul":1329,"istoire":1330,"Ġnovembre":1331,"Ġchez":1332,"Ġdernier":1333,"Ġsud":1334,"Ġimport":1335,"ras":1336,"Ġcelui":1337,"ĠsÃ©rie":1338,"ivers":1339,"Ġrepr":1340,"Ġgr":1341,"Ġcul":1342,"ros":1343,"iti":1344,"ommes":1345,"ĠdÃ©ce":1346,"Ġmod":1347,"Ġnord":1348,"rand":1349,"amb":1350,"Ġoctobre":1351,"fic":1352,"illeurs":1353,"Ġpart":1354,"Ġform":1355,"ĠaoÃ»t":1356,"Ġmain":1357,"Ġvill":1358,"dic":1359,"Ġpersonnes":1360,"lic":1361,"Ġvol":1362,"Ġautre":1363,"Ġtoujours":1364,"ierre":1365,"tÃ©e":1366,"olution":1367,"Ġsp":1368,"serv":1369,"rain":1370,"ame":1371,"ĠdÃ©cembre":1372,"ok":1373,"Ġrel":1374,"land":1375,"Ġdevient":1376,"ionn":1377,"Ġparticu":1378,"itaire":1379,"ĠCar":1380,"Ġsorti":1381,"ĠÃītats":1382,"18":1383,"ĠdÃ©j":1384,"pÃ©ci":1385,"...":1386,"Ġmatch":1387,"Ġpolitique":1388,"suite":1389,"Ġcelle":1390,"Ġterrit":1391,"lin":1392,"tier":1393,"Ã´t":1394,"Ġavril":1395,"entes":1396,"iter":1397,"ĠEt":1398,"Ã¨ce":1399,"Ġgra":1400,"Ġcontin":1401,"oix":1402,"Ġrou":1403,"ĠspÃ©ci":1404,"ĠNe":1405,"Ġdisp":1406,"Ġrencont":1407,"Ġven":1408,"Ġguerre":1409,"ĠprÃ©sident":1410,"vin":1411,"ĠgÃ©nÃ©ral":1412,"ienne":1413,"aise":1414,"Ġnive":1415,"ori":1416,"ĠdÃ©partement":1417,"opÃ©":1418,"Ġcri":1419,"Ġface":1420,"ites":1421,"Ġoc":1422,"Ġhabitants":1423,"gne":1424,"hui":1425,"ger":1426,"Ġtant":1427,"Ġeffet":1428,"Ġappel":1429,"isme":1430,"Ġaur":1431,"cole":1432,"ange":1433,"Ġbeau":1434,"ĠprÃ¨s":1435,"ĠdÃ©jÃł":1436,"mbl":1437,"ĠÂ»,":1438,"Ã©vrier":1439,"Ġprojet":1440,"tient":1441,"Ġliv":1442,"Ġsera":1443,"fi":1444,"oph":1445,"Ġgouvernement":1446,"Ġeu":1447,"Ġst":1448,"yant":1449,"Unis":1450,"Ġcompos":1451,"ĠfÃ©vrier":1452,"uel":1453,"ali":1454,"ĠÃ©taient":1455,"Ġva":1456,"quer":1457,"ĠâĢ":1458,"Ã¨rement":1459,"uro":1460,"Ġroi":1461,"Ġdeven":1462,"Ġport":1463,"sions":1464,"Ġpoint":1465,"ĠrÃ©f":1466,"ane":1467,"Ġind":1468,"fs":1469,"enc":1470,"Ġtard":1471,"ises":1472,"ourg":1473,"Ġjoue":1474,"bum":1475,"Ġretr":1476,"aur":1477,"Ġconstitu":1478,"ĠpÃ©riode":1479,"ls":1480,"lex":1481,"Ġligne":1482,"cteur":1483,"ĠdÃ©s":1484,"orm":1485,"Ã¨rent":1486,"ences":1487,"Ġjeu":1488,"oles":1489,"be":1490,"ables":1491,"ĠChar":1492,"ĠrÃ©c":1493,"Ġty":1494,"ital":1495,"atri":1496,"iens":1497,"Ġgar":1498,"lise":1499,"Ġcomb":1500,"uni":1501,"pendant":1502,"mande":1503,"Ġcompte":1504,"ĠthÃ©":1505,"Ġtoutes":1506,"Ġporte":1507,"Ġconsid":1508,"Ġdonn":1509,"Ġnature":1510,"Ġdist":1511,"tal":1512,"Ġinternation":1513,"Ġensuite":1514,"ĠsituÃ©e":1515,"aÃ¯":1516,"Ġlib":1517,"Ġcet":1518,"ĠdeuxiÃ¨me":1519,"bil":1520,"ke":1521,"lection":1522,"atique":1523,"Ġretour":1524,"yle":1525,"Ġenvi":1526,"Ġcoup":1527,"Ġmondi":1528,"Ġfl":1529,"Ġplan":1530,"jourd":1531,"Ġbou":1532,"ande":1533,"ances":1534,"Ġprob":1535,"Ġconse":1536,"tent":1537,"Ġ0":1538,"assi":1539,"Ġmaj":1540,"vision":1541,"Ġtrouve":1542,"Ġbr":1543,"oris":1544,"Ġpopulation":1545,"ologie":1546,"cess":1547,"temp":1548,"Ġdoit":1549,"Ġreste":1550,"aÃ®t":1551,"ĠeuropÃ©":1552,"Ġforme":1553,"Ġop":1554,"Ġcontra":1555,"eures":1556,"Ġ/":1557,"tait":1558,"oires":1559,"ĠreÃ§":1560,"istor":1561,"ĠCon":1562,"ĠannÃ©e":1563,"join":1564,"Ġsucc":1565,"ax":1566,"urent":1567,"Ġfemme":1568,"ĠfranÃ§aise":1569,"ement":1570,"Ġfra":1571,"poque":1572,"Ġsupp":1573,"Ġrapport":1574,"Ġexemp":1575,"Ġrom":1576,"Ġfils":1577,"Ġmoi":1578,"ĠDes":1579,"Ġcela":1580,"Ġfonction":1581,"Ġcamp":1582,"Ġorganis":1583,"vÃ©":1584,"dre":1585,"ĠSh":1586,"ĠSon":1587,"Ġparticip":1588,"sionn":1589,"Ġsub":1590,"ĠpÃ¨re":1591,"ateurs":1592,"ĠtÃ©lÃ©":1593,"ĠIls":1594,"ĠtÃªte":1595,"Ġvillage":1596,"Ġ30":1597,"usse":1598,"Ġjeune":1599,"Ar":1600,"aul":1601,"iÃ¨re":1602,"Ġcir":1603,"Ġbut":1604,"Ġ25":1605,"ative":1606,"voir":1607,"Ġcinq":1608,"Ġcad":1609,"Ã¢te":1610,"Ġchaque":1611,"Ã©b":1612,"yn":1613,"Au":1614,"aud":1615,"ret":1616,"ĠdÃ©m":1617,"ys":1618,"Ã¨de":1619,"istes":1620,"Ġmom":1621,"ĠMont":1622,"Ġconstru":1623,"Ġsyst":1624,"Ġcentre":1625,"Ġcher":1626,"annÃ©e":1627,"ration":1628,"Ġten":1629,"Ġoffici":1630,"Ġfais":1631,"Ġniveau":1632,"Ġsecond":1633,"Ġclim":1634,"iller":1635,"vo":1636,"Ġci":1637,"da":1638,"Elle":1639,"Ġbar":1640,"Ġsig":1641,"rai":1642,"Ġ2018":1643,"Ġnombreux":1644,"illi":1645,"ast":1646,"Ġid":1647,"rique":1648,"Ġlar":1649,"oth":1650,"uire":1651,"Ġ2022":1652,"Ġvoit":1653,"ez":1654,"ĠAprÃ¨s":1655,"Ġprom":1656,"Ġafin":1657,"ma":1658,"Â«":1659,"Ġseul":1660,"iles":1661,"Ãītat":1662,"ile":1663,"Ġtravers":1664,"Ġvoy":1665,"ÃĢ":1666,"aff":1667,"Ġmer":1668,"ĠSe":1669,"Ġhomme":1670,"rage":1671,"adi":1672,"Ġsouvent":1673,"sible":1674,"Ġpouvoir":1675,"Ġcro":1676,"gu":1677,"Ġtech":1678,"Ġalle":1679,"Ġfemmes":1680,"ones":1681,"ĠsociÃ©tÃ©":1682,"Ġmillions":1683,"In":1684,"Ã¨le":1685,"Ġref":1686,"urope":1687,"erie":1688,"Ġcarac":1689,"io":1690,"coup":1691,"lique":1692,"cup":1693,"Ġ{":1694,"ĠCor":1695,"ĠThe":1696,"air":1697,"inc":1698,"Ġpeuvent":1699,"ome":1700,"Ã¨te":1701,"Ġof":1702,"Ġess":1703,"amais":1704,"grÃ©":1705,"Ġ192":1706,"Ġsite":1707,"ĠdÃ©si":1708,"ĠCl":1709,"Ã¢ce":1710,"ĠÃ©tant":1711,"ĠbÃ¢":1712,"Ġrecher":1713,"minist":1714,"Ġchef":1715,"ĠSt":1716,"Ġdiri":1717,"Ġprix":1718,"cri":1719,"Ã©quipe":1720,"Ġtu":1721,"ĠXV":1722,"Ġterm":1723,"Ġdoc":1724,"Al":1725,"Ġdevant":1726,"ĠBar":1727,"lles":1728,"yc":1729,"Ġsour":1730,"Ġministre":1731,"Â»":1732,"Ġnationale":1733,"Ġ2020":1734,"Ġprend":1735,"Ġlit":1736,"seau":1737,"ĠPh":1738,"Ġayant":1739,"tien":1740,"Ġbl":1741,"Ġhommes":1742,"Ġatte":1743,"Ġenfants":1744,"Ġrend":1745,"igine":1746,"tifs":1747,"ĠdÃ¨s":1748,"Ġquand":1749,"ĠÃ©ch":1750,"Ġunivers":1751,"Ġreconn":1752,"Ġense":1753,"Ġsem":1754,"ouis":1755,"quel":1756,"aliste":1757,"Ġproc":1758,"pose":1759,"ĠBel":1760,"tic":1761,"Ġclasse":1762,"De":1763,"Ġtravail":1764,"estion":1765,"ĠBr":1766,"mo":1767,"quelle":1768,"Ġraison":1769,"ed":1770,"mbres":1771,"Ġterritoire":1772,"Ġmoment":1773,"Ġcommunes":1774,"Ġjamais":1775,"unes":1776,"tation":1777,"inter":1778,"ĠÃ©quipe":1779,"leur":1780,"Ġouv":1781,"ennent":1782,"Ġconser":1783,"ĠcÃ´tÃ©":1784,"Åĵur":1785,"Ġ2010":1786,"ĠCes":1787,"Ġmaison":1788,"Ġnational":1789,"aume":1790,"let":1791,"ouse":1792,"Ġactu":1793,"Ġlaquelle":1794,"Ġ2015":1795,"Ã§on":1796,"Ġsau":1797,"ĠGu":1798,"nÃ©s":1799,"Ġrem":1800,"Ġquar":1801,"Ġjourn":1802,"rant":1803,"autre":1804,"lac":1805,"ĠÅĵu":1806,"gram":1807,"era":1808,"Ġesti":1809,"Ġservice":1810,"Ġpetit":1811,"pÃ©ri":1812,"anci":1813,"Ġcertains":1814,"anti":1815,"ĠCol":1816,"Ġparc":1817,"ute":1818,"Ġfort":1819,"Ġbat":1820,"ki":1821,"ĠSa":1822,"histoire":1823,"ĠJac":1824,"Ġdroit":1825,"Ġsix":1826,"ĠSi":1827,"ĠCou":1828,"Ġmembres":1829,"Ã©cu":1830,"Ġord":1831,"Ġpris":1832,"uli":1833,"son":1834,"Ġcal":1835,"Ġ2019":1836,"Ã©l":1837,"ĠÃ©crit":1838,"Ġ191":1839,"Ġbeaucoup":1840,"Ġ24":1841,"Ġbase":1842,"oot":1843,"ouest":1844,"Ġdemand":1845,"Ġmari":1846,"val":1847,"Ġrue":1848,"Ġmati":1849,"esp":1850,"Ġ2021":1851,"Ġ!":1852,"Ġmag":1853,"Ġinst":1854,"Ġvit":1855,"ĠrÃ´le":1856,"ĠsituÃ©":1857,"Ġplu":1858,"Ġviv":1859,"Dans":1860,"Ġhistor":1861,"gent":1862,"Ġcommer":1863,"origine":1864,"Ġdurant":1865,"cident":1866,"ress":1867,"Ġmouve":1868,"Ġw":1869,"ĠgÃ©":1870,"Ġlim":1871,"Ġmeille":1872,"ennes":1873,"Ġquit":1874,"Ġposs":1875,"urb":1876,"ĠsystÃ¨me":1877,"ox":1878,"once":1879,"ets":1880,"raÃ®":1881,"Ġhau":1882,"apon":1883,"truit":1884,"ĠbÃ¢ti":1885,"Ġcapit":1886,"Ġmot":1887,"ule":1888,"sence":1889,"Ġvict":1890,"ball":1891,"Ġscien":1892,"ront":1893,"Ã¡":1894,"Ġchampionn":1895,"Ġ21":1896,"Ġsimp":1897,"Ã©ti":1898,"Ġbi":1899,"Ã©rence":1900,"Ġeffec":1901,"Ã¢teau":1902,"ĠtroisiÃ¨me":1903,"ovi":1904,"ĠderniÃ¨re":1905,"Ġlang":1906,"ĠdÃ©fin":1907,"Ġall":1908,"Ġauc":1909,"Ġaujourd":1910,"Ġroy":1911,"port":1912,"Ġpropos":1913,"jou":1914,"Ġtrop":1915,"Ġ2014":1916,"Ġceux":1917,"ĠgrÃ¢ce":1918,"Ġsein":1919,"Ġ23":1920,"ĠPro":1921,"ĠlÃł":1922,"aissance":1923,"Ġ22":1924,"rang":1925,"Ġexemple":1926,"Ġfille":1927,"ĠcarriÃ¨re":1928,"Ġvoir":1929,"Ġbon":1930,"Ġfaut":1931,"sp":1932,"ide":1933,"cture":1934,"ĠÃ©qui":1935,"ission":1936,"Ġpremiers":1937,"Ġpra":1938,"ouvert":1939,"ards":1940,"Ġ2011":1941,"ĠÃ©tab":1942,"Ġtrou":1943,"Ġmuni":1944,"ĠrÃ©sul":1945,"agit":1946,"Ġ2017":1947,"Ġhum":1948,"Ġelles":1949,"ĠmÃ¨tres":1950,"ĠJoh":1951,"reg":1952,"Ġâ":1953,"asion":1954,"Ġmembre":1955,"rie":1956,"gment":1957,"ral":1958,"cipe":1959,"tiÃ¨re":1960,"ologique":1961,"dis":1962,"mÃªme":1963,"Ġgen":1964,"ĠrÃ©v":1965,"sement":1966,"Ã¨ces":1967,"ĠMon":1968,"Ġrejoin":1969,"Ġatt":1970,"ĠCan":1971,"Ġchans":1972,"Ġ190":1973,"rale":1974,"ĠNew":1975,"Ġcr":1976,"Ã©ro":1977,"ditions":1978,"Ġarriv":1979,"ĠnommÃ©":1980,"50":1981,"avant":1982,"ck":1983,"andis":1984,"oritÃ©":1985,"chi":1986,"Ġprofes":1987,"off":1988,"ĠprÃ©sente":1989,"Ġartis":1990,"pide":1991,"yp":1992,"Ġcorps":1993,"Ġpasse":1994,"Ġ2016":1995,"ourn":1996,"Ġlarge":1997,"Ġnotre":1998,"prise":1999,"gue":2000,"Ã§ois":2001,"ieur":2002,"Ġprovin":2003,"Ġtomb":2004,"Ġnombreuses":2005,"ĠAm":2006,"hi":2007,"alif":2008,"Ġdix":2009,"ĠsuccÃ¨s":2010,"vement":2011,"nivers":2012,"to":2013,"Ġmise":2014,"ĠNord":2015,"Ġenviron":2016,"ka":2017,"Ã©lÃ¨":2018,"ess":2019,"Ġtrouv":2020,"Ġ2013":2021,"Ġculture":2022,"ression":2023,"Ġseulement":2024,"temps":2025,"vant":2026,"autÃ©":2027,"Ġsoi":2028,"Ġmilieu":2029,"ani":2030,"tionn":2031,"ĠGe":2032,"urg":2033,"vres":2034,"Ġ2012":2035,"tÃ©rieur":2036,"tor":2037,"vez":2038,"Ġfinale":2039,"onie":2040,"Ġorig":2041,"duit":2042,"ĠmÃ¨re":2043,"Ġdess":2044,"ĠÃ©conom":2045,"Ġfont":2046,"Ġheures":2047,"ĠMal":2048,"ĠamÃ©ricain":2049,"enant":2050,"Ã©li":2051,"idÃ©":2052,"ice":2053,"ĠSch":2054,"Ġ2023":2055,"Ch":2056,"ota":2057,"Ġfeu":2058,"ĠdÃ©clar":2059,"Ġpoints":2060,"ustri":2061,"Ġatta":2062,"Ġrapide":2063,"ĠrÃ©pond":2064,"Ġfac":2065,"Ġtourn":2066,"Ġmondiale":2067,"Ġprogram":2068,"crip":2069,"Ġcadre":2070,"ĠÃ¢":2071,"gle":2072,"Ġavaient":2073,"Ġrev":2074,"Ġeux":2075,"tout":2076,"Fran":2077,"rig":2078,"inf":2079,"ano":2080,"ĠnÃ©cess":2081,"Ġcontr":2082,"dio":2083,"Ġmunicip":2084,"Ġancien":2085,"Ġassoci":2086,"Ġalbum":2087,"ock":2088,"Ġrien":2089,"Ã¨se":2090,"Ġreven":2091,"Ġposte":2092,"sez":2093,"erre":2094,"Ġris":2095,"abord":2096,"igue":2097,"Ġviol":2098,"ied":2099,"Ã©qu":2100,"Ġphot":2101,"erne":2102,"ition":2103,"Ġlongue":2104,"Ġvotre":2105,"Ġplac":2106,"Ġple":2107,"Ġdemande":2108,"Ġrencontre":2109,"Ġsort":2110,"ĠPierre":2111,"antÃ©":2112,"ina":2113,"reu":2114,"lam":2115,"Ġ2009":2116,"raine":2117,"yd":2118,"Ġtandis":2119,"Ġpetite":2120,"Ġ2008":2121,"did":2122,"Ġmusique":2123,"Ġexc":2124,"Ġtechn":2125,"dam":2126,"tenir":2127,"eng":2128,"Ġ26":2129,"ĠSud":2130,"Mar":2131,"ribu":2132,"ĠMe":2133,"Ġloi":2134,"Ġfig":2135,"lab":2136,"xim":2137,"ĠmaÃ®":2138,"tenant":2139,"ende":2140,"Ã«":2141,"ĠBe":2142,"Ġdiffus":2143,"ublique":2144,"Ġpriv":2145,"crit":2146,"voy":2147,"ysi":2148,"Ġsyn":2149,"ly":2150,"Ġ28":2151,"Ã©ch":2152,"Ġsus":2153,"AprÃ¨s":2154,"ith":2155,"Ġroute":2156,"position":2157,"Ġanci":2158,"onnement":2159,"ĠXI":2160,"Ġaurait":2161,"arch":2162,"ĠOr":2163,"Ġ27":2164,"Ġ{\\":2165,"tro":2166,"III":2167,"Ġqualif":2168,"Ġconnu":2169,"Ġprendre":2170,"Ġvoix":2171,"ĠII":2172,"ĠcaractÃ©":2173,"ĠprÃ©f":2174,"ĠLouis":2175,"jec":2176,"Ġangl":2177,"up":2178,"action":2179,"urÃ©":2180,"Ġsais":2181,"Cette":2182,"ĠdiffÃ©rents":2183,"eff":2184,"Ġdemi":2185,"ĠsupÃ©ri":2186,"erb":2187,"ĠMich":2188,"att":2189,"Ġ189":2190,"ĠGrand":2191,"Ġmoyenne":2192,"ville":2193,"Ġparticuli":2194,"ork":2195,"je":2196,"lec":2197,"ĠchÃ¢teau":2198,"Ġfoot":2199,"Ġtype":2200,"ĠmÃ©di":2201,"forme":2202,"Ġautour":2203,"ppe":2204,"Ã©cur":2205,"assin":2206,"Ġprofessionn":2207,"Ġrelig":2208,"Ġterre":2209,"cs":2210,"Ġserait":2211,"Ġactiv":2212,"vous":2213,"ĠdonnÃ©es":2214,"auche":2215,"ase":2216,"aÃ®tre":2217,"Ġcommence":2218,"Ġpropri":2219,"oss":2220,"ime":2221,"ĠdÃ©veloppement":2222,"Ġproduction":2223,"Ġsurtout":2224,"ik":2225,"prÃ©":2226,"ĠRoy":2227,"ĠdÃ©pl":2228,"ĠVal":2229,"yl":2230,"ĠRuss":2231,"Ġmarqu":2232,"ĠJohn":2233,"ĠMan":2234,"ony":2235,"Ġorigin":2236,"Ġpours":2237,"Ġgrands":2238,"cide":2239,"ĠDi":2240,"Ġveu":2241,"iers":2242,"orie":2243,"Ġ187":2244,"utÃ©":2245,"Ġbrit":2246,"Ġmesure":2247,"lÃ©ment":2248,"lace":2249,"ĠCom":2250,"atiques":2251,"Ġnum":2252,"Ġ2000":2253,"Ã³":2254,"ĠCoupe":2255,"Ġkil":2256,"ha":2257,"Ġdonne":2258,"der":2259,"Ã¢tre":2260,"Ġ188":2261,"Ġexpl":2262,"Ã©poque":2263,"ambre":2264,"exp":2265,"hab":2266,"Ġobserv":2267,"Ġresp":2268,"uelle":2269,"Ġjeunes":2270,"ĠÃ©tudi":2271,"Ġclass":2272,"ision":2273,"ĠCel":2274,"aille":2275,"ument":2276,"Ġdivers":2277,"Ġpu":2278,"Ġpein":2279,"Ġnos":2280,"Ġvari":2281,"rir":2282,"ĠRob":2283,"17":2284,"ication":2285,"ĠscÃ¨ne":2286,"Ġzone":2287,"Ce":2288,"ĠespÃ¨ce":2289,"Ġcause":2290,"Ġdirection":2291,"Ġcandid":2292,"ettre":2293,"Ġlanc":2294,"ĠSur":2295,"oration":2296,"ouss":2297,"va":2298,"Ġparmi":2299,"oise":2300,"Ġchampionnat":2301,"ana":2302,"oncÃ©":2303,"ĠfrÃ©":2304,"Ġeng":2305,"Ġcrois":2306,"atoire":2307,"Ġtable":2308,"Ġbata":2309,"enf":2310,"Ġallemand":2311,"ĠHen":2312,"ÃŃ":2313,"ĠmaniÃ¨re":2314,"magne":2315,"ĠrÃ¨":2316,"Ġseule":2317,"ĠcaractÃ©ris":2318,"quÃªte":2319,"duc":2320,"itaires":2321,"Ġeffectu":2322,"ible":2323,"less":2324,"Ġnouvelles":2325,"Ã¼":2326,"Ġcath":2327,"Ġnavi":2328,"ĠpubliÃ©":2329,"cad":2330,"Ġ2007":2331,"Ġtent":2332,"ouverte":2333,"Ġanim":2334,"Ġtravaux":2335,"Ġremporte":2336,"icile":2337,"Ġchange":2338,"Ġ50":2339,"Ġproduit":2340,"ĠLors":2341,"tern":2342,"play":2343,"endu":2344,"ĠÃ©tudes":2345,"ĠRÃ©p":2346,"neur":2347,"Ġparfois":2348,"ustra":2349,"ortÃ©":2350,"Ġconstruction":2351,"mique":2352,"ote":2353,"Ġhaut":2354,"aprÃ¨s":2355,"Ġterme":2356,"sse":2357,"ĠTr":2358,"Ġtri":2359,"Ġrecherche":2360,"issement":2361,"Ġmouvement":2362,"Ġcommenc":2363,"Ġrespons":2364,"ĠSu":2365,"Ġmettre":2366,"Ġ100":2367,"ĠÃ©lect":2368,"Ġ29":2369,"ick":2370,"Ġbois":2371,"Ġlorsque":2372,"Ġpens":2373,"avait":2374,"Ġtradition":2375,"Ġmilitaire":2376,"con":2377,"llemagne":2378,"lande":2379,"rÃªt":2380,"Ġfai":2381,"part":2382,"ĠComm":2383,"alitÃ©s":2384,"Ã©tu":2385,"Ġmeur":2386,"ĠCharles":2387,"Pour":2388,"Ġkilom":2389,"Ã©rique":2390,"utes":2391,"ires":2392,"Ã¨nes":2393,"ae":2394,"ĠGuerre":2395,"Ġdispar":2396,"Ġ2006":2397,"ĠÃ©lections":2398,"ĠprÃ©v":2399,"Ġformation":2400,"gique":2401,"Ġ186":2402,"Ġpersonne":2403,"tivement":2404,"ĠrÃ©alisÃ©":2405,"ada":2406,"ĠcrÃ©ation":2407,"can":2408,"ĠBer":2409,"dÃ©":2410,"men":2411,"Ġrusse":2412,"armÃ©e":2413,"Ġsujet":2414,"ĠfÃ©":2415,"by":2416,"Ġquestion":2417,"Ġsens":2418,"ĠâĢĶ":2419,"ira":2420,"ĠdiffÃ©rentes":2421,"Ġpuiss":2422,"Ã©mie":2423,"Je":2424,"Ġadminist":2425,"tenu":2426,"dess":2427,"ĠrÃ©seau":2428,"ocra":2429,"dit":2430,"Ġsuc":2431,"mÃ©di":2432,"ensemble":2433,"Ġnuit":2434,"Ġversion":2435,"ablement":2436,"Ġdirecteur":2437,"quant":2438,"oly":2439,"Ġbord":2440,"tie":2441,"Ġpied":2442,"ĠFranÃ§ois":2443,"ars":2444,"Ġretra":2445,"ara":2446,"isation":2447,"titude":2448,"ĠÃ§":2449,"tine":2450,"pecta":2451,"Ġquelque":2452,"Ġvictoire":2453,"Ġlivre":2454,"Ġtex":2455,"Ġital":2456,"ĠPremi":2457,"hÃ´":2458,"osÃ©":2459,"avoir":2460,"iÃ©":2461,"Ġtot":2462,"Ġfus":2463,"oun":2464,"quent":2465,"dec":2466,"Ġcependant":2467,"duire":2468,"ĠcompÃ©ti":2469,"Ġdate":2470,"umi":2471,"ĠsÃ©lection":2472,"Ġrecense":2473,"Ġjoueur":2474,"Ġsuis":2475,"Ġparticulier":2476,"ulti":2477,"uk":2478,"Ġthe":2479,"onsieur":2480,"Ġpossible":2481,"Ġami":2482,"anger":2483,"Ã¨mes":2484,"Ġlequel":2485,"Ġbes":2486,"Ġsuff":2487,"Ġdra":2488,"Ġliste":2489,"Ġchois":2490,"ĠIs":2491,"ĠdÃ©n":2492,"ĠprÃ©cÃ©d":2493,"annique":2494,"Ġparticipe":2495,"Ġmoyen":2496,"Ã¨ge":2497,"Ġsigni":2498,"cons":2499,"Ġmor":2500,"agnie":2501,"tÃ©ra":2502,"Ġregard":2503,"til":2504,"ĠÃ§a":2505,"ĠtempÃ©ra":2506,"quet":2507,"ĠdÃ©ta":2508,"aw":2509,"ĠPe":2510,"ĠdonnÃ©":2511,"ticle":2512,"vie":2513,"pond":2514,"Ġ179":2515,"Ġempl":2516,"Ã©ment":2517,"Ġprincipale":2518,"Ġpa":2519,"alais":2520,"Ġtermin":2521,"style":2522,"Ġprovince":2523,"ilitÃ©":2524,"ĠSelon":2525,"ĠfrÃ¨re":2526,"Ġneu":2527,"bilitÃ©":2528,"occ":2529,"Ġposition":2530,"ĠrÃ©un":2531,"ĠentraÃ®":2532,"indre":2533,"act":2534,"ĠAb":2535,"Ġgauche":2536,"Ġfit":2537,"ley":2538,"display":2539,"displaystyle":2540,"Ãªt":2541,"leurs":2542,"Ġsuper":2543,"Ġstatu":2544,"Ġassez":2545,"Ġdisc":2546,"af":2547,"Ġgenre":2548,"Ġdoi":2549,"Ġress":2550,"lit":2551,"Ġdur":2552,"Ġmm":2553,"Ġcombat":2554,"ĠsÃ©cur":2555,"Ġpropre":2556,"10":2557,"aj":2558,"ĠpremiÃ¨res":2559,"15":2560,"Ã©glise":2561,"Ġcant":2562,"Ġaugment":2563,"Ġcommand":2564,"Ġsuivante":2565,"Ġdirec":2566,"lev":2567,"ĠChamp":2568,"ĠSal":2569,"Ã¢ge":2570,"Ġprofesse":2571,"Ġsavoir":2572,"Ġis":2573,"Ġsign":2574,"Ġvue":2575,"ĠdÃ©rou":2576,"odes":2577,"Ġscientif":2578,"Ġvale":2579,"cal":2580,"sur":2581,"ĠsiÃ¨ge":2582,"ardin":2583,"ĠeuropÃ©enne":2584,"Une":2585,"Ġ1990":2586,"tention":2587,"organis":2588,"ensi":2589,"Ġseconde":2590,"Ġsituation":2591,"Ġunique":2592,"talie":2593,"orter":2594,"resse":2595,"Ġ2005":2596,"ĠprÃ©sence":2597,"homme":2598,"ĠÂ°":2599,"Ġconstruit":2600,"Ġprog":2601,"ĠcatÃ©g":2602,"Ġailleurs":2603,"otte":2604,"niques":2605,"Ġinv":2606,"30":2607,"ple":2608,"ĠbÃ©nÃ©":2609,"Ġopp":2610,"ĠPr":2611,"ĠRussie":2612,"ouvre":2613,"Ġdivision":2614,"Ġloin":2615,"Ġsept":2616,"ainte":2617,"Ġcertaines":2618,"Ġmieux":2619,"erta":2620,"ĠGeor":2621,"Ġplupart":2622,"rÃ©es":2623,"anne":2624,"ĠConse":2625,"ĠRÃ©publique":2626,"Ġentrepr":2627,"aite":2628,"ociation":2629,"atives":2630,"ception":2631,"ĠkilomÃ¨tres":2632,"ĠMac":2633,"ĠRo":2634,"Ġvoul":2635,"occup":2636,"ĠcommunautÃ©":2637,"Ġfurent":2638,"mission":2639,"ĠfÃ©d":2640,"lant":2641,"Ġdistin":2642,"chet":2643,"gÃ©e":2644,"ĠMus":2645,"Ã©volution":2646,"igneur":2647,"Ġvu":2648,"ĠvidÃ©":2649,"Ġ2024":2650,"Ġpourrait":2651,"Ġdirige":2652,"Ġyeux":2653,"ĠnÃ©g":2654,"Ġvrai":2655,"On":2656,"ĠLi":2657,"ormais":2658,"Ġconseil":2659,"ĠNo":2660,"Ġchi":2661,"ĠEl":2662,"ordre":2663,"ĠMad":2664,"ĠGr":2665,"Ġmarque":2666,"Ġfinalement":2667,"terre":2668,"stitu":2669,"respond":2670,"oign":2671,"aute":2672,"Ġchap":2673,"Ġiniti":2674,"ĠmÃ©dec":2675,"Ã©rit":2676,"Ġinform":2677,"Ġremplac":2678,"taire":2679,"Ġlut":2680,"Europe":2681,"Ġparta":2682,"Ġminist":2683,"ĠarrÃª":2684,"ash":2685,"ĠutilisÃ©":2686,"Ġving":2687,"ĠvÃ©":2688,"Ġstation":2689,"Ġbless":2690,"Ġdroite":2691,"Ġimportant":2692,"Ã©an":2693,"ĠJacques":2694,"Ġanti":2695,"Ġzones":2696,"aye":2697,"Ġlance":2698,"oud":2699,"Par":2700,"Ġbal":2701,"ĠSte":2702,"ĠHe":2703,"Ġobtient":2704,"cription":2705,"oule":2706,"estiv":2707,"ĠcinÃ©m":2708,"arde":2709,"ĠÃ©quipes":2710,"Ġ31":2711,"Ġaccomp":2712,"ĠConseil":2713,"Ġbel":2714,"Ġgaz":2715,"Ġchanson":2716,"Ġcomment":2717,"ĠAnd":2718,"Ġroman":2719,"Ġdipl":2720,"envi":2721,"Ġrapidement":2722,"Ġcomte":2723,"Ġanglais":2724,"ĠdÃ©fense":2725,"Ġsex":2726,"ares":2727,"Ġcorrespond":2728,"Ġaccue":2729,"ĠCons":2730,"ĠPlus":2731,"onnes":2732,"Ġbritannique":2733,"Ġaccord":2734,"Ġban":2735,"Ġgrandes":2736,"Ġ1999":2737,"Ġlog":2738,"16":2739,"rist":2740,"posi":2741,"Ġlaiss":2742,"Ġpat":2743,"ĠfaÃ§on":2744,"Ġvoi":2745,"ĠcrÃ©Ã©":2746,"bert":2747,"Ġ+":2748,"estre":2749,"Ġspecta":2750,"endance":2751,"rec":2752,"ĠCo":2753,"ĠdÃ©part":2754,"nie":2755,"ination":2756,"}}":2757,"rite":2758,"Ġsemble":2759,"ĠauprÃ¨s":2760,"enir":2761,"old":2762,"ĠTe":2763,"ades":2764,"ĠsantÃ©":2765,"Ġperd":2766,"ĠBelgique":2767,"Ġfav":2768,"Ġaffir":2769,"Ġpasser":2770,"onneur":2771,"Ġminutes":2772,"iver":2773,"Ġ40":2774,"Ġvoyage":2775,"ĠÃ©pis":2776,"Ġcontinu":2777,"na":2778,"heure":2779,"gleterre":2780,"ĠpassÃ©":2781,"ĠHar":2782,"sy":2783,"ĠPaul":2784,"ald":2785,"Ġenreg":2786,"tice":2787,"Ġcampagne":2788,"Ġgal":2789,"Ġsouff":2790,"Ġlorsqu":2791,"utÃ´t":2792,"ĠamÃ©ricaine":2793,"ĠMarie":2794,"Ġconfir":2795,"Ġphysi":2796,"illÃ©":2797,"orÃ©":2798,"Ġproche":2799,"vention":2800,"hÃ©":2801,"Ġconsac":2802,"Ġsoir":2803,"Ġsemaine":2804,"Ġvois":2805,"dien":2806,"ĠFin":2807,"ĠMor":2808,"ĠDu":2809,"Ġclimat":2810,"main":2811,"ĠYork":2812,"Ġbonne":2813,"arc":2814,"tiÃ©":2815,"Ġfab":2816,"ĠreÃ§oit":2817,"Ġautor":2818,"Ġservices":2819,"Ã¶":2820,"bourg":2821,"ĠCependant":2822,"Ġstru":2823,"ĠSp":2824,"tiers":2825,"Ġrejoint":2826,"Ġdomaine":2827,"Ġlig":2828,"Ã©cole":2829,"spagne":2830,"ĠAd":2831,"Ġvicti":2832,"Ġus":2833,"ĠdÃ©sormais":2834,"ĠrÃ©par":2835,"Ġurb":2836,"isl":2837,"Ġhors":2838,"Ġdonner":2839,"ĠEurope":2840,"12":2841,"Ġadministra":2842,"Ġferm":2843,"lÃł":2844,"Ġprincipalement":2845,"ĠfÃ©min":2846,"Ġcit":2847,"reur":2848,"ager":2849,"estival":2850,"Ġconserv":2851,"ĠintÃ©":2852,"Ġcollab":2853,"Ġproduits":2854,"Ġ2004":2855,"Ġemb":2856,"ini":2857,"Ã¨tre":2858,"ules":2859,"ĠsÃ©curitÃ©":2860,"aide":2861,"Ġfootball":2862,"Ġclassi":2863,"ĠPhili":2864,"Ġcelles":2865,"Ġvient":2866,"olique":2867,"osition":2868,"ĠtÃ©m":2869,"ĠVous":2870,"ancien":2871,"lor":2872,"Ġnouveaux":2873,"Ġprincipal":2874,"Ġsortie":2875,"illon":2876,"atta":2877,"ĠplutÃ´t":2878,"Ġand":2879,"Ġplate":2880,"ura":2881,"Ġremar":2882,"Ġcherche":2883,"Ã´me":2884,"ĠDepuis":2885,"Ġiss":2886,"Ġquartier":2887,"Ġcommerci":2888,"Ã¨ve":2889,"frique":2890,"rog":2891,"Ġchemin":2892,"igh":2893,"duction":2894,"Ġinternational":2895,"Ġchose":2896,"ĠSta":2897,"tiste":2898,"ĠLond":2899,"Ġannonce":2900,"ouverture":2901,"entrÃ©e":2902,"dire":2903,"oti":2904,"trib":2905,"ĠdÃ©cid":2906,"ĠAlex":2907,"Ġmeilleur":2908,"ĠPl":2909,"Ġappr":2910,"ĠRen":2911,"roph":2912,"ĠcontrÃ´le":2913,"Ġprogramme":2914,"Ġtaux":2915,"aly":2916,"Ġterrain":2917,"uri":2918,"Ġnoir":2919,"Ġretrouve":2920,"rid":2921,"Ġdesc":2922,"allÃ©e":2923,"Ġmanif":2924,"rez":2925,"rive":2926,"atif":2927,"Ġcollec":2928,"cl":2929,"Â°":2930,"raient":2931,"cles":2932,"Ġtotal":2933,"Ġprot":2934,"ĠTour":2935,"Ġbataille":2936,"gh":2937,"Ġpub":2938,"ber":2939,"tÃ©es":2940,"ames":2941,"Ġpil":2942,"album":2943,"ĠGran":2944,"ĠSer":2945,"Ġsomm":2946,"ographie":2947,"14":2948,"oie":2949,"ĠmalgrÃ©":2950,"ĠFor":2951,"Ġstyle":2952,"iment":2953,"Ġforces":2954,"ĠBen":2955,"ailleurs":2956,"ĠÐ":2957,"ĠÃ®":2958,"ĠLigue":2959,"Ġpolitiques":2960,"ĠrÃ©guli":2961,"cre":2962,"ĠNous":2963,"Ġexiste":2964,"kraine":2965,"Ġmatchs":2966,"France":2967,"ĠParti":2968,"Ġmulti":2969,"Ġpolice":2970,"oses":2971,"Ġetc":2972,"Ġ184":2973,"Ġlangue":2974,"lÃ©g":2975,"ĠNouv":2976,"ĠAvec":2977,"tte":2978,"ĠindÃ©p":2979,"Ġgroupes":2980,"Ġsurf":2981,"ity":2982,"roÃ¯":2983,"ĠJapon":2984,"aisse":2985,"Ġjoueurs":2986,"Ġrisque":2987,"niversitÃ©":2988,"Ġcourse":2989,"Ġcomprend":2990,"ĠmarchÃ©":2991,"orde":2992,"ĠrÃ©fÃ©rence":2993,"intÃ©":2994,"eth":2995,"Ġhuit":2996,"Ġheure":2997,"veur":2998,"ĠnÃ©e":2999,"Ġchac":3000,"ettes":3001,"Ġcharge":3002,"Ãªtes":3003,"ĠÃ©poque":3004,"oe":3005,"ronnement":3006,"inte":3007,"Ġcircons":3008,"Ġmi":3009,"ĠCour":3010,"ĠÃ©lu":3011,"Ġprise":3012,"ĠdÃ©cide":3013,"oux":3014,"ky":3015,"Ġsalle":3016,"mÃ©es":3017,"Ġextra":3018,"quis":3019,"Ġsouh":3020,"Ġrivi":3021,"Or":3022,"Ġaucun":3023,"yth":3024,"alistes":3025,"Ġpresque":3026,"ĠrÃ©sultats":3027,"mil":3028,"oins":3029,"sh":3030,"Ġgare":3031,"Ġdoute":3032,"onomie":3033,"ĠappelÃ©":3034,"Ġtransport":3035,"Ġdroits":3036,"Ġlab":3037,"quÃ©e":3038,"Ġparce":3039,"ĠSec":3040,"oser":3041,"usement":3042,"Ġprote":3043,"ĠcÅĵur":3044,"Ã®le":3045,"Ġi":3046,"ĠparticuliÃ¨rement":3047,"Ġfaisant":3048,"oni":3049,"Ġveut":3050,"ĠHenri":3051,"Ġensemble":3052,"Ġtrib":3053,"orts":3054,"uy":3055,"Ġpublique":3056,"acitÃ©":3057,"Lors":3058,"Ġarch":3059,"Ġrouge":3060,"lÃ©e":3061,"reux":3062,"Ġtelle":3063,"Ġ2003":3064,"Ġconsul":3065,"Ġend":3066,"ĠconsidÃ©rÃ©":3067,"Ã«l":3068,"car":3069,"difi":3070,"Ġpresse":3071,"ĠderriÃ¨re":3072,"argent":3073,"ague":3074,"ĠBl":3075,"ĠEx":3076,"Ãªmes":3077,"Ġrecensement":3078,"inÃ©":3079,"roche":3080,"ĠSan":3081,"Ġderniers":3082,"Ġprofesseur":3083,"pect":3084,"ĠmÃ©da":3085,"ĠlittÃ©ra":3086,"Ġespagn":3087,"occasion":3088,"Ġcanton":3089,"Ġenfin":3090,"Ġpatri":3091,"Ġgros":3092,"ĠmatÃ©ri":3093,"oli":3094,"Ġexplique":3095,"mÃ©n":3096,"Ġstu":3097,"mÃ©s":3098,"leu":3099,"Ġval":3100,"Ġsuivant":3101,"Ġblanc":3102,"Ġvoie":3103,"ĠuniversitÃ©":3104,"ĠÃ©pouse":3105,"Ġinternationale":3106,"iteur":3107,"ĠtempÃ©rature":3108,"Ġtrouver":3109,"eld":3110,"ĠcÃ©lÃ¨":3111,"ĠrÃ©sid":3112,"duis":3113,"Ġseront":3114,"Ġmusic":3115,"yon":3116,"Ġaccep":3117,"Ġajou":3118,"Ġali":3119,"rond":3120,"mont":3121,"Ġlo":3122,"ĠMi":3123,"ĠRome":3124,"Ġ2001":3125,"ĠÅĵuvre":3126,"Ġindustri":3127,"Ġlesqu":3128,"Ġforce":3129,"ĠcompÃ©tition":3130,"'s":3131,"olymp":3132,"Ġmas":3133,"Ġsac":3134,"itement":3135,"Ġ185":3136,"Ġgens":3137,"ĠchaÃ®":3138,"Ġ2002":3139,"Ġsucces":3140,"expl":3141,"Ġautom":3142,"Ġenvoy":3143,"Ġimportante":3144,"Ġpublie":3145,"Ġcompagnie":3146,"Ġrendre":3147,"landais":3148,"Ġtels":3149,"Ġpetits":3150,"ĠgÃ©nÃ©ralement":3151,"ĠâĢľ":3152,"pt":3153,"tives":3154,"ĠconsÃ©qu":3155,"orth":3156,"Ġconnue":3157,"reuve":3158,"Ġ1998":3159,"gie":3160,"ĠAinsi":3161,"cience":3162,"Ġolymp":3163,"Ġgu":3164,"ĠWe":3165,"Ġdol":3166,"Ġ1980":3167,"ĠannoncÃ©":3168,"13":3169,"ĠdÃ©sig":3170,"ĠscÃ©n":3171,"ĠintÃ©g":3172,"nements":3173,"Ġcondam":3174,"Ã©tat":3175,"Ġclassement":3176,"auv":3177,"ham":3178,"Ġregrou":3179,"Ġatteint":3180,"Ġvilles":3181,"Ġdoivent":3182,"lication":3183,"Ġara":3184,"Ġtransf":3185,"Ġfourn":3186,"bres":3187,"ĠDieu":3188,"Ġici":3189,"ĠmajoritÃ©":3190,"eurs":3191,"Ġcapitale":3192,"fique":3193,"urer":3194,"tÃ©roÃ¯":3195,"ĠpossÃ¨de":3196,"Ġsenti":3197,"Ġvolont":3198,"len":3199,"Ġchampion":3200,"tan":3201,"arriv":3202,"_{":3203,"rÃ¨s":3204,"ĠXIX":3205,"univers":3206,"Ġhistorique":3207,"ĠPri":3208,"Ġdiffic":3209,"Ġsigne":3210,"ots":3211,"ĠhÃ´":3212,"Ġsembl":3213,"ĠCas":3214,"ĠlÃ©gisl":3215,"ĠAlors":3216,"Ġrespec":3217,"oz":3218,"isc":3219,"Ġ%),":3220,"Ġfix":3221,"formation":3222,"ĠprÃ©cis":3223,"Ġlac":3224,"Ġvendre":3225,"tivitÃ©":3226,"ĠSes":3227,"Ã§ant":3228,"Ġmarch":3229,"ĠthÃ©Ã¢tre":3230,"occupation":3231,"quoi":3232,"termin":3233,"Ġhistoire":3234,"ĠComp":3235,"ĠvidÃ©o":3236,"roid":3237,"ĠbÃ¢timent":3238,"ĠÃ©trang":3239,"Ġphil":3240,"hic":3241,"ĠAng":3242,"Ġ500":3243,"Ġfilms":3244,"Ġmatin":3245,"Ġmonsieur":3246,"orer":3247,"ĠcinÃ©ma":3248,"Ġcontrat":3249,"Ġlibre":3250,"ĠPer":3251,"Ġpassage":3252,"este":3253,"ĠâĢĵ":3254,"ĠmodÃ¨le":3255,"Ġvingt":3256,"Ġmission":3257,"ĠcomtÃ©":3258,"Ġir":3259,"ĠÃ©conomique":3260,"ĠprÃ©cip":3261,"Ġtest":3262,"ĠSoci":3263,"issent":3264,"Ġvain":3265,"ĠChine":3266,"ĠLondres":3267,"emb":3268,"Ãªque":3269,"Ġsing":3270,"aces":3271,"Ġsold":3272,"ologne":3273,"Ġpont":3274,"ĠpÃ©n":3275,"ĠNor":3276,"Ġha":3277,"nent":3278,"berg":3279,"ĠGal":3280,"Ã©tique":3281,"Ġpau":3282,"Ġfinanci":3283,"mblÃ©e":3284,"Ġpropose":3285,"Ġaucune":3286,"Ġobjet":3287,"Ġpratique":3288,"ĠmÃ©th":3289,"ĠFranÃ§ais":3290,"objet":3291,"alog":3292,"Ġ1970":3293,"itude":3294,"ĠNouvelle":3295,"fait":3296,"Ġchambre":3297,"agement":3298,"illiam":3299,"Ġconditions":3300,"tÃ¨re":3301,"Ġquant":3302,"ĠRobert":3303,"Ġdouble":3304,"avid":3305,"200":3306,"hum":3307,"Ġtraditionn":3308,"Ġgl":3309,"Ġrefus":3310,"ĠmÃ©dic":3311,"rages":3312,"ĠmusÃ©e":3313,"ĠMin":3314,"Ġsimple":3315,"dessus":3316,"ood":3317,"Ġvisite":3318,"anie":3319,"ĠNic":3320,"entif":3321,"ĠsecrÃ©":3322,"ĠreÃ§u":3323,"ĠEd":3324,"ĠJeux":3325,"Ġlun":3326,"itations":3327,"oseph":3328,"Ġtermine":3329,"ĠvÃ©hic":3330,"ĠsÃ©par":3331,"Ġessenti":3332,"Ġsemaines":3333,"Selon":3334,"Ġancienne":3335,"ignement":3336,"Ġ=":3337,"ĠexpÃ©ri":3338,"Ã¨que":3339,"ologiques":3340,"ĠmoitiÃ©":3341,"Ġtravaille":3342,"Ġsource":3343,"Åį":3344,"Ġgard":3345,"onique":3346,"Ġdevenir":3347,"inst":3348,"Ġcomporte":3349,"my":3350,"Ġru":3351,"Ġsols":3352,"ĠderniÃ¨res":3353,"Ġattrib":3354,"Ġbout":3355,"ek":3356,"ino":3357,"Ġ1991":3358,"ĠBra":3359,"SS":3360,"Ġprince":3361,"Ġcompris":3362,"ĠÃ©tat":3363,"ĠBre":3364,"luence":3365,"Ġreti":3366,"Ġ%).":3367,"ds":3368,"ĠÅĵuvres":3369,"Ġmeurt":3370,"ĠjournÃ©e":3371,"Ġimm":3372,"ĠÃ©lÃ©":3373,"uments":3374,"ĠCela":3375,"Ġuti":3376,"arm":3377,"ĠMer":3378,"ĠprotÃ©g":3379,"alise":3380,"ĠMos":3381,"ĠRou":3382,"ducation":3383,"ates":3384,"Ã©dÃ©":3385,"Ġaband":3386,"Åĵuvre":3387,"Ġbesoin":3388,"rict":3389,"rice":3390,"Ġpossi":3391,"cte":3392,"ty":3393,"jectif":3394,"chant":3395,"trice":3396,"lon":3397,"Ġcarte":3398,"ĠdÃ©cision":3399,"Ġfron":3400,"Ġproch":3401,"ĠÃ©vÃ©":3402,"ĠGra":3403,"Ġdollar":3404,"Ġchoix":3405,"ĠÃ©dition":3406,"ĠgÃ©nÃ©rale":3407,"Ġciv":3408,"ĠespÃ¨ces":3409,"aie":3410,"alisation":3411,"Ġpeine":3412,"Ġdevenu":3413,"import":3414,"ĠPays":3415,"Ġadap":3416,"Ġamb":3417,"ĠXX":3418,"Ġjouer":3419,"of":3420,"ĠIII":3421,"Ġpoursui":3422,"ĠdÃ©mocra":3423,"erts":3424,"Ã¨les":3425,"Ġindivi":3426,"ĠriviÃ¨re":3427,"ĠqualitÃ©":3428,"red":3429,"Ġmur":3430,"ĠactivitÃ©s":3431,"honneur":3432,"Ġinscrit":3433,"Ġrecord":3434,"Ġdessin":3435,"Ġtaille":3436,"Ġsoutien":3437,"Ġmention":3438,"ĠGi":3439,"Ġduc":3440,"ĠfÃ©dÃ©ra":3441,"Ġprovo":3442,"ĠAs":3443,"ĠministÃ¨re":3444,"cer":3445,"Ġtota":3446,"Ġabs":3447,"Ġcommande":3448,"Ġadop":3449,"Ġcat":3450,"ĠMc":3451,"Ġcheval":3452,"ĠCro":3453,"Ã©on":3454,"Ġsang":3455,"Am":3456,"Ġorient":3457,"ĠÃ©qu":3458,"och":3459,"ĠComme":3460,"ĠPas":3461,"ting":3462,"aude":3463,"Ġfaisait":3464,"Ġconsomm":3465,"tit":3466,"ĠcomposÃ©":3467,"Ġmanifest":3468,"ses":3469,"âĢĿ":3470,"Ġagric":3471,"Ġoccu":3472,"line":3473,"Ġbras":3474,"Ġlivres":3475,"Ou":3476,"iz":3477,"Ġsecteur":3478,"Ġdos":3479,"entreprise":3480,"66":3481,"Ġpsy":3482,"Ġpap":3483,"Ġjapon":3484,"ĠdÃ©clarÃ©":3485,"ĠBou":3486,"Ġvont":3487,"ĠÃ©tablis":3488,"umul":3489,"olue":3490,"ĠDel":3491,"ĠâĪ":3492,"ĠCanada":3493,"Ð°":3494,"Ġfaible":3495,"ĠaÃ©ri":3496,"Ġstra":3497,"Ġmaire":3498,"Ġ180":3499,"ĠcomplÃ¨":3500,"Ġannuelle":3501,"Ġcra":3502,"Ġdocument":3503,"Ġmains":3504,"Ġforte":3505,"ĠTur":3506,"ĠmaÃ®tre":3507,"uxelles":3508,"ĠTra":3509,"ĠBern":3510,"Ġdevait":3511,"ld":3512,"Ġsuivi":3513,"ĠdÃ©g":3514,"Ġsurface":3515,"tienne":3516,"istance":3517,"Ġtroupes":3518,"itation":3519,"Ġ60":3520,"gement":3521,"Ġcrise":3522,"ctures":3523,"bli":3524,"lent":3525,"Ġquoi":3526,"esti":3527,"Ġterres":3528,"ĠcollÃ¨":3529,"Ġdollars":3530,"ks":3531,"Ġ183":3532,"Ġemploy":3533,"ĠMarc":3534,"ĠDÃ©":3535,"Ġdispon":3536,"ĠGen":3537,"ĠGrande":3538,"Ġmariage":3539,"ĠprÃ©par":3540,"ĠLib":3541,"Ġpopulaire":3542,"ĠWilliam":3543,"Ġparents":3544,"Ġjournal":3545,"Ġaller":3546,"chÃ©e":3547,"agÃ©":3548,"ĠcrÃ©Ã©e":3549,"Ġconcern":3550,"Ġcentrale":3551,"ĠÃ©lÃ¨":3552,"roy":3553,"Ġgarde":3554,"Ġmaintenant":3555,"ĠsupÃ©rieur":3556,"ĠAt":3557,"aller":3558,"Ġ1971":3559,"ographique":3560,"fication":3561,"Ġcam":3562,"roit":3563,"ĠChris":3564,"osse":3565,"bes":3566,"pol":3567,"Ġlongtemps":3568,"pital":3569,"orta":3570,"limin":3571,"Ġcomptait":3572,"rondissement":3573,"ĠÃ©vo":3574,"abb":3575,"Ġentreprises":3576,"dique":3577,"ĠVic":3578,"ĠnumÃ©ro":3579,"cteurs":3580,"agner":3581,"ĠsecrÃ©taire":3582,"Ġmess":3583,"Ġdiman":3584,"prit":3585,"Ġmontre":3586,"ombre":3587,"Ġcab":3588,"tex":3589,"ĠDavid":3590,"ĠreprÃ©sente":3591,"ĠBro":3592,"aci":3593,"Ġfou":3594,"moins":3595,"Ġposi":3596,"ĠCentre":3597,"Ġquoti":3598,"Ġcontinue":3599,"idÃ©e":3600,"Ġoccup":3601,"Ġ1960":3602,"ĠpiÃ¨ces":3603,"Et":3604,"aritÃ©":3605,"oile":3606,"seaux":3607,"Ġprotection":3608,"Ġconv":3609,"rÃ©sil":3610,"Ġfigure":3611,"bo":3612,"aix":3613,"ĠcÃ©rÃ©":3614,"abilitÃ©":3615,"ĠvÃ©rit":3616,"ressi":3617,"Ġtoutefois":3618,"Ġcertain":3619,"Ġdistrict":3620,"issant":3621,"tures":3622,"orb":3623,"onse":3624,"andre":3625,"Ġchoses":3626,"Ãªts":3627,"Ġblan":3628,"Ġinstitu":3629,"Ġpou":3630,"Ã©bec":3631,"ker":3632,"ney":3633,"Ġcircul":3634,"Son":3635,"ĠMa":3636,"ost":3637,"Ġparler":3638,"Ġpati":3639,"Ġpersonnage":3640,"ĠcÃ´tÃ©s":3641,"fie":3642,"ena":3643,"ES":3644,"inture":3645,"ministration":3646,"Ġquatri":3647,"omas":3648,"ides":3649,"eter":3650,"Ġsymb":3651,"Ã©rÃ©e":3652,"atrice":3653,"Ġparties":3654,"nies":3655,"Ġquitte":3656,"Ġcontraire":3657,"ĠNation":3658,"alisÃ©":3659,"ĠFer":3660,"Ġretrouv":3661,"ĠmatiÃ¨re":3662,"inois":3663,"Ġnor":3664,"Ġred":3665,"Est":3666,"ga":3667,"Ġdeme":3668,"Ġvaleur":3669,"Ġchan":3670,"ĠBeau":3671,"ĠÎ":3672,"Ġcritique":3673,"Ġparois":3674,"ĠPhilippe":3675,"trÃªme":3676,"Ġavi":3677,"ĠVer":3678,"ĠquatriÃ¨me":3679,"Ġspor":3680,"ĠpropriÃ©ta":3681,"ĠrÃ©ser":3682,"ĠEm":3683,"Ġenti":3684,"olas":3685,"Ġpouvait":3686,"ĠdÃ©fini":3687,"ĠSam":3688,"ĠJus":3689,"ĠDeux":3690,"Ġtechnique":3691,"Ġintitu":3692,"Ġvoiture":3693,"Ġbelge":3694,"Ġarticle":3695,"Ġmode":3696,"Ġfi":3697,"ĠCap":3698,"ĠRom":3699,"Ġenfant":3700,"Ġpermis":3701,"Ġmauv":3702,"Ã©le":3703,"auteur":3704,"aste":3705,"ulture":3706,"Ã§a":3707,"ĠportÃ©":3708,"gre":3709,"ublic":3710,"ĠAh":3711,"ĠÃ©criv":3712,"ĠopÃ©ra":3713,"ĠMichel":3714,"ĠTerre":3715,"Union":3716,"Ġ1997":3717,"Ã¤":3718,"ĠFC":3719,"ĠFranc":3720,"Ġmand":3721,"Ġbuts":3722,"organisation":3723,"ola":3724,"Ġreb":3725,"ĠÃ©lÃ©ments":3726,"chev":3727,"ĠchaÃ®ne":3728,"Ġdimanche":3729,"ĠAllemagne":3730,"ĠLu":3731,"ige":3732,"Ġmilitaires":3733,"arrivÃ©e":3734,"ĠKh":3735,"ĠpropriÃ©tÃ©":3736,"ĠmÃ©m":3737,"oleil":3738,"Ġphilos":3739,"sements":3740,"glise":3741,"Ġjuste":3742,"Ġve":3743,"Ġpermettant":3744,"ĠÃ©glise":3745,"cÃ©":3746,"auff":3747,"ĠrÃ©gions":3748,"Ġ1995":3749,"truire":3750,"Ġpoi":3751,"Ġrais":3752,"we":3753,"ĠBruxelles":3754,"ark":3755,"Ġant":3756,"osÃ©e":3757,"Ġexpli":3758,"Ġpartis":3759,"Ġoblig":3760,"Ġrang":3761,"anim":3762,"loi":3763,"itant":3764,"Ã©tude":3765,"ĠCam":3766,"Ġitalien":3767,"ĠdÃ©couvert":3768,"Ġaccus":3769,"onyme":3770,"ĠChe":3771,"Ġautant":3772,"Ġconten":3773,"viennent":3774,"Ġbure":3775,"ĠÃ©tude":3776,"Ġbande":3777,"11":3778,"ĠdÃ©termin":3779,"oyen":3780,"ĠGar":3781,"Ġmaxim":3782,"intÃ©rieur":3783,"ulaire":3784,"ĠcÃ©lÃ¨bre":3785,"inaire":3786,"Ġrestaur":3787,"ON":3788,"Ġ1996":3789,"ergie":3790,"ancer":3791,"ouvrir":3792,"Ġreprises":3793,"ĠRoyaume":3794,"Ġalli":3795,"gon":3796,"Ġ&":3797,"ibles":3798,"Ġrelations":3799,"ĠÃ©cl":3800,"Ġvitesse":3801,"ister":3802,"nom":3803,"Ġfront":3804,"Jean":3805,"AS":3806,"go":3807,"Ġocc":3808,"Ġscul":3809,"Ġchev":3810,"Ġhaute":3811,"ĠdÃ»":3812,"Ġeut":3813,"del":3814,"Ġmesures":3815,"ĠautoritÃ©s":3816,"ĠÃ©ner":3817,"rich":3818,"Ġjustice":3819,"Ġvia":3820,"ĠInter":3821,"Ġdivis":3822,"ĠVi":3823,"ĠQuÃ©bec":3824,"actu":3825,"duite":3826,"Ġarrive":3827,"Ġchiff":3828,"Ġ1992":3829,"ĠdÃ©cla":3830,"Ġlignes":3831,"Ġdirectement":3832,"Ġcy":3833,"ĠPal":3834,"aug":3835,"Ġceinture":3836,"ĠĠ":3837,"ĠsÃ»":3838,"Ð¾":3839,"Ġchasse":3840,"ĠElles":3841,"Ġgestion":3842,"xe":3843,"Ġcyc":3844,"ĠPuis":3845,"Ġtravaill":3846,"olf":3847,"rass":3848,"Ġtitres":3849,"Ġorgan":3850,"Ġplein":3851,"Ġvend":3852,"ĠdÃ©di":3853,"ider":3854,"Ġlettre":3855,"Ġphysique":3856,"Ġsorte":3857,"Ġaliment":3858,"rom":3859,"ĠÃ©lev":3860,"ĠRich":3861,"ĠOu":3862,"ĠprÃ©cipitations":3863,"iser":3864,"Ġint":3865,"Ġoutre":3866,"don":3867,"ibli":3868,"Pierre":3869,"Ġmalad":3870,"25":3871,"Ġpeuple":3872,".-":3873,"Ġprison":3874,"Ġjeux":3875,"Ġprobablement":3876,"Ġsection":3877,"Ġavons":3878,"Ġdisposi":3879,"lÃ¨mes":3880,"entiel":3881,"ustralie":3882,"isÃ©":3883,"ĠRos":3884,"Ġbelle":3885,"Ġdifficul":3886,"ament":3887,"Ġexer":3888,"Uni":3889,"Ġparten":3890,"Ġdifficile":3891,"ĠpiÃ¨ce":3892,"Ġseigneur":3893,"Ġstructure":3894,"aval":3895,"uits":3896,"tagne":3897,"ĠenquÃªte":3898,"Ġdestin":3899,"ĠKar":3900,"Ġtre":3901,"ĠbÃ¢timents":3902,"ca":3903,"ĠdÃ©crit":3904,"Ġprincipaux":3905,"ĠcommencÃ©":3906,"Ġtel":3907,"ĠcrÃ©er":3908,"Ġsoulig":3909,"quÃ©s":3910,"Ġliber":3911,"ĠdÃ©putÃ©":3912,"40":3913,"Ġlet":3914,"mpire":3915,"Ãªche":3916,"ĠChrist":3917,"uisse":3918,"ama":3919,"Ġ1994":3920,"ack":3921,"stitut":3922,"Ġriv":3923,"anche":3924,"Ġcompar":3925,"Ġcaus":3926,"ĠarmÃ©e":3927,"avantage":3928,"Depuis":3929,"ym":3930,"Ġsit":3931,"ugby":3932,"ĠVan":3933,"Ġmanque":3934,"Ġbour":3935,"Ġanciens":3936,"ancienne":3937,"60":3938,"administration":3939,"ĠTout":3940,"ĠMag":3941,"uclÃ©":3942,"isser":3943,"Ġ35":3944,"sta":3945,"Ġlieux":3946,"Ã©nergie":3947,"Ġ80":3948,"oÃ¯":3949,"ĠMil":3950,"ĠrÃ©uss":3951,"appel":3952,"ĠconÃ§":3953,"Ġtrain":3954,"Ġouvert":3955,"Ġscientifique":3956,"Ġsociaux":3957,"ĠtÃ©lÃ©vision":3958,"Ġdyn":3959,"Ġrecons":3960,"seur":3961,"Ġvice":3962,"ĠproblÃ¨mes":3963,"ĠBien":3964,"ficie":3965,"Ġordre":3966,"Ġfour":3967,"Ð¸":3968,"ĠGre":3969,"Ġvendredi":3970,"ieuse":3971,"ĠrÃ©volution":3972,"Ġchacun":3973,"rement":3974,"ip":3975,"Ġreine":3976,"Mais":3977,"entin":3978,"ĠnÃ©cessaire":3979,"Ġhom":3980,"endra":3981,"ung":3982,"ĠrÃ©seaux":3983,"Ġavez":3984,"ayer":3985,"cha":3986,"ukrain":3987,"Ġroyaume":3988,"Ġcolon":3989,"Ġsociale":3990,"Ġsoldats":3991,"Ã©rer":3992,"Ġparle":3993,"Ġtournoi":3994,"Ġfaci":3995,"ĠphÃ©n":3996,"ario":3997,"Ġcomplex":3998,"Ġneuf":3999,"ologue":4000,"Ġlumi":4001,"tug":4002,"ĠHol":4003,"endemain":4004,"Ġsaint":4005,"ples":4006,"Ġcontribu":4007,"urr":4008,"Ġsciences":4009,"arer":4010,"22":4011,"eb":4012,"ester":4013,"Ġproxim":4014,"nov":4015,"Ġcapitaine":4016,"trÃ©":4017,"Ġdistribu":4018,"archite":4019,"Ġpsych":4020,"Ġdirect":4021,"ĠapparaÃ®t":4022,"Ġtexte":4023,"Ġsouv":4024,"alle":4025,"Ġrece":4026,"Ġallemande":4027,"Ġsan":4028,"Ġportant":4029,"ĠdÃ©pu":4030,"environ":4031,"matique":4032,"ives":4033,"Ġpolon":4034,"ĠQue":4035,"ĠCerta":4036,"tell":4037,"ĠdÃ©couverte":4038,"ĠrÃ©gime":4039,"ĠmÃ©can":4040,"uÃ©":4041,"onnÃ©":4042,"ington":4043,"Ġsocial":4044,"Ã´ne":4045,"24":4046,"ĠexÃ©cu":4047,"Ġperdu":4048,"Ġconfi":4049,"ension":4050,"Ġait":4051,"Ġquin":4052,"table":4053,"gi":4054,"Ã©der":4055,"ĠPremier":4056,"ĠproximitÃ©":4057,"23":4058,"Ġartistes":4059,"do":4060,"lÃ¨me":4061,"Ġeuros":4062,"Ĥ¬":4063,"Ã©rant":4064,"accord":4065,"Ġenregist":4066,"agnÃ©":4067,"itÃ©e":4068,"veill":4069,"Ġpron":4070,"Ġmobil":4071,"Ġlendemain":4072,"Ġ1993":4073,"ail":4074,"Ġrasse":4075,"ĠchrÃ©":4076,"ĠSm":4077,"za":4078,"ĠJoseph":4079,"ĠItalie":4080,"ĠUniversitÃ©":4081,"Ġcroiss":4082,"ĠstratÃ©g":4083,"Ġmondial":4084,"Ġpuisque":4085,"Ġlongueur":4086,"Ġradio":4087,"ĠJu":4088,"Ġinstall":4089,"Ġsav":4090,"ĠjouÃ©":4091,"espace":4092,"ĠrÃ©serv":4093,"Ġnaturelle":4094,"Ġinstru":4095,"oue":4096,"ĠchargÃ©":4097,"70":4098,"ĠDon":4099,"Ġdimin":4100,"odie":4101,"Ġscol":4102,"Ġmots":4103,"Ġnour":4104,"ĠSeconde":4105,"Ġrenfor":4106,"ĠBal":4107,"ĠAg":4108,"Ġpermettre":4109,"Ġpal":4110,"Ġvos":4111,"Ġvenir":4112,"Ġnaissance":4113,"aissent":4114,"Ġpot":4115,"iner":4116,"ĠvallÃ©e":4117,"ĠrÃª":4118,"Ġcommerce":4119,"onte":4120,"Ġparlement":4121,"Ã©dÃ©ration":4122,"ĠAss":4123,"ĠOh":4124,"Ġlundi":4125,"ereur":4126,"atis":4127,"ĠreprÃ©sentant":4128,"Ġactuellement":4129,"Ġsuit":4130,"Ġmorts":4131,"Ġchant":4132,"blis":4133,"ols":4134,"ĠcitÃ©":4135,"Ġpoursuit":4136,"rs":4137,"Ġmassi":4138,"ĠPrÃ©":4139,"Ġpierre":4140,"ami":4141,"Ġukrain":4142,"ĠÃ©limin":4143,"Ġexist":4144,"euros":4145,"ĠSc":4146,"Ġsil":4147,"ĠnuclÃ©":4148,"omÃ©":4149,"entielle":4150,"Ġmontagne":4151,"Ġmaladie":4152,"Ġpense":4153,"Ġrur":4154,"âĢ¦":4155,"ĠproblÃ¨me":4156,"ĠPologne":4157,"ĠSainte":4158,"ĠRÃ©":4159,"ogne":4160,"ricitÃ©":4161,"AN":4162,"ko":4163,"ya":4164,"Ġoccident":4165,"Ġpersonnages":4166,"Ġaura":4167,"Ġlutte":4168,"Ġcertaine":4169,"Ġconcernant":4170,"fort":4171,"Ġclubs":4172,"Ġgro":4173,"Ġdo":4174,"Ġchante":4175,"cier":4176,"Ġresponsable":4177,"Ġgrec":4178,"Ġphase":4179,"ĠastÃ©roÃ¯":4180,"ĠmunicipalitÃ©":4181,"usses":4182,"ĠPi":4183,"Ġrat":4184,"oÃ®":4185,"venir":4186,"Ġsitue":4187,"199":4188,"ĠfrÃ©qu":4189,"Ġlyc":4190,"ĠrÃ©alise":4191,"Ġdistance":4192,"ctu":4193,"ĠsÃ©ri":4194,"onner":4195,"Ġbomb":4196,"Ġcourt":4197,"Ġciel":4198,"Ġrevient":4199,"AC":4200,"Ġcandidat":4201,"80":4202,"ĠmÃ©tÃ©":4203,"ĠSim":4204,"Ġamis":4205,"Ġchangement":4206,"inet":4207,"Ġeaux":4208,"Ġfrapp":4209,"run":4210,"orn":4211,"Ġbran":4212,"ĠSy":4213,"ĠÃ©tabli":4214,"die":4215,"Ġsyndic":4216,"21":4217,"Ġfaits":4218,"Ġmaisons":4219,"Ġnorm":4220,"Ġimpos":4221,"rÃ©g":4222,"ĠeuropÃ©en":4223,"universitÃ©":4224,"Allemagne":4225,"ativement":4226,"Ġterr":4227,"alyse":4228,"ĠdÃ©clare":4229,"ĠDan":4230,"Ġstade":4231,"olit":4232,"Ġmoteur":4233,"Ġnouvel":4234,"Ġsovi":4235,"ĠMay":4236,"ael":4237,"Ġsouhait":4238,"Ġcivi":4239,"Ġmad":4240,"Ã©ritÃ©":4241,"ĠinfÃ©ri":4242,"ĠEr":4243,"ĠrÃ©giment":4244,"cessus":4245,"Ġchapelle":4246,"ĠÃ©cole":4247,"Ã©ros":4248,"Ġaj":4249,"Ġhistoriques":4250,"Ġdispose":4251,"aill":4252,"atur":4253,"mul":4254,"etÃ©":4255,"utri":4256,"ĠdÃ©li":4257,"Ġattend":4258,"ect":4259,"Ġlargement":4260,"Ġlaisse":4261,"ĠtournÃ©e":4262,"Ġpeintre":4263,"tian":4264,"ĠBu":4265,"Ġinformations":4266,"cule":4267,"fier":4268,"Ġmeilleure":4269,"Ġfen":4270,"Ãªtres":4271,"Ã¨tes":4272,"AR":4273,"ĠDom":4274,"Ġfonctions":4275,"ĠrÃ©alisÃ©e":4276,"Ġ70":4277,"Ġvictimes":4278,"Ġsait":4279,"Ġpetites":4280,"own":4281,"Ġchansons":4282,"ĠmÃ©t":4283,"Ġcommuni":4284,"Ġrappel":4285,"Ġarchite":4286,"Ġvin":4287,"ĠphÃ©nom":4288,"Ġbe":4289,"ĠrÃ©alitÃ©":4290,"unesse":4291,"rat":4292,"ĠSuisse":4293,"Ġreli":4294,"association":4295,"Ġmu":4296,"Ġprocessus":4297,"ĠCong":4298,"Ġmilliards":4299,"Ġtran":4300,"ĠCent":4301,"azine":4302,"ĠGo":4303,"Ġprofessionnel":4304,"Ġ1988":4305,"Ġconcep":4306,"Ġhyd":4307,"ĠrÃ¨g":4308,"Ġcha":4309,"gÃ©s":4310,"Ġ1989":4311,"utilisation":4312,"Ġcatholique":4313,"Ġpuissance":4314,"Ġpalais":4315,"Ġcourant":4316,"manuel":4317,"Ġcollection":4318,"rons":4319,"Ġsusp":4320,"alisme":4321,"oirs":4322,"Ġjuge":4323,"Ġap":4324,"Ġ1950":4325,"ueil":4326,"Ġrelation":4327,"Ġfaveur":4328,"Ġhauteur":4329,"texte":4330,"cadÃ©mie":4331,"tiÃ¨me":4332,"Ġvir":4333,"Ġcontemp":4334,"ĠutilisÃ©e":4335,"ĠBas":4336,"Ġpersonnel":4337,"ĠThomas":4338,"ĠmÃ©daille":4339,"Ġlettres":4340,"Ġtableau":4341,"ĠFl":4342,"credi":4343,"wit":4344,"ĠLuc":4345,"Ġretrouver":4346,"ĠSar":4347,"ua":4348,"char":4349,"Ġagricoles":4350,"unis":4351,"Ġbassin":4352,"ĠlumiÃ¨re":4353,"Ġvite":4354,"ranger":4355,"ren":4356,"Ġamp":4357,"Ġsommet":4358,"Ġjeudi":4359,"Ġmic":4360,"Ġrejoindre":4361,"Ġfestival":4362,"ĠinterprÃ©":4363,"iennes":4364,"Ġlatin":4365,"Ġrester":4366,"Ġprojets":4367,"Ġ45":4368,"ĠÃ©volu":4369,"Ġillus":4370,"ER":4371,"oÃ¹":4372,"Ġinves":4373,"opÃ©ration":4374,"Ġcouleur":4375,"Ġspati":4376,"Ġreprend":4377,"ji":4378,"itants":4379,"ury":4380,"Ġcouple":4381,"riture":4382,"ova":4383,"ensitÃ©":4384,"Ġdevrait":4385,"ousse":4386,"the":4387,"Ġmine":4388,"Ġindividu":4389,"Ġtend":4390,"ĠClub":4391,"Ġarrondissement":4392,"acteur":4393,"Ġnu":4394,"84":4395,"agnes":4396,"ĠStra":4397,"ĠimmÃ©di":4398,"Ġ1944":4399,"ĠdurÃ©e":4400,"Qu":4401,"ĠLand":4402,"Ġsymp":4403,"Ġaffec":4404,"nel":4405,"oup":4406,"ling":4407,"Ġrepro":4408,"Ġpourtant":4409,"fici":4410,"Ġinspi":4411,"Ġ1940":4412,"ĠrÃ©guliÃ¨rement":4413,"ophie":4414,"Ġvieux":4415,"medi":4416,"Ġolympiques":4417,"oitation":4418,"bal":4419,"Ġclassique":4420,"org":4421,"ĠLyon":4422,"ĠCal":4423,"ĠforÃªt":4424,"Ġques":4425,"Ġtient":4426,"tisme":4427,"Ġjui":4428,"Ġfranc":4429,"Ġchron":4430,"iblioth":4431,"mir":4432,"Ġtravailler":4433,"ĠconnaÃ®t":4434,"ja":4435,"uste":4436,"entraÃ®":4437,"amour":4438,"ĠMartin":4439,"Ġsoient":4440,"ĠSociÃ©tÃ©":4441,"ĠChic":4442,"ĠKe":4443,"ĠremportÃ©":4444,"chement":4445,"Ġclimatique":4446,"Ġmorte":4447,"Ġconsta":4448,"Ġfamilles":4449,"moine":4450,"Ġvolu":4451,"ĠMÃ©tÃ©":4452,"sident":4453,"ĠYou":4454,"chÃ©s":4455,"guer":4456,"asc":4457,"Ġpourquoi":4458,"ĠTou":4459,"und":4460,"ĠEst":4461,"ĠIV":4462,"Ġ1975":4463,"ica":4464,"exist":4465,"ita":4466,"ĠcatÃ©gorie":4467,"rup":4468,"Ġtal":4469,"Ġdesti":4470,"ĠSou":4471,"Ġlocaux":4472,"ĠtraitÃ©":4473,"Ġquestions":4474,"alifor":4475,"Ġdiverses":4476,"industri":4477,"ĠMÃ©":4478,"ourt":4479,"Ġ(Â«":4480,"Ã©taient":4481,"ommage":4482,"ĠvÃ©ritable":4483,"ĠXVIII":4484,"Ġsculp":4485,"vid":4486,"abri":4487,"Ġnoms":4488,"Ġ1945":4489,"ĠactivitÃ©":4490,"ardi":4491,"Ġtraitement":4492,"ĠBon":4493,"ĠsupplÃ©ment":4494,"Ã©tend":4495,"laire":4496,"ĠPremiÃ¨re":4497,"ĠOui":4498,"Ġ1986":4499,"importance":4500,"otion":4501,"ĠsÅĵur":4502,"unal":4503,"Ġjournaliste":4504,"Ġsommes":4505,"ĠCet":4506,"ĠcapacitÃ©":4507,"Ġcritiques":4508,"Ġpermettent":4509,"bon":4510,"Ġsources":4511,"appar":4512,"ĠQuand":4513,"ett":4514,"Ġfranch":4515,"ĠDou":4516,"ĠPendant":4517,"Ġannuel":4518,"ĠÃītat":4519,"ĠdÃ©faite":4520,"Ġpleine":4521,"Italie":4522,"Ðµ":4523,"ĠHam":4524,"Ġvraiment":4525,"Ġfilles":4526,"fric":4527,"Ġrecherches":4528,"Ġsaisons":4529,"Ġfavor":4530,"ĠWh":4531,"Ã©mission":4532,"ĠarrÃªtÃ©":4533,"Ġsomme":4534,"ĠnommÃ©e":4535,"Ġparticipation":4536,"ĠMÃ©tÃ©o":4537,"Bas":4538,"Ġhabitu":4539,"Ġactuelle":4540,"euse":4541,"Espagne":4542,"ĠVen":4543,"ĠdÃ©mar":4544,"Ġpopulations":4545,"Ġmoderne":4546,"ĠopÃ©ration":4547,"Ġoffre":4548,"Ġofficiellement":4549,"Ġpape":4550,"Ġplais":4551,"ĠcomposÃ©e":4552,"ssemblÃ©e":4553,"atre":4554,"Ġmardi":4555,"ĠforÃªts":4556,"Ġcm":4557,"ĠPrix":4558,"Ġpouss":4559,"Ġmadame":4560,"ĠBur":4561,"ĠToul":4562,"Ġfamili":4563,"Ġdomin":4564,"ĠrÃ©sultat":4565,"Ġretraite":4566,"sier":4567,"Ġpauvre":4568,"osph":4569,"Ġvivre":4570,"Ġdiam":4571,"Ġexpri":4572,"Ġindique":4573,"reuse":4574,"long":4575,"tt":4576,"Ġappare":4577,"ford":4578,"Ġobtenu":4579,"Ġstatut":4580,"ĠdÃ©cidÃ©":4581,"ĠlibertÃ©":4582,"Ġdel":4583,"Ġidentif":4584,"ĠlancÃ©":4585,"Ġniveaux":4586,"ĠrÃ©d":4587,"Ġsamedi":4588,"Ġtelles":4589,"Ġformes":4590,"Ġintro":4591,"Ġcuis":4592,"range":4593,"ĠunitÃ©":4594,"Ġ\\":4595,"Angleterre":4596,"activitÃ©":4597,"Ġmouvements":4598,"ĠBan":4599,"issait":4600,"ĠthÃ©orie":4601,"Ã©dition":4602,"ries":4603,"met":4604,"ott":4605,"ĠtÃ´t":4606,"Ġcirconscription":4607,"ĠAngel":4608,"Ġx":4609,"Ġtop":4610,"ĠfrÃ¨res":4611,"ications":4612,"ĠappelÃ©e":4613,"AF":4614,"Ġmille":4615,"ĠÃ©n":4616,"ival":4617,"iÃ©s":4618,"Ġsimil":4619,"Ouest":4620,"Ġremont":4621,"rin":4622,"quiÃ¨me":4623,"ĠAngleterre":4624,"ĠGl":4625,"ĠcÃ´te":4626,"Ã©lection":4627,"mÃ©li":4628,"elli":4629,"dez":4630,"ĠEs":4631,"Ġpaix":4632,"toine":4633,"indi":4634,"key":4635,"35":4636,"ĠJuli":4637,"atifs":4638,"tur":4639,"ĠcÃ©lÃ©":4640,"Ġcos":4641,"mann":4642,"Des":4643,"Ġja":4644,"ube":4645,"rac":4646,"Ġscientifiques":4647,"ĠrÃ©parti":4648,"Ġconstitue":4649,"Ġmercredi":4650,"ĠJames":4651,"Ġprofonde":4652,"ĠVictor":4653,"Saint":4654,"Ġpolici":4655,"onge":4656,"Ġmour":4657,"ĠMax":4658,"Ġjardin":4659,"Ã§ons":4660,"ĠmÃ©dias":4661,"Ġnavire":4662,"26":4663,"iez":4664,"ilÃł":4665,"ĠdÃ©v":4666,"Ġnaturel":4667,"Ġ300":4668,"Ġmach":4669,"ĠcrÃ©e":4670,"ĠAfrique":4671,"ĠAir":4672,"ĠParlement":4673,"ĠUnion":4674,"mond":4675,"Ġmasse":4676,"ĠEnfin":4677,"ĠdÃ©buts":4678,"Ġproven":4679,"Ukraine":4680,"ago":4681,"Ġmodi":4682,"Ġmoyens":4683,"ĠlibÃ©ra":4684,"Ġsimplement":4685,"Ġloge":4686,"no":4687,"information":4688,"ĠindÃ©pend":4689,"gg":4690,"angÃ©":4691,"Ġsites":4692,"ĠVI":4693,"ĠfrontiÃ¨re":4694,"Ġconduit":4695,"Ġcoupe":4696,"verse":4697,"Ġgrav":4698,"ĠcaractÃ¨re":4699,"ĠÃ©d":4700,"ĠChampionn":4701,"Ġbre":4702,"lacement":4703,"tements":4704,"Ġ1982":4705,"diction":4706,"Ġprofond":4707,"Ġconflit":4708,"Ġcanadi":4709,"mant":4710,"ĠamÃ©li":4711,"ĠÃ©mis":4712,"ĠfondÃ©e":4713,"ĠWal":4714,"Ġtechniques":4715,"Ġstudio":4716,"ĠMoscou":4717,"Ġlaisser":4718,"ĠrÃ©ussi":4719,"Ġscore":4720,"Ġcalcul":4721,"naire":4722,"ĠGeorges":4723,"Ġestime":4724,"Ġprim":4725,"ĠÃ©vÃ©nements":4726,"Ġconseiller":4727,"ĠtÃ©lÃ©vis":4728,"Ġdiz":4729,"Ġvan":4730,"Sa":4731,"Ġfu":4732,"ĠBerlin":4733,"ĠLor":4734,"ĠNotre":4735,"Ġ90":4736,"27":4737,"ĠToute":4738,"Ġnote":4739,"uil":4740,"ĠfondÃ©":4741,"iat":4742,"Ġtyp":4743,"ĠXVI":4744,"Ġcentral":4745,"way":4746,"Ġrugby":4747,"Ġpoids":4748,"Ġsert":4749,"ĠlocalitÃ©":4750,"enseignement":4751,"ĠNational":4752,"ĠOli":4753,"Ġ1985":4754,"Ġportes":4755,"ĠPol":4756,"ĠWor":4757,"Ġtitu":4758,"29":4759,"Ġaffaires":4760,"Ġappro":4761,"Ġsuivantes":4762,"ĠmÃ©decin":4763,"intÃ©rÃªt":4764,"anniques":4765,"ĠÃ©tape":4766,"IS":4767,"Ġfutur":4768,"ĠcontrÃ´":4769,"Ġfusion":4770,"\".":4771,"Ġvente":4772,"Ġauteurs":4773,"ĠParmi":4774,"Ġterritoires":4775,"Ġdavantage":4776,"ĠNap":4777,"ĠprÃ©cise":4778,"ĠprocÃ¨s":4779,"Ã©tro":4780,"Ġbureau":4781,"ĠRec":4782,"Ġcouleurs":4783,"erse":4784,"entine":4785,"ĠcoÃ»":4786,"Ġarmes":4787,"ĠocÃ©an":4788,"Ġtombe":4789,"illaume":4790,"log":4791,"Ġlois":4792,"Ġcartes":4793,"Ġaction":4794,"Ġvoire":4795,"Ġcumul":4796,"ĠSant":4797,"Ġquitter":4798,"ĠrÃ©pondit":4799,"ĠÃ©lÃ¨ves":4800,"pel":4801,"Ġferme":4802,"Ã¡n":4803,"ĠÃ©tudiants":4804,"ĠEh":4805,"Ġmorce":4806,"Ġutilise":4807,"ĠAli":4808,"Ġtrouvent":4809,"ĠÃ©levÃ©":4810,"Ġinflu":4811,"!...":4812,"mon":4813,"quie":4814,"Ġjeunesse":4815,"ĠdÃ©pend":4816,"ĠMaur":4817,"blement":4818,"Ġmonument":4819,"obile":4820,"ĠLo":4821,"andes":4822,"paravant":4823,"Ġprogressi":4824,"Ġcontempor":4825,"ĠThÃ©":4826,"Ġprisonn":4827,"Ġjaponais":4828,"Ġ1987":4829,"Ġgouverneur":4830,"tiennent":4831,"ĠÅ":4832,"Ġrecomm":4833,"ĠsupÃ©rieure":4834,"ĠentiÃ¨rement":4835,"ctes":4836,"ĠTi":4837,"Ġabb":4838,"ĠmÃ©tÃ©or":4839,"Is":4840,"ĠcomitÃ©":4841,"Ġcop":4842,"Ġsuivre":4843,"ĠVille":4844,"Ã©die":4845,"ĠNicolas":4846,"udg":4847,"Ġvenait":4848,"pit":4849,"ĠFre":4850,"Ġsauv":4851,"ĠpÃ¢":4852,"Ġvais":4853,"ĠEspagne":4854,"ĠconsidÃ©ra":4855,"rus":4856,"Ġsouver":4857,"Ã©sie":4858,"ĠDis":4859,"Ġcommission":4860,"ticles":4861,"Sur":4862,"ĠRol":4863,"ĠQuel":4864,"Ġsingle":4865,"tig":4866,"Ġpassant":4867,"asser":4868,"nant":4869,"Ġautoris":4870,"ĠÃ©lec":4871,"Ġvote":4872,"ĠGeorge":4873,"ĠdÃ©putÃ©s":4874,"riques":4875,"Ġminim":4876,"Ġrevue":4877,"Ġair":4878,"ĠBour":4879,"Ġpression":4880,"Ġsuffis":4881,"Ġ1984":4882,"Ġparcours":4883,"Ġ178":4884,"Ġlesquels":4885,"Ġmajor":4886,"ailles":4887,"Ġgui":4888,"Ġdomicile":4889,"ĠMat":4890,"ographiques":4891,"ĠdÃ©cor":4892,"ĠWil":4893,"comm":4894,"enfant":4895,"ĠdÃ©cis":4896,"Si":4897,"illy":4898,"Ġ1983":4899,"Ġvainque":4900,"Ġachet":4901,"ĠTrois":4902,"Ġatti":4903,"Ġproches":4904,"Ġcarb":4905,"Ġ33":4906,"Ġtermes":4907,"Ġsortir":4908,"urÃ©e":4909,"ĠPort":4910,"RE":4911,"enses":4912,"ĠMet":4913,"ĠfranÃ§aises":4914,"Ġnul":4915,"arition":4916,"tesse":4917,"Ġsignifie":4918,"arque":4919,"alisÃ©e":4920,"Ġlocale":4921,"Ġfid":4922,"ĠrÃ©ponse":4923,"hors":4924,"uration":4925,"ĠPor":4926,"ĠVill":4927,"ĠâĪĴ":4928,"Ġchinois":4929,"ĠRh":4930,"ãĥ":4931,"rire":4932,"Ġ1968":4933,"ĠÃ©coles":4934,"Ġbron":4935,"Ġrenouv":4936,"chent":4937,"ĠrÃ©forme":4938,"Ġcime":4939,"ĠBo":4940,"Ġprati":4941,"ĠastÃ©roÃ¯de":4942,"airement":4943,"Ġton":4944,"ĠLou":4945,"rance":4946,"amme":4947,"ĠcaractÃ©ristiques":4948,"erman":4949,"avec":4950,"tiens":4951,"ĠWest":4952,"Ġparticiper":4953,"Ã©rop":4954,"rÃ©d":4955,"bi":4956,"Ġmagazine":4957,"oiles":4958,"ĠWar":4959,"Ġpatrimoine":4960,"ĠrÃ©serve":4961,"ĠmÃªmes":4962,"Ġfabric":4963,"Ġlic":4964,"Ġouverte":4965,"ĠÃ®les":4966,"Ġfall":4967,"ĠDani":4968,"issue":4969,"Ġaim":4970,"illÃ©e":4971,"Ġroyale":4972,"dou":4973,"jour":4974,"amment":4975,"ault":4976,"lation":4977,"miques":4978,"ĠrÃ¨gne":4979,"Ġmeilleurs":4980,"inv":4981,"ĠTor":4982,"abeth":4983,"Ġessentiellement":4984,"Ġconcert":4985,"ĠPat":4986,"Ġglob":4987,"Ġdiv":4988,"Ġlimite":4989,"ĠÃ©lectr":4990,"ĠTer":4991,"ores":4992,"Ġporter":4993,"ution":4994,"ll":4995,"Ġlie":4996,"onnÃ©e":4997,"aptis":4998,"Ġfonds":4999,"Ġ:.":5000,"IN":5001,"astique":5002,"Ġdiscip":5003,"Ġpublics":5004,"ĠmodÃ¨les":5005,"Ġ1981":5006,"Ġmandat":5007,"ĠBi":5008,"tÃ©rieure":5009,"zo":5010,"ĠcinquiÃ¨me":5011,"Afrique":5012,"ĠOs":5013,"Ġdevenue":5014,"Ġplaces":5015,"ader":5016,"ny":5017,"ĠmÃ¢":5018,"ĠPeu":5019,"Ġ400":5020,"lÃ¨ve":5021,"ĠthÃ©or":5022,"endi":5023,"ĠMo":5024,"ulation":5025,"Ġ36":5026,"Ġreligieux":5027,"ĠprÃ©sentÃ©":5028,"Ġsport":5029,"Ġparall":5030,"Ġcivile":5031,"Ġparis":5032,"Ġcontexte":5033,"ĠBos":5034,"Ġprincipales":5035,"Ġ34":5036,"Ġtor":5037,"ĠvÃ©g":5038,"ĠVol":5039,"intÃ©g":5040,"oncer":5041,"Ġcode":5042,"traction":5043,"Ġchercheurs":5044,"Ã©lect":5045,"Ġchale":5046,"ĠbÃ©nÃ©fici":5047,"Ġinaug":5048,"Ġanimaux":5049,"rastru":5050,"ÑĢ":5051,"Åĵurs":5052,"Ġlangues":5053,"Ġsoleil":5054,"Ġallait":5055,"Ġuniquement":5056,"Ġvisage":5057,"ĠAra":5058,"Ġaire":5059,"ĠNon":5060,"Ġ%,":5061,"Ġconstruite":5062,"Ġpieds":5063,"ĠmÃ©moire":5064,"ĠimmÃ©diate":5065,"Avec":5066,"osant":5067,"ĠUS":5068,"ords":5069,"ĠformÃ©":5070,"ection":5071,"kh":5072,"ĠAlbert":5073,"arrÃª":5074,"ĠBrÃ©sil":5075,"Ġfortement":5076,"gin":5077,"ovid":5078,"Ġphotos":5079,"Ġconcer":5080,"Ð½":5081,"Ġurbaine":5082,"Ġsh":5083,"Ġvou":5084,"ĠgÃ©n":5085,"ĠEntre":5086,"ĠsiÃ¨cles":5087,"ophe":5088,"itre":5089,"Ġjuri":5090,"Ġpuisqu":5091,"iÃ©e":5092,"ket":5093,"Ġassure":5094,"Ġpublication":5095,"ĠremplacÃ©":5096,"Ġmarchand":5097,"Ġbudg":5098,"ĠGrou":5099,"ĠAll":5100,"Ġprincipe":5101,"ĠCommission":5102,"Ġeffic":5103,"vit":5104,"....":5105,"athÃ©m":5106,"Ġdescend":5107,"dy":5108,"Ġconnaiss":5109,"ĠÃ©pisodes":5110,"Ġtente":5111,"reuves":5112,"ĠDÃ¨s":5113,"tenue":5114,"Ġlocal":5115,"ĠclassÃ©":5116,"ĠHer":5117,"Ġmusici":5118,"telle":5119,"Ġquanti":5120,"dici":5121,"Ġcommunication":5122,"ĠbrÃ»":5123,"Ġimportants":5124,"Ġobjets":5125,"ĠrÃ©comp":5126,"Ġdocteur":5127,"Ġressour":5128,"ĠRÃ©g":5129,"ĠcaractÃ©risÃ©e":5130,"Louis":5131,"Ġpropres":5132,"ĠdÃ©signer":5133,"Ã¨lement":5134,"titution":5135,"Ġ1972":5136,"28":5137,"ĠVo":5138,"Ġtrente":5139,"Ġvon":5140,"ĠLos":5141,"Ġtransfor":5142,"Ġpartage":5143,"Ġcru":5144,"ĠrÃ©aliser":5145,"ume":5146,"ĠÃ©volue":5147,"alifornie":5148,"Ġbate":5149,"Ġcomprendre":5150,"ĠCont":5151,"ĠprÃ©p":5152,"Ġdouze":5153,"estation":5154,"Ġeffets":5155,"ĠparticipÃ©":5156,"Ġpois":5157,"ora":5158,"ĠrÃ©vÃ©":5159,"Ã¯v":5160,"tellig":5161,"75":5162,"oyer":5163,"tissement":5164,"ĠpubliÃ©e":5165,"Ġhos":5166,"gues":5167,"dium":5168,"Ġexcep":5169,"ĠrÃ©public":5170,"Ġimages":5171,"Ġcroy":5172,"Ġdiss":5173,"Ġ1974":5174,"ĠsoviÃ©tique":5175,"chestre":5176,"Ġmauvais":5177,"ĠlycÃ©e":5178,"ĠMacron":5179,"Ġraisons":5180,"Ġspectacle":5181,"Ġsuperficie":5182,"accÃ¨s":5183,"Ġ1930":5184,"Ã©ducation":5185,"ĠFrancis":5186,"estÃ©":5187,"ĠÃ©lector":5188,"Ġmonuments":5189,"ĠvolontÃ©":5190,"tir":5191,"Ġatteindre":5192,"ĠintitulÃ©":5193,"asi":5194,"ĠutilisÃ©s":5195,"Ġpeinture":5196,"ustrali":5197,"ĠdÃ©couvre":5198,"Ġconvain":5199,"ĠÂ»)":5200,"Ġ1973":5201,"gar":5202,"Ġconcours":5203,"ĠCa":5204,"venu":5205,"Ġprintemps":5206,"ĠfaÃ§":5207,"ĠPra":5208,"environnement":5209,"ĠTar":5210,"Ġ1979":5211,"ĠnÃ©goci":5212,"Ġpatron":5213,"ria":5214,"Ġbil":5215,"ĠÃªtes":5216,"van":5217,"Ġvacc":5218,"Ġfroid":5219,"Ġperman":5220,"ĠFÃ©dÃ©ration":5221,"Ġregroupe":5222,"ĠUkraine":5223,"ĠRichard":5224,"ĠStu":5225,"lerie":5226,"Ġtotale":5227,"Ġpassion":5228,"Ãīglise":5229,"Ġfol":5230,"tenus":5231,"Ġdiscours":5232,"ight":5233,"fer":5234,"ski":5235,"ĠHong":5236,"Ġformer":5237,"ĠNi":5238,"Ġriches":5239,"ĠXIII":5240,"ĠtrouvÃ©":5241,"ĠBri":5242,"aves":5243,"ye":5244,"phe":5245,"formes":5246,"ather":5247,"Ġcollaboration":5248,"Ġ150":5249,"moi":5250,"Ġplantes":5251,"avais":5252,"industrie":5253,"Ġray":5254,"Ġconnaissance":5255,"Ġsuivants":5256,"ĠMarse":5257,"ortant":5258,"Ġfinit":5259,"Ġconcent":5260,"Ġrevanche":5261,"ĠlittÃ©rature":5262,"existence":5263,"atoires":5264,"Ġbattu":5265,"quÃ©es":5266,"absence":5267,"ayant":5268,"Ġlabel":5269,".,":5270,"2000":5271,"Ġsecondes":5272,"Ġruis":5273,"istan":5274,"Ġobtenir":5275,"Ġespagnol":5276,"jor":5277,"pro":5278,"ĠmathÃ©m":5279,"Ġfonde":5280,"ĠdÃ©truit":5281,"lÃ©gu":5282,"ĠtÃ©moign":5283,"Ġauteur":5284,"Ġ1976":5285,"exploitation":5286,"ĠmarquÃ©e":5287,"utenant":5288,"Ġ1978":5289,"Ġcivil":5290,"Ġcontinent":5291,"ĠÃ®le":5292,"Ġsent":5293,"amin":5294,"ĠWorld":5295,"ocat":5296,"tionnel":5297,"peau":5298,"ĠdÃ©cÃ¨s":5299,"lut":5300,"acte":5301,"ĠprocÃ©d":5302,"Ġjet":5303,"ĠvoÃ¯v":5304,"45":5305,"Ġparvient":5306,"Ġnavires":5307,"Ġcouv":5308,"ĠdÃ©roule":5309,"ĠprÃ©vu":5310,"Ġreprise":5311,"dent":5312,"autom":5313,"ĠÃ©quip":5314,"ĠComment":5315,"anterie":5316,"Ġmarche":5317,"Ġtransp":5318,"ibliothÃ¨que":5319,"Ġdat":5320,"allon":5321,"truction":5322,"Ġcandidats":5323,"Ġratta":5324,"Ġvert":5325,"entrer":5326,"mation":5327,"Ġguit":5328,"Ġentreprise":5329,"Ġdiplom":5330,"her":5331,"alys":5332,"Ġorb":5333,"Ġconcurr":5334,"Ġenne":5335,"Ġtonnes":5336,"ĠcimetiÃ¨re":5337,"ĠconnaÃ®tre":5338,"Ġ1977":5339,"Ġcommandant":5340,"ĠtÃ©lÃ©ph":5341,"ĠRi":5342,"ĠcathÃ©d":5343,"rient":5344,"auc":5345,"osi":5346,"assade":5347,"tionnelle":5348,"ĠvÃ©hicules":5349,"raire":5350,"Ġvent":5351,"Ġvictime":5352,"delÃł":5353,"gÃ©n":5354,"ĠCovid":5355,"itt":5356,"Ġchute":5357,"ĠBernard":5358,"Ġbasse":5359,"ĠFestival":5360,"ĠpropriÃ©taire":5361,"demment":5362,"Ġenregistre":5363,"CI":5364,"Ġcontient":5365,"Ã©rÃ©s":5366,"ĠorganisÃ©":5367,"ĠobservÃ©e":5368,"ĠvoÃ¯vodie":5369,"Ġbourg":5370,"Ġaccident":5371,"Ġaide":5372,"ĠMalgrÃ©":5373,"ize":5374,"Ġconstruire":5375,"veux":5376,"ĠMex":5377,"liers":5378,"geois":5379,"image":5380,"ĠpossibilitÃ©":5381,"Ġpeur":5382,"ĠfÃªte":5383,"Ã©tablis":5384,"ĠsystÃ¨mes":5385,"Ġdemanda":5386,"ypoth":5387,"ĠintÃ©ress":5388,"ĠCamp":5389,"ĠBrun":5390,"At":5391,"ĠAnne":5392,"Ã³n":5393,"Ġaxe":5394,"Ġpropor":5395,"Ġaffirme":5396,"ĠdÃ©veloppÃ©":5397,"ander":5398,"ariat":5399,"Ġriche":5400,"Ã©conomie":5401,"Ġcommunau":5402,"Ġpouvant":5403,"ico":5404,"Ã©qui":5405,"Ġbronze":5406,"ray":5407,"ms":5408,"uels":5409,"Ġcircu":5410,"Ġnoire":5411,"rey":5412,"dia":5413,"ĠÃ©viter":5414,"side":5415,"ĠCat":5416,"ĠXVII":5417,"ĠrÃ©alisateur":5418,"Ġscience":5419,"Ġfleurs":5420,"ĠAug":5421,"ĠPS":5422,"Ġmit":5423,"Ġdisponible":5424,"cht":5425,"Ġentend":5426,"Ġdouce":5427,"bl":5428,"Ġmol":5429,"amen":5430,"ĠprÃ©sidentielle":5431,"ĠconstituÃ©":5432,"Ġchoisi":5433,"Ġconsommation":5434,"inq":5435,"Ã©rences":5436,"Ġsignal":5437,"ĠEmmanuel":5438,"ĠRoyal":5439,"artiste":5440,"US":5441,"laires":5442,"axe":5443,"Ġvictoires":5444,"ĠarriÃ¨re":5445,"Ġ1967":5446,"ĠJack":5447,"lications":5448,"Ġattaque":5449,"Ġcart":5450,"ĠÃ¢ge":5451,"unitÃ©":5452,"Ġvra":5453,"taient":5454,"exc":5455,"Ġfant":5456,"grand":5457,"article":5458,"ĠdÃ©te":5459,"Ġproduire":5460,"Ġprofit":5461,"heim":5462,"ĠnÃ©er":5463,"ĠdÃ©place":5464,"Ġoriginaire":5465,"Ph":5466,"Ġment":5467,"Ġfaute":5468,"Ġrusses":5469,"ĠmÃ©n":5470,"Ġjudici":5471,"Ġconcerne":5472,"Ġimpli":5473,"ĠdiffusÃ©e":5474,"uff":5475,"Ġsensi":5476,"Ġadvers":5477,"ĠindiquÃ©":5478,"Ġrendu":5479,"hiver":5480,"Ġrecru":5481,"Ġrisques":5482,"\",":5483,"yst":5484,"ĠBlac":5485,"Ġ32":5486,"Marie":5487,"ba":5488,"Ġpeint":5489,"Ġenvironnement":5490,"Ġactions":5491,"Ġdest":5492,"ĠBru":5493,"trie":5494,"tiÃ¨res":5495,"âĢļ":5496,"ĠdÃ©bute":5497,"ĠTrans":5498,"utriche":5499,"ĠOp":5500,"Ġquotidien":5501,"esprit":5502,"tein":5503,"ĠdÃ©veloppe":5504,"ĠÃ©mission":5505,"iterran":5506,"Ġglace":5507,"Ġvillages":5508,"ariste":5509,"actions":5510,"Ġarg":5511,"Ġtribunal":5512,"heur":5513,"rÃ©al":5514,"oty":5515,"ĠconfÃ©rence":5516,"ĠApp":5517,"Ces":5518,"opÃ©ra":5519,"Ġcontact":5520,"ĠChambre":5521,"Ġlesquelles":5522,"Ġchampionnats":5523,"Ġsouvenir":5524,"hou":5525,"ĠDra":5526,"Ġdispositif":5527,"gÃ©rie":5528,"ientÃ´t":5529,"ropolit":5530,"Ġcitoy":5531,"Ġblanche":5532,"Ġprolong":5533,"Ġajoute":5534,"ĠRÃ©volution":5535,"rick":5536,"ĠdÃ©mont":5537,"ward":5538,"olo":5539,"ĠHaute":5540,"Ġresse":5541,"Ġseuls":5542,"Ġartistique":5543,"ĠsÃ©ries":5544,"ĠâĤ¬":5545,"aro":5546,"mitÃ©":5547,"ĠrÃ©fug":5548,"Ġpan":5549,"Ġcoups":5550,"ommÃ©e":5551,"ĠÃ©pisode":5552,"ĠLeur":5553,"anmoins":5554,"lections":5555,"Ġconver":5556,"irent":5557,"national":5558,"ĠmarquÃ©":5559,"Ġbra":5560,"Ġrac":5561,"ĠJo":5562,"liste":5563,"ĠcÃ©lÃ©b":5564,"ĠMoyen":5565,"ĠnÃ©anmoins":5566,"Ġperform":5567,"ĠidÃ©es":5568,"Ġarticles":5569,"Ġfaite":5570,"ĠdÃ©velopper":5571,"Ġtextes":5572,"ĠAlexandre":5573,"Ġpen":5574,"ouvertes":5575,"ĠimpÃ©ri":5576,"osent":5577,"ĠcollÃ¨ge":5578,"Ġtours":5579,"haus":5580,"ĠphÃ©nomÃ¨ne":5581,"Ġhommage":5582,"ĠdiamÃ¨tre":5583,"ĠextrÃªme":5584,"ĠWall":5585,"198":5586,"ala":5587,"Ġdemander":5588,"romp":5589,"Ġlien":5590,"Ġfrancs":5591,"Ã¨gre":5592,"Ġouvrage":5593,"Ġauparavant":5594,"ĠBor":5595,"Ġ1942":5596,"ĠsÃ»r":5597,"Ġvac":5598,"ĠdÃ©cret":5599,"ĠAmÃ©rique":5600,"kin":5601,"Ġ1920":5602,"ĠCelui":5603,"difice":5604,"ĠBay":5605,"Ġacqu":5606,"appro":5607,"ĠToutefois":5608,"ĠMarseille":5609,"major":5610,"Ġparoisse":5611,"pin":5612,"ĠMel":5613,"Ġfavoris":5614,"Ġul":5615,"azz":5616,"altitude":5617,"ĠSeu":5618,"Ġexploit":5619,"bas":5620,"ĠprotÃ©ger":5621,"Ġrejet":5622,"Ġhui":5623,"ĠVers":5624,"avenir":5625,"Ġ1939":5626,"Ġaccueilli":5627,"ĠGau":5628,"ographe":5629,"Ġchanteur":5630,"Ã´mes":5631,"attaque":5632,"ÅĤ":5633,"ĠCity":5634,"ĠSav":5635,"ĠfrÃ©quent":5636,"Ġacteurs":5637,"luent":5638,"Ġappelle":5639,"ĠamÃ©ricains":5640,"ĠCertains":5641,"usta":5642,"ĠdÃ©t":5643,"Ġmig":5644,"ĠapprÃ©":5645,"Ġbloc":5646,"Ġpilote":5647,"ĠCalifornie":5648,"ĠGuillaume":5649,"ancÃ©":5650,"ĠmÃ©thode":5651,"Ġdioc":5652,"Ġ1943":5653,"Ġcellu":5654,"ĠÃ©tudie":5655,"ĠnuclÃ©aire":5656,"ĠAnton":5657,"ĠcommuniquÃ©":5658,"glom":5659,"Ġda":5660,"ĠRog":5661,"mm":5662,"Ġinqui":5663,"Ġdimen":5664,"Ġhor":5665,"Ġrencontres":5666,"GC":5667,"Äĩ":5668,"ings":5669,"Ġmunicipal":5670,"Ġdevint":5671,"Ġvoies":5672,"Ġentour":5673,"Ġreconnaissance":5674,"dom":5675,"Ġcommandement":5676,"Ass":5677,"ĠAut":5678,"ockey":5679,"Ġassi":5680,"ĠAlle":5681,"ĠQui":5682,"net":5683,"ĠÃ©lus":5684,"ĠGro":5685,"Ġdispute":5686,"view":5687,"Ð²":5688,"Ġdehors":5689,"ĠdÃ©bat":5690,"Ġappartient":5691,"Ġlogements":5692,"Ġpoly":5693,"ĠBÃ©":5694,"ĠFou":5695,"Ġoccupe":5696,"ĠdensitÃ©":5697,"ĠdÃ©ch":5698,"aya":5699,"zon":5700,"ĠÃ©ditions":5701,"ĠBourg":5702,"Ġfaites":5703,"ĠcathÃ©drale":5704,"Ġcardin":5705,"witter":5706,"aliser":5707,"AT":5708,"ĠMichael":5709,"bus":5710,"Ġang":5711,"ĠtuÃ©":5712,"sÃ©":5713,"burg":5714,"empereur":5715,"ĠlÃ©gislatives":5716,"zz":5717,"Ġbrig":5718,"idae":5719,"ordeaux":5720,"ĠmaÃ®tres":5721,"Plus":5722,"otes":5723,"Ġmurs":5724,"ĠCO":5725,"oint":5726,"ft":5727,"bb":5728,"ool":5729,"itz":5730,"ĠConc":5731,"Ġtenu":5732,"ĠÃ©lectrique":5733,"ĠTu":5734,"Ġmascul":5735,"Ġvaste":5736,"Ġcomplexe":5737,"Ġrevenir":5738,"annÃ©es":5739,"Ġ48":5740,"sbourg":5741,"erv":5742,"Cl":5743,"ĠTemp":5744,"ĠrÃ©pondre":5745,"Se":5746,"Ġryth":5747,"dienne":5748,"90":5749,"Ġrive":5750,"Ġcontinuer":5751,"Ġdiffusion":5752,"pÃ©dition":5753,"Ġtrouvait":5754,"conte":5755,"Ġofficiel":5756,"Ġprit":5757,"cesse":5758,"ĠintermÃ©di":5759,"^{":5760,"gÃ©es":5761,"ĠmÃ©tro":5762,"cent":5763,"ary":5764,"Ġvivant":5765,"ĠunitÃ©s":5766,"cia":5767,"istant":5768,"Ã¨vre":5769,"ĠGui":5770,"qua":5771,"Ġreconnu":5772,"Ġmicro":5773,"Ġenvis":5774,"Ġgri":5775,"entitÃ©":5776,"Ġtypes":5777,"influence":5778,"ĠcÃ©rÃ©m":5779,"ban":5780,"rains":5781,"ĠarmÃ©es":5782,"Ġmilliers":5783,"Ġimag":5784,"Ġbiens":5785,"Ġaffaire":5786,"Ġexclus":5787,"cy":5788,"Ġ37":5789,"IE":5790,"Ġimportantes":5791,"riers":5792,"ĠSil":5793,"terie":5794,"Ġsoup":5795,"Ġhumaine":5796,"ĠPet":5797,"joint":5798,"Ġcroissance":5799,"Ġrelie":5800,"Ġactuel":5801,"Ġfabri":5802,"din":5803,"allÃ©":5804,"Ġaltern":5805,"ĠAngeles":5806,"Ġressources":5807,"Ġobjectif":5808,"Ġconfiance":5809,"ĠMontrÃ©al":5810,"ĠgÃ©nÃ©ration":5811,"Ġ1969":5812,"36":5813,"Ġanne":5814,"aure":5815,"ĠdifficultÃ©s":5816,"Ġgagner":5817,"rlande":5818,"And":5819,"tÃ¨res":5820,"Ġappli":5821,"expÃ©ri":5822,"ignant":5823,"aliers":5824,"sc":5825,"enait":5826,"Ġ38":5827,"positions":5828,"orÃ©e":5829,"Ġ1941":5830,"Ġdemeure":5831,"ĠMaj":5832,"Ġprises":5833,"sons":5834,"ĠDurant":5835,"nier":5836,"ĠdÃ©couvrir":5837,"ory":5838,"gyp":5839,"Ġ1966":5840,"Ã±":5841,"cemment":5842,"hÃ´tel":5843,"ĠrÃ¨gles":5844,"polation":5845,"ricole":5846,"ĠopÃ©rations":5847,"Ġ1965":5848,"ĠSuper":5849,"ĠDaniel":5850,"Å¡":5851,"Ġprivil":5852,"Ag":5853,"Ġquart":5854,"Ġrares":5855,"Ġcomposition":5856,"ĠWash":5857,"com":5858,"orisÃ©e":5859,"Ġtoit":5860,"Ġinten":5861,"Ġinconn":5862,"Ġterritori":5863,"Ġchercher":5864,"ĠAndrÃ©":5865,"ĠdÃ©mission":5866,"ĠTous":5867,"Ġprotest":5868,"Ġfleu":5869,"ouvez":5870,"mina":5871,"rovi":5872,"ĠsignÃ©":5873,"ieuses":5874,"arts":5875,"lip":5876,"ĠAff":5877,"Ġtiers":5878,"ĠPrin":5879,"Ġvoc":5880,"ĠAc":5881,"Ġdomaines":5882,"ĠMarine":5883,"Ġinfrastru":5884,"Ġsocialiste":5885,"Ġfondateur":5886,"ĠrÃ©gional":5887,"yr":5888,"ĠAustralie":5889,"ĠRa":5890,"Ãªcher":5891,"Ġrock":5892,"ĠbasÃ©":5893,"ĠÃ©conomiques":5894,"FA":5895,"Pendant":5896,"wa":5897,"Ġstock":5898,"Ġclimatiques":5899,"ĠidÃ©":5900,"Ġtendance":5901,"Ġstand":5902,"Ġvoitures":5903,"ĠPlusieurs":5904,"ato":5905,"Ġcompter":5906,"ĠEur":5907,"ĠrÃ©sistance":5908,"Ġchevaux":5909,"ĠMas":5910,"ĠClaude":5911,"ĠRam":5912,"Ã§ait":5913,"ĠthÃ¨me":5914,"Ġregroup":5915,"ĠNeu":5916,"ĠLeague":5917,"ĠÃ©l":5918,"Ġsup":5919,"Ġitalienne":5920,"Ġparoles":5921,"Ġgraph":5922,"Ġlocales":5923,"Ġhon":5924,"naires":5925,"Ġconne":5926,"amÃ©ric":5927,"Ġther":5928,"Ġfinal":5929,"ierge":5930,"ĠdiffÃ©rence":5931,"ĠXIV":5932,"65":5933,"Ġbleu":5934,"ĠdÃ©diÃ©":5935,"Ã©roport":5936,"Ġcondition":5937,"Ġcommen":5938,"ĠÃ©chapp":5939,"Jac":5940,"Ġpromotion":5941,"igu":5942,"Ġraconte":5943,"Ġrappelle":5944,"ĠdÃ©partemental":5945,"33":5946,"cepti":5947,"ĠpensÃ©e":5948,"Ġmix":5949,"ĠnaÃ®t":5950,"quin":5951,"ĠFace":5952,"Ġrent":5953,"Ġ1962":5954,"Ġ75":5955,"Ġmillion":5956,"armes":5957,"ĠBordeaux":5958,"hÃ´pital":5959,"agers":5960,"Ġacces":5961,"install":5962,"ĠUA":5963,"tage":5964,"ĠÃ©trangÃ¨res":5965,"ĠCÃ´":5966,"anges":5967,"appr":5968,"ĠdemandÃ©":5969,"Ġdange":5970,"ram":5971,"Ġofficielle":5972,"enis":5973,"ĠCN":5974,"Ġgagne":5975,"Ġquelle":5976,"Ø§":5977,"Ġpiste":5978,"ĠpÃ©tro":5979,"Ġpourraient":5980,"Ġconception":5981,"Ġdesser":5982,"Ġparfait":5983,"Ġrepris":5984,"ĠdÃ©plac":5985,"Ġsuccessi":5986,"Ġrues":5987,"Ġvainqueur":5988,"ĠSol":5989,"Ġral":5990,"onome":5991,"voie":5992,"Ġvoulait":5993,"Ġguer":5994,"ĠestimÃ©":5995,"Ġsujets":5996,"ĠprÃ©t":5997,"Ġtrafic":5998,"Ġvien":5999,"Ġ1958":6000,"ĠrÃ©partition":6001,"riculture":6002,"64":6003,"Ġproducteur":6004,"Ġrelativement":6005,"Ġveille":6006,"ĠRay":6007,"Ġseraient":6008,"ĠÃ©lection":6009,"Ġrefuse":6010,"ĠprÃ©sidence":6011,"engage":6012,"Ġgalax":6013,"alogue":6014,"Ġpolonais":6015,"ouverts":6016,"hÃ´ne":6017,"ĠToulouse":6018,"appu":6019,"Ġagricole":6020,"ĠplacÃ©":6021,"wood":6022,"Ġ1964":6023,"astroph":6024,"MS":6025,"Ġutiliser":6026,"ĠrÃ©duire":6027,"ouveau":6028,"Ġscru":6029,"ĠreprÃ©sentants":6030,"ĠdÃ©l":6031,"Ġrecue":6032,"ĠprÃ©sents":6033,"Ġinitialement":6034,"atherine":6035,"UE":6036,"Ã©tais":6037,"irs":6038,"tables":6039,"ĠVinc":6040,"Ġanciennes":6041,"Ġquinze":6042,"Ġsolution":6043,"see":6044,"ĠMur":6045,"uelles":6046,"ilÃ©":6047,"ĠprÃ©senter":6048,"Ġplateau":6049,"Dame":6050,"Ġta":6051,"Ġparam":6052,"Ġ1963":6053,"ĠColle":6054,"ĠÃ©m":6055,"ĠaccÃ¨s":6056,"Ġespace":6057,"ĠÃ©lÃ©ment":6058,"Ġsatis":6059,"Ã©lev":6060,"ĠsÃ©n":6061,"arn":6062,"ĠenvoyÃ©":6063,"arre":6064,"Ġplans":6065,"ĠTom":6066,"lange":6067,"inique":6068,"Ġvar":6069,"Ġproduis":6070,"ĠPou":6071,"rome":6072,"Ġcabinet":6073,"Ġconcept":6074,"lusion":6075,"ĠMaroc":6076,"ĠWashington":6077,"gation":6078,"Ġenvers":6079,"ĠÃīcole":6080,"Ġbanc":6081,"Ã©tudes":6082,"ĠNav":6083,"Ġrecommand":6084,"Ġfondation":6085,"UR":6086,"ĠSans":6087,"uter":6088,"assÃ©":6089,"ĠplanÃ¨te":6090,"Ġresta":6091,"ĠmÃ©tropolit":6092,"37":6093,"lot":6094,"yrÃ©":6095,"tain":6096,"opposition":6097,"ĠmÃ©decine":6098,"diens":6099,"Ġouest":6100,"ĠvÃ©hicule":6101,"Comme":6102,"han":6103,"ht":6104,"ĠLoire":6105,"ĠBul":6106,"ĠsociÃ©tÃ©s":6107,"Ġphilosophie":6108,"ĠFab":6109,"ĠTri":6110,"Ġhumains":6111,"Ġ1793":6112,"Ġservir":6113,"ĠcondamnÃ©":6114,"Ġsoins":6115,"ĠFlor":6116,"Ġorganisation":6117,"ĠMadrid":6118,"ĠfÃ©minin":6119,"rÃ©dÃ©ric":6120,"ĠbientÃ´t":6121,"Ġperte":6122,"ĠÃ©vÃªque":6123,"Ġrestent":6124,"Ġpav":6125,"Ġeau":6126,"Ġlire":6127,"Ġcroix":6128,"espÃ¨ce":6129,"any":6130,"ela":6131,"Ã´les":6132,"cupÃ©":6133,"ĠcÃ©rÃ©monie":6134,"Ġmass":6135,"exposition":6136,"Ġchefs":6137,"Ġfoi":6138,"ĠdirigÃ©":6139,"Ġmou":6140,"Ġsociales":6141,"Ġcouronne":6142,"ĠPortug":6143,"quait":6144,"Ġchanger":6145,"lem":6146,"ĠPic":6147,"Ġattribu":6148,"Ġtoi":6149,"dios":6150,"criptions":6151,"BC":6152,"Ġpous":6153,"Ġbaisse":6154,"ĠPau":6155,"ĠreprÃ©sentations":6156,"itime":6157,"ecture":6158,"Ġadul":6159,"ĠfÃ©dÃ©ral":6160,"Ġbu":6161,"oo":6162,"Ġpreuve":6163,"ĠDiv":6164,"Ġrap":6165,"Ġminute":6166,"ĠSeine":6167,"ĠcomplÃ¨tement":6168,"Ġafric":6169,"Ġenv":6170,"ĠdÃ©riv":6171,"Ġ1946":6172,"landaise":6173,"Ġprofessionnels":6174,"Ġpeau":6175,"ĠFond":6176,"âĢĵ":6177,"agÃ©e":6178,"Ġfeuilles":6179,"ĠimmÃ©diatement":6180,"55":6181,"manie":6182,"Ġutilisant":6183,"ĠidÃ©e":6184,"Ġmusul":6185,"ĠBarb":6186,"Ġdanse":6187,"Ġdisque":6188,"emploi":6189,"Ġpointe":6190,"Institut":6191,"enquÃªte":6192,"Ġrespect":6193,"indÃ©p":6194,"Ġsin":6195,"Ġsurpr":6196,"illa":6197,"Ġpage":6198,"Ġsatell":6199,"Ġlecture":6200,"Ġouvre":6201,"oureux":6202,"alu":6203,"Ġ39":6204,"lantique":6205,"ĠStade":6206,"ĠhÃ´tel":6207,"Ġate":6208,"ĠmÃ¨ne":6209,"ĠdÃ©signe":6210,"Ġsignific":6211,"Ġentier":6212,"erson":6213,"ĠarchÃ©":6214,"Ġchaleur":6215,"Ġacteur":6216,"Ġfrais":6217,"auf":6218,"ĠAth":6219,"Ġchem":6220,"ĠconsidÃ¨re":6221,"rimer":6222,"ĠcoÃ»t":6223,"Ġdevi":6224,"ĠsÃ©p":6225,"enture":6226,"inves":6227,"anes":6228,"Ġcong":6229,"ĠConf":6230,"ave":6231,"Ġench":6232,"Ġdiver":6233,"ĠBrit":6234,"citÃ©":6235,"iÃ¨res":6236,"{\\":6237,"ĠpÃªche":6238,"isÃ©e":6239,"usage":6240,"Ġpic":6241,"Ġauquel":6242,"Ġcompli":6243,"ĠvoilÃł":6244,"ologies":6245,"Ġto":6246,"Ġbul":6247,"ater":6248,"ĠGir":6249,"ortent":6250,"Ġalg":6251,"Ġfinance":6252,"instal":6253,"Ã©rite":6254,"Ġ1948":6255,"Ġreligion":6256,"Ġchanteuse":6257,"itent":6258,"Ġvesti":6259,"Ġtotalement":6260,"ortÃ©e":6261,"Ġsouhaite":6262,"Ġrenouvel":6263,".Â»":6264,"197":6265,"Ġ1947":6266,"ĠJeanne":6267,"Ġ1956":6268,"Ġhausse":6269,"ĠPan":6270,"ondes":6271,"ĠHenry":6272,"Ġaider":6273,"endie":6274,"cession":6275,"Ġprogressivement":6276,"ish":6277,"ĠprÃªtre":6278,"ĠÃ©missions":6279,"ĠlÃ©gÃ¨rement":6280,"mosph":6281,"iche":6282,"dier":6283,"Ġreprendre":6284,"IC":6285,"ĠrÃ©cemment":6286,"ĠVir":6287,"Ġmodifi":6288,"ĠInde":6289,"eck":6290,"ĠsoirÃ©e":6291,"lieu":6292,"teau":6293,"ust":6294,"ĠAntoine":6295,"ĠspÃ©cialiste":6296,"dessous":6297,"Ġscrutin":6298,"Mich":6299,"istÃ©":6300,"Ġnobles":6301,"Ġcombats":6302,"Ġouvrages":6303,"initi":6304,"Ġtur":6305,"ĠMol":6306,"objectif":6307,"ĠspÃ©cifique":6308,"Ġprofessionnelle":6309,"Ġrestauration":6310,"Ġdite":6311,"osa":6312,"FranÃ§ois":6313,"Ġrecevoir":6314,"Ġgratu":6315,"48":6316,"Paul":6317,"ĠNam":6318,"Ġviennent":6319,"41":6320,"rien":6321,"Ġoui":6322,"Ġnoy":6323,"pole":6324,"Ġsalles":6325,"Ġfootbal":6326,"gner":6327,"Ġpubliques":6328,"Ġappartenant":6329,"habitants":6330,"ĠtÃ¢":6331,"Ġsurveill":6332,"Ġoise":6333,"mands":6334,"Ġcentaines":6335,"--":6336,"augment":6337,"Ġfini":6338,"ĠrÃ©vÃ¨le":6339,"ĠcomplÃ¨te":6340,"Ġsouverain":6341,"olte":6342,"Ġarts":6343,"Ġperfor":6344,"Ġjaune":6345,"Ġfleuve":6346,"glomÃ©ration":6347,"OS":6348,"Ex":6349,"endue":6350,"ĠÃ©tablissements":6351,"installe":6352,"Ġcompositeur":6353,"Ġtitulaire":6354,"Jacques":6355,"oto":6356,"Ġcaf":6357,"ĠorganisÃ©e":6358,"Ġparole":6359,"ĠrÃ©pu":6360,"Ġstatis":6361,"Ġbruit":6362,"Ġdirigeants":6363,"eries":6364,"Ġsuisse":6365,"Ġvaleurs":6366,"ĠBretagne":6367,"Ġmyth":6368,"Ġconseill":6369,"Ġtenir":6370,"Ġorbite":6371,"Ġrele":6372,"Ġserv":6373,"Ġchampions":6374,"Ġrurale":6375,"Ġdestru":6376,"imm":6377,"Ġretourne":6378,"Ġinfrastructures":6379,"rais":6380,"Ġclair":6381,"Ġpow":6382,"Ġpapier":6383,"47":6384,"Ġbesoins":6385,"Ġmenace":6386,"ĠconsÃ©quence":6387,"Bre":6388,"Ġtraite":6389,"Ġordres":6390,"ĠmaÃ®tr":6391,"Ġoccasion":6392,"uf":6393,"Ġcui":6394,"Ġpartout":6395,"Ġroutes":6396,"Ġprocure":6397,"ensive":6398,"jan":6399,"raÃ«l":6400,"mentation":6401,"Ġbeaux":6402,"Ġracont":6403,"Ġath":6404,"Ġlieutenant":6405,"Ġvenu":6406,"itch":6407,"ĠBill":6408,"ju":6409,"avis":6410,"2020":6411,"Ġassociations":6412,"ĠSuÃ¨de":6413,"histor":6414,"quante":6415,"Ġhockey":6416,"Ġmarine":6417,"Ġtraverse":6418,"Ġavions":6419,"ĠGÃ©":6420,"Ġprennent":6421,"ĠCorÃ©e":6422,"39":6423,"ĠMath":6424,"Ġcapable":6425,"Ġbus":6426,"tistes":6427,"ĠComitÃ©":6428,"ĠrÃ©union":6429,"Ġ49":6430,"ĠXII":6431,"Ġauraient":6432,"hip":6433,"Ġ1961":6434,"Alors":6435,"Ġvoulu":6436,"Ġdanger":6437,"ĠVienne":6438,"Ġferrovi":6439,"Ġ1914":6440,"ĠBlack":6441,"ĠAmer":6442,"ĠChaque":6443,"ĠColomb":6444,"ĠprÃ©cÃ©dente":6445,"Ġdistribution":6446,"UniversitÃ©":6447,"ian":6448,"Ġcous":6449,"Ġfoss":6450,"iteurs":6451,"ĠprÃ©cÃ©dent":6452,"ĠcatÃ©gorisÃ©e":6453,"Ġruisseau":6454,"ZÃ©":6455,"chÃ©es":6456,"osÃ©s":6457,"Åĵil":6458,"Ġgaranti":6459,"Ġrendez":6460,"Ġcirculation":6461,"Ġmonast":6462,"Ġ1936":6463,"ĠMun":6464,"Ã©ni":6465,"ĠliÃ©":6466,"ĠÃĤ":6467,"ĠvÃ©ritÃ©":6468,"lige":6469,"Ġvision":6470,"ĠMaison":6471,"ĠPont":6472,"Ġconsiste":6473,"Ġclo":6474,"Ġreprit":6475,"Ġculte":6476,"ĠlaissÃ©":6477,"Ġdynas":6478,"Ġforc":6479,"ĠÃ©vent":6480,"Ġcardinal":6481,"isode":6482,"Ġcontenu":6483,"ĠsÃ©jour":6484,"lait":6485,"Ġenc":6486,"Ġmultip":6487,"dem":6488,"Ġhect":6489,"ĠLab":6490,"Ġvisant":6491,"Ġcatastroph":6492,"arme":6493,"Ġmagas":6494,"Ġwe":6495,"Ġlabor":6496,"Orient":6497,"ĠCer":6498,"Ġchaud":6499,"onnÃ©s":6500,"atte":6501,"Ġmissions":6502,"Ġviolence":6503,"server":6504,"ĠliÃ©s":6505,"ĠconsidÃ©rÃ©e":6506,"vence":6507,"Ġaper":6508,"Ġobjec":6509,"ĠGuy":6510,"Ġfaud":6511,"Ġinond":6512,"ĠdÃ©clen":6513,"extÃ©rieur":6514,"ĠrÃ©alisation":6515,"ĠPhil":6516,"Ġcommunale":6517,"ommÃ©":6518,"ĠNations":6519,"Ġconfront":6520,"Ġsilence":6521,"Ġach":6522,"ĠHug":6523,"venue":6524,"Ġfera":6525,"ĠrÃ©ussit":6526,"inÃ©e":6527,"ĠLÃ©":6528,"ĠLÃ©on":6529,"ultÃ©":6530,"Empire":6531,"Ġpanne":6532,"Ġconcerts":6533,"ĠStar":6534,"Ġbudget":6535,"AP":6536,"Ġbass":6537,"ĠSw":6538,"ody":6539,"Ġcoord":6540,"ĠreprÃ©sentation":6541,"ĠportÃ©e":6542,"ĠÃ©nor":6543,"lÃ©s":6544,"Ġcre":6545,"adap":6546,"accomp":6547,"Ġgrille":6548,"Ġlou":6549,"autes":6550,"68":6551,"ĠprÃª":6552,"Ġ600":6553,"ĠtravaillÃ©":6554,"Ġassociation":6555,"Ġremarqu":6556,"ĠingÃ©n":6557,"ĠJÃ©r":6558,"Ġallant":6559,"Ġsuscepti":6560,"gypte":6561,"Mal":6562,"ĠpÃ©d":6563,"anth":6564,"iquement":6565,"alie":6566,"ĠAndre":6567,"ĠdÃ©vo":6568,"ĠprÃªt":6569,"affaire":6570,"den":6571,"Ġattendre":6572,"Ġretrait":6573,"inn":6574,"Ġpost":6575,"ĠrÃ©cit":6576,"Ġmajeure":6577,"ruption":6578,"Ġcens":6579,"Ã©tranger":6580,"AssemblÃ©e":6581,"ĠarrivÃ©e":6582,"Ġinclin":6583,"ĠeÃ»t":6584,"Ġsugg":6585,"Ã©lÃ¨ve":6586,"ado":6587,"ĠeuropÃ©ens":6588,"ĠmatÃ©riel":6589,"Ġarabe":6590,"gentine":6591,"Ġculturel":6592,"Ġaccueille":6593,"31":6594,"sen":6595,"Ġpel":6596,"avance":6597,"Ġdisparu":6598,"34":6599,"chec":6600,"Ġrare":6601,"Ġrespectivement":6602,"agu":6603,"Ġlancer":6604,"ĠaÃ®":6605,"Ġactif":6606,"Ġsalari":6607,"ĠdÃ©finie":6608,"Ġfaibles":6609,"ĠexpÃ©rience":6610,"ĠparaÃ®t":6611,"Ġperformance":6612,"ĠMonde":6613,"ĠPÃ©":6614,"Ġmodes":6615,"ĠCarl":6616,"Ġpare":6617,"Ġveux":6618,"ĠscÃ¨nes":6619,"ĠEmpire":6620,"Ġsouligne":6621,"Ġsurprise":6622,"ĠparallÃ¨le":6623,"mÃªmes":6624,"ilier":6625,"ĠintÃ¨gre":6626,"Alex":6627,"Ġstri":6628,"ĠocÃ©anique":6629,"Cet":6630,"Ðº":6631,"olie":6632,"Ġgmina":6633,"hib":6634,"Ġsch":6635,"Ġpuisse":6636,"ĠrÃ©publique":6637,"affaires":6638,"mie":6639,"Ġvaut":6640,"ancÃ©e":6641,"Ġtuer":6642,"Ġvig":6643,"Ġexplo":6644,"AL":6645,"rets":6646,"tron":6647,"Ġdocuments":6648,"urgence":6649,"Ġsor":6650,"ĠÃ©volution":6651,"Ġbru":6652,"Ġassassin":6653,"Ġpowiat":6654,"fense":6655,"Ġrej":6656,"ĠAvant":6657,"cosse":6658,"Ġcompose":6659,"Ã©tant":6660,"Ġcommunal":6661,"ĠLorsque":6662,"amÃ©n":6663,"ĠÃ©crite":6664,"Ġ55":6665,"Ġstatue":6666,"ĠrÃ©cupÃ©":6667,"observ":6668,"Ã©criture":6669,"38":6670,"hor":6671,"ĠCrÃ©":6672,"ĠMonsieur":6673,"olÃ©":6674,"seud":6675,"ĠDoc":6676,"NC":6677,"ĠentiÃ¨re":6678,"Char":6679,"ho":6680,"lines":6681,"ĠOb":6682,"Ã©preuve":6683,"Ġmajeur":6684,"The":6685,"ession":6686,"ĠMÃ©d":6687,"Ġinstant":6688,"ĠMonte":6689,"ĠfaÃ§ade":6690,"orph":6691,"ĠhÃ©ros":6692,"exÃ©cu":6693,"ĠâĢ¦":6694,"agog":6695,"ĠbasÃ©e":6696,"As":6697,"usion":6698,"Ġdonnant":6699,"ĠrÃ©di":6700,"mblement":6701,"Ġcompagn":6702,"ĠprivÃ©":6703,"32":6704,"ĠsiÃ¨ges":6705,"Ġcommiss":6706,"ive":6707,"ited":6708,"ĠconsÃ©cu":6709,"Ġcentra":6710,"amÃ©li":6711,"Ġdisait":6712,"ladi":6713,"Ġprogrammes":6714,"Ġpla":6715,"ositÃ©":6716,"Ġaugmentation":6717,"Ġfun":6718,"Ġgagn":6719,"ĠÃ©vid":6720,"ĠFe":6721,"Ġserre":6722,"prÃ©sident":6723,"Ġjudiciaire":6724,"time":6725,"Ġfootballeur":6726,"44":6727,"ciens":6728,"ĠLaurent":6729,"indÃ©pendance":6730,"Ã¨dent":6731,"cope":6732,"ĠdÃ©gra":6733,"Ġterrains":6734,"ĠpossÃ©d":6735,"isp":6736,"iger":6737,"ĠentrÃ©e":6738,"ĠprivÃ©e":6739,"Ġsimul":6740,"angle":6741,"ĠeuropÃ©ennes":6742,"ĠindÃ©pendant":6743,"ĠLin":6744,"ĠdÃ©ser":6745,"ĠmÃ©ta":6746,"Ġ177":6747,"ĠaÃ©riennes":6748,"Ãº":6749,"oliques":6750,"Ġannonc":6751,"expression":6752,"PS":6753,"Ġlour":6754,"Ġsecret":6755,"ĠexposÃ©e":6756,"Ġalbums":6757,"oline":6758,"ĠGren":6759,"Ġmusicale":6760,"Ġdure":6761,"Ġfacilement":6762,"ĠbibliothÃ¨que":6763,"Ġ1959":6764,"ĠlittÃ©raire":6765,"novation":6766,"architecte":6767,"ster":6768,"ennis":6769,"Ġuniversitaire":6770,"ttes":6771,"Ġ800":6772,"vey":6773,"ĠmÃ©tal":6774,"ĠReg":6775,"ĠCompagnie":6776,"tue":6777,"ĠLong":6778,"49":6779,"67":6780,"ĠpersonnalitÃ©s":6781,"Ġperdre":6782,"ĠÃ©pous":6783,"Ġromaine":6784,"Ġroyal":6785,"Ġcircuit":6786,"Ġtab":6787,"ĠAcadÃ©mie":6788,"infanterie":6789,"Ã©tablissement":6790,"ĠDr":6791,"Ġmontrer":6792,"ĠmenÃ©e":6793,"Ġpratiques":6794,"ĠdÃ©mÃ©n":6795,"ĠTwitter":6796,"mat":6797,"ĠFont":6798,"atie":6799,"ĠCollege":6800,"ĠamÃ©n":6801,"chn":6802,"ĠmontrÃ©":6803,"Ġcrimin":6804,"ernes":6805,"ĠdÃ©finitivement":6806,"seigneur":6807,"niversaire":6808,"math":6809,"Ġconduite":6810,"Ġhy":6811,"ĠconsacrÃ©":6812,"erte":6813,"Ġradic":6814,"Ġindic":6815,"tillerie":6816,"iant":6817,"Ġdor":6818,"ĠPark":6819,"ĠdÃ©cÃ©dÃ©":6820,"alisÃ©s":6821,"trage":6822,"effec":6823,"Ġlaissant":6824,"ĠĠĠĠ":6825,"ĠJÃ©s":6826,"Ġconscience":6827,"Ġinfluence":6828,"Ġgrave":6829,"Ġtournage":6830,"'Â«":6831,"cel":6832,"ĠSÃ©":6833,"ĠPeter":6834,"ĠFrank":6835,"Ġvolume":6836,"ĠdiocÃ¨se":6837,"arb":6838,"Ġbio":6839,"Ġdisposition":6840,"ĠChristian":6841,"Ġbilan":6842,"ene":6843,"Ġcourte":6844,"ĠdiplÃ´me":6845,"arr":6846,"ila":6847,"ĠMes":6848,"Ġchauff":6849,"Ġressort":6850,"Ġorganise":6851,"Ab":6852,"wan":6853,"Ñģ":6854,"İle":6855,"anda":6856,"Ġcroire":6857,"Ġchoc":6858,"Ġcycle":6859,"ommages":6860,"ZÃ©lande":6861,"ĠJoe":6862,"arrÃªt":6863,"inage":6864,"ĠLim":6865,"ĠnÃ©cessaires":6866,"Ġespagnole":6867,"ĠajoutÃ©":6868,"ĠMy":6869,"ĠHan":6870,"ĠtrÃ´ne":6871,"Ġrense":6872,"ĠArt":6873,"Ġprochain":6874,"ĠSimon":6875,"Ġvul":6876,"fred":6877,"alli":6878,"Ġ65":6879,"Ġcanal":6880,"ĠconÃ§u":6881,"Ġaustrali":6882,"ĠrÃ©action":6883,"Ġcomplet":6884,"Ġarbres":6885,"Ã©les":6886,"ĠBol":6887,"Ġconserve":6888,"ĠSport":6889,"Ġpose":6890,"Ġsalon":6891,"Ġlancement":6892,"Ġimpossible":6893,"ĠMaurice":6894,"ĠTok":6895,"tifici":6896,"Ġpatients":6897,"olÃ©on":6898,"ĠFrÃ©dÃ©ric":6899,"ellent":6900,"Ġresponsables":6901,"Ġbranche":6902,"Ġmajoritaire":6903,"63":6904,"IA":6905,"illant":6906,"Ġsupport":6907,"Ġbritanniques":6908,"ĠentraÃ®neur":6909,"commun":6910,"Ġprovis":6911,"Ġhiver":6912,"Ġverre":6913,"hyd":6914,"ĠendÃ©":6915,"agriculture":6916,"Ġcommuniste":6917,"Ġtrains":6918,"ĠsixiÃ¨me":6919,"ĠconsÃ©quences":6920,"BA":6921,"Ġ1955":6922,"Ġsurnom":6923,"application":6924,"aga":6925,"Ġabou":6926,"ĠCommun":6927,"Ġsurvi":6928,"ĠpubliÃ©s":6929,"Ð»":6930,"ĠÃ©cologique":6931,"Ġclasses":6932,"ĠHall":6933,"Ġcourses":6934,"ĠnumÃ©rique":6935,"lÃ©ans":6936,"ĠliÃ©e":6937,"ĠMadame":6938,"Ġmessage":6939,"yo":6940,"oure":6941,"Ġsecours":6942,"Ġmassif":6943,"Ġgross":6944,"ãĤ":6945,"Ġentrer":6946,"Ã©lectricitÃ©":6947,"ĠCelle":6948,"ĠGabri":6949,"Ġ1949":6950,"Ġremplacer":6951,"kov":6952,"Ã¨vres":6953,"uxemb":6954,"Ġ1938":6955,"ysique":6956,"mances":6957,"Ġrevenu":6958,"69":6959,"CL":6960,"cie":6961,"lav":6962,"cop":6963,"rÃ¨":6964,"sa":6965,"Ġjamb":6966,"ĠpoÃ¨te":6967,"Nous":6968,"rÃªts":6969,"Ġissu":6970,"Car":6971,"chait":6972,"Ġbaptis":6973,"Ã¢t":6974,"Ġmettant":6975,"Ġfrag":6976,"ĠrÃ©sidence":6977,"Ġhectares":6978,"orient":6979,"Ġplaisir":6980,"ĠMoh":6981,"Ġacquis":6982,"ĠrÃ©daction":6983,"Bretagne":6984,"gen":6985,"illage":6986,"Ġai":6987,"thur":6988,"Ġapprend":6989,"rad":6990,"rot":6991,"ĠalÃ©":6992,"Ġfruits":6993,"Ġartiste":6994,"ĠGrÃ¨ce":6995,"ĠquantitÃ©":6996,"ĠsÃ©qu":6997,"Ġ1957":6998,"ories":6999,"ula":7000,"Ġkg":7001,"ĠarrivÃ©":7002,"ĠAujourd":7003,"Ġclients":7004,"ĠinstallÃ©":7005,"Ġcitoyens":7006,"isÃ©es":7007,"Entre":7008,"Ã©pisode":7009,"Ġscolaire":7010,"Durant":7011,"ĠÃ©cou":7012,"tations":7013,"Ġtechnologie":7014,"Ġeffectue":7015,"85":7016,"Ġcontrib":7017,"Ġolympique":7018,"lov":7019,"tile":7020,"Ġtax":7021,"archie":7022,"ĠÃ©trangers":7023,"Ġfabrication":7024,"orge":7025,"ĠJules":7026,"Ã©chapp":7027,"Ġtentative":7028,"Ġtransfert":7029,"Ġmaximum":7030,"ĠPen":7031,"ĠGas":7032,"Ġmatern":7033,"Ġfisc":7034,"Ġjustif":7035,"ĠrÃ©gionale":7036,"lymp":7037,"ĠresponsabilitÃ©":7038,"ĠrÃªve":7039,"rine":7040,"Ġlourd":7041,"ĠKing":7042,"Ġasse":7043,"Ġ1952":7044,"ĠMexique":7045,"rise":7046,"enreg":7047,"Ġmys":7048,"resser":7049,"aies":7050,"Ġchacune":7051,"Ġdynastie":7052,"ĠLang":7053,"ake":7054,"ĠQuelques":7055,"arriÃ¨re":7056,"illot":7057,"Ġcomportement":7058,"Ġbac":7059,"ĠSab":7060,"Ġsentiment":7061,"ĠRod":7062,"Ġesc":7063,"Ġbouche":7064,"Ġfonctionnement":7065,"Ġmarquis":7066,"Ġly":7067,"ĠMah":7068,"aites":7069,"Ġarb":7070,"Ġchangements":7071,"Ġissus":7072,"nelle":7073,"ulsion":7074,"ĠMari":7075,"Ġmenac":7076,"ĠRed":7077,"ĠassociÃ©":7078,"ĠprÃ©voit":7079,"ĠvÃ©ri":7080,"ĠPo":7081,"ĠDar":7082,"lisabeth":7083,"abbÃ©":7084,"mans":7085,"Ã¨che":7086,"ĠAlain":7087,"Ġlogici":7088,"Ã©mi":7089,"Ġtenue":7090,"ĠÃ©change":7091,"ĠdiffusÃ©":7092,"ĠÃ©levÃ©e":7093,"field":7094,"Ġnomme":7095,"exception":7096,"ĠOlivier":7097,"aptiste":7098,"Ġsauf":7099,"Ġchiffre":7100,"Ses":7101,"gnÃ©":7102,"autant":7103,"Ġversions":7104,"Ġperformances":7105,"Re":7106,"ĠcomÃ©":7107,"ĠJon":7108,"exemp":7109,"Ġonze":7110,"uck":7111,"Ġquartiers":7112,"Ġsemblait":7113,"tim":7114,"Ġprenant":7115,"Ġsoutenir":7116,"analyse":7117,"erait":7118,"meub":7119,"EN":7120,"Ġ1954":7121,"Ġdossier":7122,"lette":7123,"59":7124,"ĠÃ©tro":7125,"ĠÃ©toiles":7126,"ĠsuÃ©d":7127,"Ġdoub":7128,"dus":7129,"Ġentrant":7130,"Ġreligieuse":7131,"DÃ¨s":7132,"hom":7133,"Ġtap":7134,"Ġconnus":7135,"ĠblessÃ©s":7136,"ĠCongrÃ¨s":7137,"62":7138,"urie":7139,"Ġcheveux":7140,"43":7141,"Ġos":7142,"Ġcav":7143,"ĠHu":7144,"entement":7145,"ĠsupplÃ©mentaires":7146,"mira":7147,"Ġartifici":7148,"ophone":7149,"Ã©quip":7150,"expÃ©rience":7151,"Ġretard":7152,".)":7153,"ĠDer":7154,"ĠJui":7155,"Ã©rap":7156,"Ġjusque":7157,"Ġenseigne":7158,"ĠeffectuÃ©s":7159,"Ġchevalier":7160,"aime":7161,"ĠJan":7162,"prÃ¨te":7163,"lises":7164,"Ã©criv":7165,"Ġoriginale":7166,"ĠblessÃ©":7167,"ĠDie":7168,"Ġ1953":7169,"Ġ1937":7170,"Ġofficier":7171,"fond":7172,"Ġmoul":7173,"Ġmontant":7174,"ĠintÃ©rÃªt":7175,"Ġchiffres":7176,"iale":7177,"chauff":7178,"Ġmoindre":7179,"Ġ47":7180,"Ġprisonniers":7181,"architecture":7182,"gnan":7183,"Ġdoig":7184,"Ġfoule":7185,"Ġchance":7186,"ĠFri":7187,"Ġamen":7188,"Ad":7189,"quit":7190,"Ã©cria":7191,"ĠappelÃ©s":7192,"ĠÃĤge":7193,"ĠMu":7194,"Ġtransition":7195,"Ġphoto":7196,"Ġign":7197,"Ġcord":7198,"61":7199,"fiques":7200,"lÃ©es":7201,"ĠBarc":7202,"umin":7203,"Ġefficace":7204,"Ġcoeur":7205,"ĠvariÃ©tÃ©":7206,"Ġpenser":7207,"Ġdocumentaire":7208,"istique":7209,"ĠStre":7210,"Ġpollu":7211,"ĠSchool":7212,"avez":7213,"Ġanglaise":7214,"telligence":7215,"ĠMic":7216,"Ġproposition":7217,"ogle":7218,"ĠSmith":7219,"ĠsÃ©v":7220,"Ġble":7221,"ĠNÃ©":7222,"Ġmilieux":7223,"Ġpay":7224,"Ġremis":7225,"ĠDub":7226,"Ġtransports":7227,"enz":7228,"orp":7229,"Ġinternationales":7230,"Ġ120":7231,"Ġ42":7232,"Ġtourne":7233,"levard":7234,"Australie":7235,"CO":7236,"anitÃ©":7237,"Ġemploi":7238,"Ġdynam":7239,"ĠrÃ©duit":7240,"ĠmÃ©l":7241,"otype":7242,"Ġweek":7243,"Ġ1918":7244,"onnais":7245,"osex":7246,"ĠprÃ©paration":7247,"Ġling":7248,"Ġtemple":7249,"Äį":7250,"Ġparu":7251,"Ġpoursuivre":7252,"ĠCy":7253,"ĠTru":7254,"ĠrÃ©flex":7255,"adio":7256,"MA":7257,"sk":7258,"Äģ":7259,"Ġmam":7260,"Ġart":7261,"ĠmontÃ©e":7262,"ĠdonnÃ©e":7263,"ĠdÃ©mocratique":7264,"Ġflam":7265,"Ġcollabor":7266,"Ġgla":7267,"Ġpouvoirs":7268,"Ġpluie":7269,"mandie":7270,"Ġfondament":7271,"ĠrÃ©fÃ©r":7272,"ĠscÃ©nario":7273,"ĠfenÃªtre":7274,"Ge":7275,"enue":7276,"ĠSous":7277,"Ġdoctor":7278,"gal":7279,"ĠLille":7280,"ĠCra":7281,"Ġentendu":7282,"olutions":7283,"douard":7284,"RS":7285,"col":7286,"Ġhumi":7287,"ĠUnivers":7288,"ĠdÃ©fendre":7289,"ĠpÃ©r":7290,"oub":7291,"ush":7292,"Ġauxqu":7293,"ĠdÃ©fend":7294,"Ġincar":7295,"Ġemprun":7296,"Ġthermique":7297,"ĠvÃ©cu":7298,"ĠJosÃ©":7299,"occu":7300,"ĠmÃ©lange":7301,"ĠpropriÃ©taires":7302,"46":7303,"isÃ©s":7304,"ĠVe":7305,"ĠterminÃ©":7306,"Ġmalheure":7307,"Ã©anmoins":7308,"Ġsolaire":7309,"rection":7310,"ilm":7311,"Ġnaz":7312,"ĠcomÃ©die":7313,"reurs":7314,"ĠMass":7315,"Ġportent":7316,"automne":7317,"Ġnav":7318,"ĠCos":7319,"agent":7320,"tific":7321,"ĠproposÃ©":7322,"Ġislam":7323,"yrÃ©nÃ©es":7324,"42":7325,"Ġpayer":7326,"taine":7327,"Ġpiano":7328,"Ġdisponibles":7329,"ĠÃ©voque":7330,"ĠmÃ©tropolitaine":7331,"ĠmÃª":7332,"Ġtempor":7333,"Ġconseils":7334,"ĠaccompagnÃ©":7335,"ĠfÃ©minine":7336,"Ġprochaine":7337,"Th":7338,"Ã©tiques":7339,"trait":7340,"ĠÃ©crivain":7341,"ĠPortugal":7342,"eni":7343,"Ġsemi":7344,"ĠDun":7345,"ĠcomplÃ©":7346,"avaient":7347,"Ġforment":7348,"Ġsoutient":7349,"Ġcentres":7350,"Ġpand":7351,"erce":7352,"Ġcontrain":7353,"Ġvoyageurs":7354,"Ġparf":7355,"low":7356,"Ġliaison":7357,"Ġaltitude":7358,"aka":7359,"pÃ¨re":7360,"Ġbris":7361,"Ġpourra":7362,"ĠTre":7363,"irurg":7364,"Ġsubst":7365,"ciation":7366,"olesc":7367,"trique":7368,"Ġsynth":7369,"ĠLiv":7370,"ĠGer":7371,"ĠGold":7372,"Ġbaron":7373,"ĠmonastÃ¨re":7374,"Ġobjectifs":7375,"ĠRock":7376,"ĠinfÃ©rieur":7377,"Ġventes":7378,"oiseau":7379,"iritu":7380,"Ã©lÃ¨ne":7381,"ĠstratÃ©gie":7382,"ĠtÃ©lÃ©visÃ©e":7383,"Ġcouvrant":7384,"ĠSÃ©n":7385,"Ġhi":7386,"ĠNantes":7387,"Ġvieille":7388,"Ġcriti":7389,"Ġvendu":7390,"ĠprotÃ©":7391,"Ã©vÃ©":7392,"arios":7393,"Ġ1951":7394,"Ġgend":7395,"illard":7396,"ĠliÃ©es":7397,"riÃ¨res":7398,"ĠdÃ©sign":7399,"Ġhumain":7400,"Ġmultiples":7401,"ĠÃ©quival":7402,"sch":7403,"arra":7404,"lets":7405,"ĠMaria":7406,"ĠNorv":7407,"Å«":7408,"ouÃ©":7409,"ases":7410,"Ġglis":7411,"ĠTch":7412,"ĠVierge":7413,"olet":7414,"ĠutilisÃ©es":7415,"avier":7416,"ĠdÃ©lic":7417,"enregistre":7418,"Ġgamme":7419,"Ġinvent":7420,"ĠdÃ©clin":7421,"Ġespaces":7422,"ĠexpÃ©riment":7423,"ĠboÃ®":7424,"Ġnationales":7425,"ĠdifficultÃ©":7426,"ĠPlan":7427,"ĠStrasbourg":7428,"pire":7429,"ĠlibÃ©ration":7430,"Ġaccepte":7431,"Ã£":7432,"Ġliens":7433,"Ã©rir":7434,"Ġinterne":7435,"Ġlangage":7436,"ĠÃ©vÃ©nement":7437,"ĠLÃ©g":7438,"champ":7439,"ĠMÃªme":7440,"Ġbonnes":7441,"Ġ700":7442,"Ġmens":7443,"Ġconfond":7444,"ĠrÃ¨gle":7445,"Ġdisparition":7446,"Ġplateforme":7447,"aus":7448,"aband":7449,"Ġjaponaise":7450,"ĠMiss":7451,"ĠRet":7452,"Ġdomes":7453,"ĠgarÃ§on":7454,"ĠMilan":7455,"ĠAffaires":7456,"Ġofficiers":7457,"ortÃ©s":7458,"Ġvague":7459,"Ġterri":7460,"Ġinterview":7461,"ĠAnti":7462,"Ġsauver":7463,"ĠÃ¢gÃ©":7464,"ĠenregistrÃ©":7465,"ĠAssociation":7466,"igueur":7467,"ĠTurquie":7468,"Ġbonheur":7469,"ĠprÃ©fecture":7470,"ĠcoopÃ©ration":7471,"ilibre":7472,"Ġgarder":7473,"ĠBarcelon":7474,"ĠgoÃ»t":7475,"illons":7476,"bout":7477,"ĠÃ©lab":7478,"ĠPC":7479,"seurs":7480,"ĠEsp":7481,"Ġexemplaires":7482,"Ã©chelle":7483,"ĠRoland":7484,"Ġdommages":7485,"ĠGoogle":7486,"Ġtraduit":7487,"ovie":7488,"Ġrappro":7489,"Ġ57":7490,"ĠMary":7491,"Ġfortif":7492,"tenait":7493,"tension":7494,"99":7495,"Ġlev":7496,"Ġnotes":7497,"ĠdiplÃ´":7498,"sant":7499,"ĠcomplÃ©ment":7500,"Ġtir":7501,"gnon":7502,"ĠInternational":7503,"Ġdesserv":7504,"Ġactrice":7505,"ĠMark":7506,"Hen":7507,"ÑĤ":7508,"Ġquasi":7509,"auts":7510,"uler":7511,"Ġ160":7512,"ella":7513,"Ġacte":7514,"ĠDÃ©fense":7515,"Ġprofondeur":7516,"ĠthÃ¨se":7517,"Ġ1934":7518,"ĠRenÃ©":7519,"onf":7520,"Ġ1933":7521,"Ġerre":7522,"Ġpseud":7523,"Ġvigueur":7524,"Ġplat":7525,"tins":7526,"ĠsÃ©cher":7527,"Ġromans":7528,"Ġfortune":7529,"ĠChicago":7530,"Michel":7531,"quette":7532,"orne":7533,"Ġlongues":7534,"Ġstations":7535,"akh":7536,"57":7537,"GN":7538,"deux":7539,"Ġflotte":7540,"ĠChampionnat":7541,"ĠArn":7542,"licitÃ©":7543,"Ġfacil":7544,"Ġministres":7545,"ĠBelle":7546,"Ġsubs":7547,"Ġcommercial":7548,"Ġnoirs":7549,"ĠprÃ©cisÃ©ment":7550,"Ġorth":7551,"ĠprÃ©sentant":7552,"Ġtravailleurs":7553,"effet":7554,"abbaye":7555,"ĠnÃ©erlandais":7556,"grÃ©s":7557,"ĠrÃ´les":7558,"ĠmÃ©tier":7559,"EP":7560,"win":7561,"ĠsuccÃ¨de":7562,"ĠendÃ©mique":7563,"Ġimage":7564,"Ġprimaire":7565,"enez":7566,"union":7567,"midi":7568,"Ġcombin":7569,"Ġfacile":7570,"Ġmac":7571,"ĠCD":7572,"ĠNet":7573,"lisme":7574,"Ġamour":7575,"ĠlÃ©gende":7576,"Ġessais":7577,"ĠparamÃ¨tres":7578,"ĠClar":7579,"espoir":7580,"AmÃ©rique":7581,"ritÃ©":7582,"arte":7583,"ĠTunis":7584,"ĠquittÃ©":7585,"Ġenter":7586,"Ġ1935":7587,"mise":7588,"ouvrage":7589,"Ils":7590,"Ġplant":7591,"Ġfame":7592,"piration":7593,"blir":7594,"Ġsecondaire":7595,"ĠscÃ©narios":7596,"ĠVincent":7597,"Ġfleur":7598,"ĠMars":7599,"Ġvisible":7600,"ican":7601,"parole":7602,"annonce":7603,"urance":7604,"dies":7605,"attend":7606,"Ġdatant":7607,"agence":7608,"formÃ©":7609,"emark":7610,"95":7611,"Ġcesse":7612,"Ġmontagnes":7613,"culaire":7614,"Ġtomber":7615,"IT":7616,"rants":7617,"Ġbons":7618,"ĠInstitut":7619,"Ġrevenus":7620,"ĠMarcel":7621,"ĠrÃ©ta":7622,"impose":7623,"Ġorganisations":7624,"Ã©difice":7625,"Ġnaturels":7626,"ternet":7627,"Ġtenter":7628,"Ġconfirme":7629,"Ġcaval":7630,"ĠCatherine":7631,"Ġprincesse":7632,"Ġmaladi":7633,"agÃ©s":7634,"ĠreprÃ©sentent":7635,"env":7636,"ologues":7637,"Ġcanon":7638,"ĠentraÃ®ne":7639,"Ġchronique":7640,"Ne":7641,"eta":7642,"ĠDam":7643,"Ġmonter":7644,"Ġallemands":7645,"Ġfournir":7646,"ypothÃ¨se":7647,"Ġferroviaire":7648,"veau":7649,"Ġjoie":7650,"ĠprÃ©sentent":7651,"Ġporta":7652,"Ġmaintenir":7653,"Ġinstitutions":7654,"ĠDire":7655,"utiliser":7656,"zi":7657,"orce":7658,"Ġanalys":7659,"ÃŃa":7660,"Ġfallait":7661,"ĠGh":7662,"oncle":7663,"Ġbateau":7664,"itÃ´t":7665,"Ġdistingue":7666,"Ġsportif":7667,"ĠinspirÃ©":7668,"ild":7669,"ĠdÃ©lÃ©gu":7670,"ĠfÃ©dÃ©ration":7671,"ĠfenÃªtres":7672,"ĠEli":7673,"Ġcommencer":7674,"Ġabsolue":7675,"56":7676,"lage":7677,"ouff":7678,"uellement":7679,"ĠBab":7680,"actrice":7681,"ĠTV":7682,"ĠdÃ©partements":7683,"ĠRes":7684,"Ġcalend":7685,"ĠengagÃ©":7686,"Ġcuisine":7687,"ĠpandÃ©mie":7688,"jon":7689,"ĠrÃ©pand":7690,"Ġmanifestations":7691,"Ġ1919":7692,"Ġapparition":7693,"angl":7694,"omÃ©trie":7695,"AD":7696,"ÙĦ":7697,"Ã»te":7698,"Ġdispers":7699,"ĠErn":7700,"dont":7701,"Ġsouter":7702,"Ġadjoint":7703,"ellation":7704,"Ġsimilaire":7705,"ĩa":7706,"Ġvise":7707,"ĠcommunautÃ©s":7708,"LE":7709,"ccident":7710,"ĠrentrÃ©e":7711,"inement":7712,"Ġdevoir":7713,"Ã©mique":7714,"Ġblo":7715,"vice":7716,"ĠGÃ©r":7717,"58":7718,"Ġcrit":7719,"ĠFort":7720,"Ġefforts":7721,"Ġautomobile":7722,"las":7723,"reau":7724,"Ġfic":7725,"AM":7726,"peur":7727,"ĠBarcelone":7728,"Ġendroit":7729,"AcadÃ©mie":7730,"hol":7731,"ĠBlan":7732,"Ġspiritu":7733,"Ġmises":7734,"Ġdonnent":7735,"Ġ1929":7736,"ĠGenÃ¨ve":7737,"ĠAllemands":7738,"Ġencou":7739,"Ġchirurg":7740,"Ġtiss":7741,"Ġcoloni":7742,"ĠMusÃ©e":7743,"51":7744,"Deux":7745,"Ġdame":7746,"Ã¨ses":7747,"ussitÃ´t":7748,"Ġmaximale":7749,"Ġchemins":7750,"Ġcouverture":7751,"Ġsecondaires":7752,"Ġattaques":7753,"ĠtempÃ©ratures":7754,"ĠRT":7755,"Ġsoix":7756,"Ġpromu":7757,"ĠretrouvÃ©":7758,"wn":7759,"yer":7760,"Ã¨ler":7761,"ĠLis":7762,"ĠdÃ©signÃ©":7763,"ĠmÃ©tÃ©orologique":7764,"zer":7765,"ĠHub":7766,"Ġcinquante":7767,"Ġmauvaise":7768,"ĠrelÃ¨ve":7769,"Ġinterdit":7770,"ĠsituÃ©s":7771,"gel":7772,"Ġmines":7773,"ĠÃ©crits":7774,"Ġmanus":7775,"ĠRoger":7776,"ao":7777,"ĠCamb":7778,"attraction":7779,"Ġavis":7780,"osÃ©es":7781,"Ġjournalistes":7782,"Ġusage":7783,"Ã©si":7784,"Ġbais":7785,"Ġ$":7786,"ĠrÃ©glement":7787,"Ġconven":7788,"ĠPourquoi":7789,"ĠDanemark":7790,"Ġrup":7791,"ĠcafÃ©":7792,"Ġmaladies":7793,"Ġinfluenc":7794,"ĠintermÃ©diaires":7795,"zy":7796,"ĠBerg":7797,"ierres":7798,"ĠoccupÃ©":7799,"tils":7800,"Ġmoteurs":7801,"ĠsituÃ©es":7802,"Ġcris":7803,"Ġhame":7804,"Ġcontenant":7805,"Ġvide":7806,"orisation":7807,"ĠdirigÃ©e":7808,"ĠRoche":7809,"ĠMusic":7810,"Puis":7811,"ĠAux":7812,"ĠBir":7813,"Ġexhaus":7814,"Ġacad":7815,"chester":7816,"ĠPaci":7817,"adel":7818,"Ġremonte":7819,"Ġdizaines":7820,"ĠJÃ©sus":7821,"cÃ©e":7822,"dans":7823,"ĠprÃ©vue":7824,"Ġspectateurs":7825,"quier":7826,"Ġleader":7827,"chon":7828,"ĠrÃ©el":7829,"rest":7830,"orf":7831,"Ġavocat":7832,"Ġexposition":7833,"Ġportrait":7834,"Ġmorceaux":7835,"54":7836,"Ġmeilleures":7837,"Ġcirconst":7838,"tantin":7839,"aki":7840,"Ġinternationaux":7841,"ĠconfirmÃ©":7842,"mettre":7843,"ĠÃ©mo":7844,"Ġanc":7845,"Ġ250":7846,"ĠrÃ©guliÃ¨re":7847,"ĠDivision":7848,"Ġcoin":7849,"Ġduo":7850,"Ã©vÃªque":7851,"ĠUnited":7852,"Parmi":7853,"Ġcollectif":7854,"Ġdestruction":7855,"Ġtch":7856,"Ġcommis":7857,"Ġcarbone":7858,"Pro":7859,"Ġmontrent":7860,"ĠdÃ©claration":7861,"Ġoriginal":7862,"hommes":7863,"rÃ¨te":7864,"Ġprai":7865,"olis":7866,"ĠJuifs":7867,"ressionn":7868,"Ġgris":7869,"ĠcolÃ¨re":7870,"avion":7871,"aisons":7872,"Ġdivin":7873,"ĠHel":7874,"Ġportug":7875,"fices":7876,"ĠStan":7877,"Ġjournaux":7878,"Ġ1917":7879,"ĠaÃ©rienne":7880,"chen":7881,"Ġenseign":7882,"ĠÃ©tablissement":7883,"audi":7884,"ĠbrÃ©sil":7885,"Ġactifs":7886,"ĠpÃ©riodes":7887,"ladimir":7888,"ĠchargÃ©e":7889,"ĠmÃ©thodes":7890,"Ġabbaye":7891,"appuyant":7892,"Ġrouges":7893,"Ġtroubles":7894,"ĠdÃ©tec":7895,"asa":7896,"ĠdÃ©bar":7897,"Ãªtements":7898,"Ã©lu":7899,"ĠChap":7900,"extrÃªme":7901,"Ġmener":7902,"Ġsymbole":7903,"Ġsatisf":7904,"astÃ©roÃ¯":7905,"ĠassurÃ©":7906,"ĠInf":7907,"ĠForce":7908,"inal":7909,"ĠchÅĵur":7910,"cool":7911,"formations":7912,"ĠfÃ»t":7913,"Ġsuppri":7914,"ĠdestinÃ©":7915,"ĠGabriel":7916,"Ã´ts":7917,"Ġcouvert":7918,"ĠchÃ¢":7919,"ĠRu":7920,"Ġabrite":7921,"Ġweb":7922,"Ġsurveillance":7923,"ĠLac":7924,"ĠJourn":7925,"oble":7926,"ĠDisney":7927,"52":7928,"entique":7929,"ĠTop":7930,"tration":7931,"Ġromain":7932,"Bien":7933,"Ġcur":7934,"ĠTF":7935,"ĠLiÃ¨ge":7936,"Ġaccompag":7937,"iev":7938,"Ġsoumis":7939,"Ġpouvez":7940,"tille":7941,"Ġdites":7942,"alem":7943,"Ġrythme":7944,"inoise":7945,"usine":7946,"Ġplante":7947,"ĠÃ©tage":7948,"achat":7949,"Ġquarante":7950,"Ġtriom":7951,"Ġprocureur":7952,"atin":7953,"lÃ©gation":7954,"Ġmusiciens":7955,"Ġnations":7956,"Ġpages":7957,"ĠinÃ©d":7958,"El":7959,"Ġlait":7960,"tuaire":7961,"Ġentendre":7962,"Ġviolences":7963,"ĠparticuliÃ¨re":7964,"Ġcorrespondant":7965,"Ġadministrative":7966,"ĠÃ©nergÃ©":7967,"ĠPatrick":7968,"ĠmathÃ©matiques":7969,"ĠNouveau":7970,"truite":7971,"Ġregret":7972,"Ġbanque":7973,"Ġinscrits":7974,"ĠprivilÃ©g":7975,"Ġspr":7976,"veille":7977,"ĠFi":7978,"Ġ1932":7979,"Ġisra":7980,"ĠmatÃ©riaux":7981,"ĠnÃ©cessitÃ©":7982,"Ġcolonel":7983,"zan":7984,"ĠAw":7985,"ĠNorth":7986,"istoires":7987,"Ġtourner":7988,"ĠrÃ©pert":7989,"Ġmusical":7990,"Ġactes":7991,"Arta":7992,"Ġvouloir":7993,"quille":7994,"ĠEtats":7995,"ĠhÃ©tÃ©":7996,"ĠmÃ©diÃ©v":7997,"ĠCroix":7998,"ĠextrÃªmement":7999,"Ġsoutenu":8000,"rasse":8001,"lat":8002,"Ġfortes":8003,"ĠChicot":8004,"ĠRecords":8005,"mid":8006,"Ġanniversaire":8007,"anisme":8008,"Ġ1900":8009,"ĠÃ©tapes":8010,"Ġpouvaient":8011,"Ġmairie":8012,"Ġlimites":8013,"ĠdÃ©sir":8014,"ĠPetit":8015,"prÃªme":8016,"Ġanalyse":8017,"Ġnoter":8018,"Ġscand":8019,"glais":8020,"Ġmettent":8021,"Ġformat":8022,"Ġnette":8023,"ĠFern":8024,"Ġoubli":8025,"ĠbeautÃ©":8026,"ĠconservÃ©":8027,"ourne":8028,"ĠGri":8029,"ĠJim":8030,"Ġ]":8031,"Ġtac":8032,"Ġpostes":8033,"ĠtÃ©moi":8034,"stÃ©":8035,"Ġput":8036,"istait":8037,"Ġassurer":8038,"Ġmalade":8039,"Ġfrom":8040,"accueil":8041,"Ġremise":8042,"Ġlicence":8043,"Ġpes":8044,"roits":8045,"Ġexcent":8046,"Ġsportive":8047,"Ġvirus":8048,"Ġdan":8049,"Ġbarrage":8050,"Ġ}":8051,"ctur":8052,"ĠmÃ©decins":8053,"Ġfaux":8054,"Ġpeuples":8055,"Ġinterromp":8056,"ylv":8057,"Ġpopulaires":8058,"ĠemployÃ©s":8059,"hy":8060,"intes":8061,"Ġ44":8062,"ĠCamer":8063,"Ġpolonaise":8064,"Ġagents":8065,"ĠdessinÃ©e":8066,"Ġdizaine":8067,"uir":8068,"Ã©riques":8069,"obtenir":8070,"Ġguerres":8071,"Ġmanuscrit":8072,"Ġconduis":8073,"Ġprovisoire":8074,"oici":8075,"onnant":8076,"Ġstructures":8077,"Ġoccidentale":8078,"Ġmourir":8079,"onnier":8080,"Ġcomptes":8081,"Ġperspec":8082,"Ġarriver":8083,"ĠlancÃ©e":8084,"Ġheureux":8085,"mbler":8086,"ĠKn":8087,"Ġ54":8088,"Ġaffront":8089,"Ġapplication":8090,"autoritÃ©":8091,"Ġremporter":8092,"ĠÃ©preuves":8093,"ĠmenÃ©":8094,"ĠclassÃ©e":8095,"Com":8096,"Mari":8097,"Ġduquel":8098,"Ġbot":8099,"ĠSing":8100,"onna":8101,"ĠKi":8102,"Ġrecours":8103,"Ġ%.":8104,"huile":8105,"Ġrapports":8106,"ĠdÃ©tails":8107,"ennies":8108,"Ġpur":8109,"Ã©chal":8110,"Ġukrainien":8111,"ĠAdam":8112,"ĠrÃ©duction":8113,"Ã©bÃ©c":8114,"Ġproposer":8115,"Ġcellules":8116,"Ġpierres":8117,"relle":8118,"Ġdeviennent":8119,"ĠLar":8120,"ĠRap":8121,"ĠÃ©clip":8122,"ĠBruno":8123,"Ġproportion":8124,"Ã£o":8125,"Artagnan":8126,"Ġpoliciers":8127,"ĠdÃ©cennies":8128,"Ġchoisir":8129,"Ġdig":8130,"aujourd":8131,"ĠprÃ©sidente":8132,"Ġvisiteurs":8133,"cice":8134,"Ġpauvres":8135,"oniques":8136,"ows":8137,"Autriche":8138,"issi":8139,"Ġchien":8140,"ife":8141,"ĠagrÃ©":8142,"Ġconstituent":8143,"Ġcroise":8144,"ĠNormandie":8145,"wick":8146,"omes":8147,"veu":8148,"ĠAz":8149,"dir":8150,"adis":8151,"ancel":8152,"Ġreconnue":8153,"ouvÃ©":8154,"Ġactive":8155,"Ġstandard":8156,"Ġcalendrier":8157,"ĠSun":8158,"ĠForm":8159,"mile":8160,"alition":8161,"Ġorientale":8162,"Ġsympt":8163,"rans":8164,"Ã©en":8165,"ĠJones":8166,"Ġneige":8167,"Ġ170":8168,"Ġautonome":8169,"ophones":8170,"quisition":8171,"book":8172,"ĠpÃ©":8173,"Ġache":8174,"Ġfranco":8175,"Ġ%)":8176,"amÃ©nagement":8177,"ĠbÃ©":8178,"Ġsolid":8179,"ĠQuant":8180,"Ġblancs":8181,"53":8182,"Ġsainte":8183,"gos":8184,"Ġmang":8185,"ĠhÃ©ri":8186,"Ġprovenant":8187,"enci":8188,"accep":8189,"ĠdÃ©terminer":8190,"XV":8191,"ĠCre":8192,"Ġmonte":8193,"ĠconstituÃ©e":8194,"Ġboule":8195,"ĠrÃ©pÃ©":8196,"ĠRadio":8197,"onds":8198,"ĠgrÃ¨ve":8199,"ĠfrontiÃ¨res":8200,"ĠÃ©lÃ¨ve":8201,"ĠSÃ©nat":8202,"ĠÏ":8203,"ĠMod":8204,"ĠNÃ©anmoins":8205,"Ġchauss":8206,"ĠvÃ©gÃ©ta":8207,"Ġ[":8208,"ĠAf":8209,"Ã§u":8210,"Ġretourner":8211,"oft":8212,"Ġenvah":8213,"Etat":8214,"rob":8215,"Ġparent":8216,"assurer":8217,"Ġvacances":8218,"Ġpure":8219,"ĠWi":8220,"Ġconcurrence":8221,"Certa":8222,"Ġfre":8223,"ĠtrÃ©s":8224,"ĠBig":8225,"Ġhol":8226,"Ġ43":8227,"Gar":8228,"ken":8229,"mine":8230,"Ġcomtesse":8231,"Ġcalme":8232,"Ġcommencent":8233,"Es":8234,"ĠCri":8235,"ĠcompÃ©titions":8236,"estes":8237,"ĠBob":8238,"ĠAnn":8239,"ĠMayotte":8240,"ĠLouise":8241,"ĠFoot":8242,"ordinaire":8243,"ĠlÃ©gales":8244,"ĠPa":8245,"ĠchangÃ©":8246,"ĠTex":8247,"ĠHo":8248,"Ġ41":8249,"contre":8250,"ĠAmÃ©ric":8251,"ĠdestinÃ©e":8252,"ĠprocÃ©dure":8253,"Ġaime":8254,"Ġbro":8255,"ĠBat":8256,"ĠÂ»).":8257,"ĠAlb":8258,"Ġlaboratoire":8259,"rations":8260,"Ġrepose":8261,"ĠrÃ©chauff":8262,"fications":8263,"Ġparlementaire":8264,"Ġoiseaux":8265,"Ġdoctorat":8266,"88":8267,"Ġgeste":8268,"Ġquelqu":8269,"ĠVotre":8270,"videmment":8271,"Ġ1924":8272,"ĠNoÃ«l":8273,"Ġappareils":8274,"attention":8275,"lÃ¨te":8276,"Ġformule":8277,"Ġautrefois":8278,"Ġconserver":8279,"ĠeffectuÃ©":8280,"urait":8281,"ĠPap":8282,"Ġcontro":8283,"Ġgardien":8284,"ĠRac":8285,"ĠrestÃ©":8286,"ĠintÃ©rÃªts":8287,"Ġissue":8288,"ĠAri":8289,"Ġatteinte":8290,"ĠConstitution":8291,"Ġclassiques":8292,"ĠSanta":8293,"tellectu":8294,"dd":8295,"ĠtraÃ®":8296,"Ġutilisateurs":8297,"Ġ1928":8298,"Ġveulent":8299,"Ġcontinua":8300,"Ġmorceau":8301,"Ġsombre":8302,"Ã©taire":8303,"oxy":8304,"Ġobservations":8305,"oulez":8306,"Ara":8307,"EC":8308,"Ġcents":8309,"Ġtennis":8310,"ĠStÃ©":8311,"offici":8312,"ĠprÃ©parer":8313,"obi":8314,"Ġfacteurs":8315,"Ġreligieuses":8316,"Ġtraces":8317,"duits":8318,"Ġrapporte":8319,"Ġmodernes":8320,"Ġnaturelles":8321,"ĠChampionnats":8322,"artillerie":8323,"Ġmagn":8324,"Ġconvi":8325,"ĠprÃ©s":8326,"Ġmachine":8327,"mosphÃ¨re":8328,"ĠprÃ©sentÃ©e":8329,"Ġordin":8330,"Ġcouvre":8331,"Ġboulevard":8332,"Ġ1910":8333,"ĠpropriÃ©tÃ©s":8334,"ĠsuprÃªme":8335,"finale":8336,"Ġfournit":8337,"Ġchim":8338,"Ġcomprenant":8339,"Ġflot":8340,"ĠFinlande":8341,"89":8342,"Ġcancer":8343,"trich":8344,"Ġasc":8345,"FF":8346,"ardins":8347,"Ã©do":8348,"gies":8349,"Ġhan":8350,"itÃ©es":8351,"Ã©rÃ©es":8352,"Ġmodern":8353,"ĠNapolÃ©on":8354,"77":8355,"onale":8356,"omo":8357,"Ġjuni":8358,"ermain":8359,"ification":8360,"Ġconseillers":8361,"bach":8362,"ĠÃ©mer":8363,"Ġspatiale":8364,"Ġtouche":8365,"ĠÃ©crire":8366,"Ġdistingu":8367,"Ġchapitre":8368,"ĠPlay":8369,"Ã©ten":8370,"Ġfur":8371,"ĠMen":8372,"atures":8373,"ĠBrig":8374,"Ġintellectu":8375,"ĠHa":8376,"ĠHill":8377,"ĠFrancisco":8378,"Ġnata":8379,"Ġradi":8380,"ĠreprÃ©sentÃ©":8381,"Ġvivent":8382,"ĠintitulÃ©e":8383,"iro":8384,"Ġsul":8385,"ĠÃ©loi":8386,"ĠamÃ©ricaines":8387,"ĠseptiÃ¨me":8388,"rairement":8389,"Ġtue":8390,"acu":8391,"ĠRÃ©s":8392,"ĠpersonnalitÃ©":8393,"appare":8394,"ĠpÃ¨ler":8395,"ero":8396,"ĠOff":8397,"Ãīcole":8398,"Ġconclut":8399,"Ġsucre":8400,"mart":8401,"Ġpin":8402,"Ġ1931":8403,"Ġinstallations":8404,"oman":8405,"Ġpassagers":8406,"Ġsanc":8407,"Ġnot":8408,"Ġpuissant":8409,"ĠfinanciÃ¨re":8410,"ĠsÃ©cheresse":8411,"ĠBois":8412,"Ġhas":8413,"geant":8414,"intro":8415,"lore":8416,"Ġcatastrophe":8417,"Ġbaie":8418,"ics":8419,"ĠÂ»),":8420,"ima":8421,"Ġclient":8422,"Ġsuccesseur":8423,"Ġchantier":8424,"ĠHaut":8425,"Ã©ron":8426,"Ġannon":8427,"Ġsourire":8428,"ĠprÃ©nom":8429,"Ġpropag":8430,"ĠNorvÃ¨ge":8431,"Ġplaine":8432,"ĠEug":8433,"ĠFar":8434,"ĠNGC":8435,"Ġargent":8436,"Ġcontac":8437,"Ġchamps":8438,"Ġcivils":8439,"sile":8440,"Ġvenue":8441,"Ġindividus":8442,"Ġinvestis":8443,"ĠJournal":8444,"ĠlÃ¢":8445,"Ġsoud":8446,"Inde":8447,"Ġvoisins":8448,"pour":8449,"Ġcu":8450,"aid":8451,"ropri":8452,"Ġpositions":8453,"ĠaccusÃ©":8454,"ety":8455,"Ġnef":8456,"ĠsÃ©lectionnÃ©":8457,"ĠcongrÃ¨s":8458,"ĠGil":8459,"igner":8460,"obe":8461,"ÃŃn":8462,"Ġadministratif":8463,"ID":8464,"nous":8465,"ices":8466,"Ġprovinci":8467,"gnÃ©e":8468,"aniste":8469,"Ġmonn":8470,"ussions":8471,"Ġdevaient":8472,"Ġsemblent":8473,"Ġfans":8474,"euve":8475,"Ġclairement":8476,"Ġsolo":8477,"Ġ1925":8478,"ĠIsraÃ«l":8479,"anni":8480,"ĠLuxemb":8481,"tume":8482,"oxe":8483,"Ġfinancement":8484,"ĠBle":8485,"ĠDÃ©c":8486,"Ġmob":8487,"Ġremplace":8488,"Ġconstitution":8489,"ĠdÃ©taillÃ©e":8490,"ĠirrÃ©":8491,"ĠantÃ©ri":8492,"Ġbrigade":8493,"Ġjur":8494,"calier":8495,"Ġtests":8496,"ĠCÃ´te":8497,"ĠclÃ©":8498,"Ġtirer":8499,"Ġvenant":8500,"Ġisol":8501,"Ġinclinaison":8502,"Ġ1926":8503,"Ġremet":8504,"Ã©tences":8505,"ĠSk":8506,"ink":8507,"ĠvÃªtements":8508,"roi":8509,"Ġdiscu":8510,"ĠZe":8511,"Ġprovoque":8512,"ĠinfÃ©rieure":8513,"Ġparfaitement":8514,"ouch":8515,"ĠcompÃ©tences":8516,"ĠconfÃ©rences":8517,"Ġjuridique":8518,"astÃ©roÃ¯des":8519,"Ġmanger":8520,"Ġfar":8521,"ĠBert":8522,"Ġherb":8523,"Ġconfie":8524,"Ġutilisent":8525,"ĠmagnÃ©":8526,"hÃ©lie":8527,"Ġfermet":8528,"truis":8529,"ĠAlpes":8530,"Ġpossession":8531,"Ġavion":8532,"Ġpotentiel":8533,"well":8534,"ĠSand":8535,"agglomÃ©ration":8536,"ĠTib":8537,"ĠspÃ©ciale":8538,"Ġvas":8539,"Ġbasket":8540,"tÃ©rieures":8541,"Ġcontrairement":8542,"ĠHongrie":8543,"Ġax":8544,"ĠÃ¨":8545,"ĠÃĩa":8546,"Ġem":8547,"Ġexac":8548,"Ġ64":8549,"ĠexpliquÃ©":8550,"Ġdestination":8551,"vitÃ©":8552,"Ġmos":8553,"Ġautrich":8554,"ĠpÃ©rihÃ©lie":8555,"offre":8556,"Ġsortant":8557,"Ġpert":8558,"ĠtuÃ©s":8559,"Ġvoient":8560,"rÃ©h":8561,"ĠVII":8562,"Ġgalerie":8563,"Ġlinguis":8564,"Ġcouvent":8565,"inion":8566,"ĠWind":8567,"Ġincendi":8568,"Insee":8569,"vet":8570,"ouge":8571,"Ġastr":8572,"ĠAsie":8573,"ĠOpen":8574,"Ġfati":8575,"appelle":8576,"Ġ1912":8577,"Ġtropic":8578,"Ġcanadien":8579,"ĠquÃ©bÃ©c":8580,"oton":8581,"ĠmÃ©d":8582,"Ã©nÃ©ral":8583,"Ġcultures":8584,"Ġbattant":8585,"Ġrupture":8586,"98":8587,"elin":8588,"Ġchamb":8589,"Ġtenant":8590,"Ġclimats":8591,"ressÃ©":8592,"Ġexpliquer":8593,"ĠPalais":8594,"ĠVoy":8595,"Ġremettre":8596,"Ġ1870":8597,"Cependant":8598,"Ġsuffisamment":8599,"ĠreprÃ©senter":8600,"Ġdevenant":8601,"Ġrecensements":8602,"assadeur":8603,"ĠNov":8604,"ĠChÃ¢teau":8605,"exer":8606,"Ġrepos":8607,"Ġ1922":8608,"Ġso":8609,"ĠMans":8610,"Ġconvers":8611,"Ġprolon":8612,"ulÃ©":8613,"ida":8614,"identif":8615,"Ġinstrument":8616,"iterranÃ©e":8617,"Luc":8618,"iler":8619,"Ġbelles":8620,"acre":8621,"lÃ©ch":8622,"Ġtourisme":8623,"TA":8624,"lir":8625,"lah":8626,"ĠrÃ©solution":8627,"ĠThÃ©Ã¢tre":8628,"zaine":8629,"agissait":8630,"ĠVladimir":8631,"Ġchoisit":8632,"Ġabsolu":8633,"fe":8634,"ompe":8635,"ĠDj":8636,"78":8637,"Ġtun":8638,"ĠillÃ©g":8639,"ĠImp":8640,"ĠnÃ©o":8641,"ĠlÃ©gÃ¨re":8642,"orat":8643,"rase":8644,"ĠpÃ©nÃ©":8645,"Ã¨vement":8646,"Ġapproche":8647,"Ġblessure":8648,"Ġmurm":8649,"Ġgre":8650,"Ġgenti":8651,"ĠthÃ¨mes":8652,"fiant":8653,"ĠEv":8654,"Ġcolonie":8655,"Ġrendent":8656,"Ġobligatoire":8657,"ĠLee":8658,"Ġnomination":8659,"ermont":8660,"Ġlutter":8661,"Ġaccessible":8662,"ffe":8663,"Ġremplacement":8664,"Ġproduite":8665,"initiative":8666,"PL":8667,"ĠÃīglise":8668,"Ġtroupe":8669,"Ġculturelle":8670,"Ġvoisin":8671,"ĠcamÃ©ra":8672,"animation":8673,"Ġlu":8674,"lez":8675,"ulaires":8676,"Ġdic":8677,"Ġprincipes":8678,"Ġaffron":8679,"Ġhonor":8680,"ardo":8681,"Ġ52":8682,"tivitÃ©s":8683,"Ġvenus":8684,"ĠqualifiÃ©":8685,"ĠConstantin":8686,"Ġtraditionnelle":8687,"Ġconcentration":8688,"Ġadversaire":8689,"ava":8690,"avre":8691,"Ġbases":8692,"trÃ©mitÃ©":8693,"Ġ#":8694,"itte":8695,"aco":8696,"Ġram":8697,"ĠreconnaÃ®tre":8698,"Ġailes":8699,"ĠtraversÃ©e":8700,"Ġhumaines":8701,"Ġpotenti":8702,"Ġintroduit":8703,"Ġpeintures":8704,"ĠalgÃ©ri":8705,"ĠGÃ©rard":8706,"Ã¨ques":8707,"agi":8708,"abe":8709,"Ġcercle":8710,"ĠInternet":8711,"Ġmagist":8712,"agir":8713,"Ã¢me":8714,"aret":8715,"ĠpoÃ©sie":8716,"Ġbattre":8717,"ĠChristophe":8718,"Ġnourriture":8719,"Gu":8720,"diques":8721,"ssage":8722,"Ġmaillot":8723,"AFP":8724,"nd":8725,"riss":8726,"ĠsÅĵurs":8727,"Ġbri":8728,"ĠShe":8729,"ĠLaur":8730,"Ã®t":8731,"Ġdouleur":8732,"Ġdonna":8733,"Ġfranchise":8734,"arin":8735,"Ġtub":8736,"ĠFland":8737,"uth":8738,"Ġexig":8739,"Ġdessus":8740,"Ġpomp":8741,"orgie":8742,"importe":8743,"ĠWilliams":8744,"Ġtypologie":8745,"ĠDur":8746,"ĠfÃ©dÃ©rale":8747,"ĠJuan":8748,"aigne":8749,"Ġpossibles":8750,"ĠTokyo":8751,"Ġ46":8752,"Ġ1927":8753,"huit":8754,"Ġfile":8755,"Ã¨nement":8756,"Ġrelev":8757,"ĠNik":8758,"ĠCaroline":8759,"Ġessay":8760,"Ġfro":8761,"ĠOt":8762,"Ã©ry":8763,"Ġserbe":8764,"Ġsimples":8765,"Ġsexe":8766,"Ġspatial":8767,"ĠGroupe":8768,"Ġhong":8769,"Ġgraves":8770,"ĠdÃ©fenseur":8771,"ĠdÃ©placement":8772,"Ġrejoign":8773,"SA":8774,"Ġenvie":8775,"tÃ©rÃ©":8776,"ĠFra":8777,"ĠaffirmÃ©":8778,"ĠLuxembourg":8779,"ismes":8780,"ĠgagnÃ©":8781,"cile":8782,"ĠOlymp":8783,"Ġvaisseau":8784,"ĠapprÃ©ci":8785,"97":8786,"Aux":8787,"EL":8788,"Ġpaysage":8789,"Ġpromen":8790,"Ã¼r":8791,"ziÃ¨me":8792,"alors":8793,"Ġapplications":8794,"orial":8795,"ĠlimitÃ©e":8796,"Ã³w":8797,"Ġsuccession":8798,"ĠexcentricitÃ©":8799,"TV":8800,"ĠTy":8801,"insule":8802,"Ġentra":8803,"Ġence":8804,"Martin":8805,"Ġdirecte":8806,"Ġstatistiques":8807,"87":8808,"tante":8809,"Ġconclu":8810,"Ġsuivent":8811,"Ġrire":8812,"190":8813,"Ġsolide":8814,"ĠrÃ©alisÃ©s":8815,"AlgÃ©rie":8816,"ĠconsÃ©quent":8817,"orchestre":8818,"ouvoir":8819,"imag":8820,"ĠperpÃ©":8821,"Ġmoments":8822,"ĠÃ©chelle":8823,"Ġdiminution":8824,"ĠNice":8825,"Ġrose":8826,"Ġabord":8827,"pects":8828,"Ġrencontrer":8829,"Ġparcour":8830,"Ġdirigeant":8831,"jug":8832,"vue":8833,"ĠdÃ©finition":8834,"ĠÃ©lectriques":8835,"Ġautomatique":8836,"entraÃ®neur":8837,"Ġdebout":8838,"entend":8839,"ĠDup":8840,"Ġqualifie":8841,"Ġpartenaires":8842,"ĠnÃ©gociations":8843,"iÃ©es":8844,"ressions":8845,"umÃ©":8846,"impact":8847,"sis":8848,"ĠRem":8849,"Ġcentaine":8850,"Ġtalent":8851,"ĠVirgin":8852,"Ġlux":8853,"Ġvents":8854,"ĠLui":8855,"ĠCassin":8856,"abil":8857,"Ġ51":8858,"Ġinclus":8859,"ridge":8860,"ualitÃ©":8861,"Ġcultiv":8862,"cade":8863,"Ġesprit":8864,"Ġattention":8865,"ĠPourtant":8866,"Ġbiais":8867,"Ġprovinces":8868,"ĠtÃ©lÃ©phone":8869,"Plusieurs":8870,"Ã©rieurs":8871,"Ġmerc":8872,"Ġ1921":8873,"ound":8874,"ĠfermÃ©":8875,"ĠaussitÃ´t":8876,"Ġsusc":8877,"ĠcatÃ©gories":8878,"NÃ©":8879,"ĠVie":8880,"ĠKy":8881,"FC":8882,"aurait":8883,"aÃ¯d":8884,"ĠGreen":8885,"Ġdiscipline":8886,"ĠÃ©cliptique":8887,"Tout":8888,"oureuse":8889,"Ġappris":8890,"Ġdisant":8891,"Ġcrime":8892,"Ġdesservie":8893,"hal":8894,"Ġligue":8895,"Ġgo":8896,"ĠRy":8897,"Ġtournant":8898,"ĠÃ©nergie":8899,"ĠRÃ©gion":8900,"Du":8901,"litÃ©":8902,"ouche":8903,"Ġtirs":8904,"Ġagent":8905,"Ġqualification":8906,"ĠhuitiÃ¨me":8907,"aments":8908,"Ġsolutions":8909,"astr":8910,"ĠMain":8911,"ĠProvence":8912,"Ġsuffrages":8913,"ĠdÃ©chets":8914,"86":8915,"Ġcampagnes":8916,"unk":8917,"urch":8918,"ĠSerb":8919,"ĠIb":8920,"ducteur":8921,"iliers":8922,"Ġphotograph":8923,"ĠrÃ©compens":8924,"cap":8925,"Ġmul":8926,"ustin":8927,"Ġrevi":8928,"ĠBoy":8929,"ĠGrÃ¢ce":8930,"Ġtraditionnel":8931,"ĠsupplÃ©mentaire":8932,"Henri":8933,"ĠdÃ®":8934,"Ġvingtaine":8935,"ĠadoptÃ©":8936,"Ġdirectrice":8937,"invasion":8938,"ditÃ©":8939,"litude":8940,"una":8941,"Ġenvoie":8942,"aises":8943,"Ġjouent":8944,"ĠAlfred":8945,"aissait":8946,"lure":8947,"ĠcommÃ©m":8948,"Ġrecettes":8949,"Ġcapac":8950,"Ġhautes":8951,"ĠrÃ©putation":8952,"ĠÃ©dit":8953,"ĠTim":8954,"Ġramen":8955,"Ġtire":8956,"Ġhabitat":8957,"Ġnoblesse":8958,"Ġperturb":8959,"ĠSoleil":8960,"ĠRoi":8961,"raires":8962,"Ġfavorable":8963,"ĠtournÃ©":8964,"agnos":8965,"Ġenvirons":8966,"Ġessai":8967,"Ġdeviendra":8968,"deur":8969,"umer":8970,"ĠUl":8971,"apparition":8972,"ĠsystÃ©":8973,"cidents":8974,"ĠâĢĿ":8975,"Ġtechnologies":8976,"Ġpilotes":8977,"Ġbourgeois":8978,"ĠFlori":8979,"Ġmachines":8980,"Ġfuite":8981,"aron":8982,"ĠLune":8983,"eut":8984,"Ġviande":8985,"Ġvoyant":8986,"Ġbombarde":8987,"aider":8988,"Ġnationaux":8989,"ĠSouth":8990,"Ġarme":8991,"Ġvertu":8992,"ĠReich":8993,"Ġpartenaire":8994,"Ġpassent":8995,"ĠalliÃ©s":8996,"ĠindÃ©pendante":8997,"Baptiste":8998,"Ġsurmont":8999,"ÃªchÃ©":9000,"Ġrav":9001,"Ġfrappe":9002,"ĠSpe":9003,"liquer":9004,"ciences":9005,"aissant":9006,"Ġgren":9007,"Ġ1911":9008,"Ġfigures":9009,"Me":9010,"oque":9011,"Ġua":9012,"ĠCop":9013,"ĠPÃ©r":9014,"ĠHor":9015,"tone":9016,"Ġflor":9017,"Ġretirer":9018,"Ġfermeture":9019,"Ġnoc":9020,"ĠprÃ©sentes":9021,"fils":9022,"ĠMaz":9023,"Ġtransformation":9024,"ĠrencontrÃ©":9025,"Ġtellement":9026,"72":9027,"Ġplainte":9028,"chez":9029,"ĠWat":9030,"Ġparticipants":9031,"Ã©bas":9032,"Ġ1923":9033,"esses":9034,"Ġconservateur":9035,"ĠemployÃ©":9036,"Ġsavait":9037,"96":9038,"ws":9039,"ĠpassÃ©e":9040,"ĠZel":9041,"lieue":9042,"Ġpaie":9043,"ĠLorraine":9044,"92":9045,"ĠØ":9046,"ĠtouchÃ©":9047,"Ġcontent":9048,"lisation":9049,"gny":9050,"Ġ1913":9051,"actuelle":9052,"ĠVenise":9053,"ĠHy":9054,"Ġrace":9055,"Ġquarts":9056,"ĠÃ©toile":9057,"Ġrelais":9058,"Ã©crivain":9059,"Ġnotion":9060,"ancy":9061,"Ġpartisans":9062,"eri":9063,"cio":9064,"ĠTÃ©lÃ©":9065,"fiÃ©":9066,"ĠrÃ©vÃ©lÃ©":9067,"ĠinvitÃ©":9068,"Ġminimum":9069,"ĠimpÃ©riale":9070,"Ġinondations":9071,"ĠcapacitÃ©s":9072,"Ġinhum":9073,"identitÃ©":9074,"Ġennemis":9075,"Ġjazz":9076,"ĠHans":9077,"Ġrecueil":9078,"Ġmilliard":9079,"Ġenfance":9080,"Ġforts":9081,"ĠfacultÃ©":9082,"eum":9083,"Ġsubit":9084,"CA":9085,"Î±":9086,"à¸":9087,"Ġpy":9088,"Ġeth":9089,"ĠPyrÃ©nÃ©es":9090,"Ġfeuille":9091,"installer":9092,"Ġlis":9093,"ĠGard":9094,"Ġvoisine":9095,"ĠvÃ©gÃ©t":9096,"Ġprairies":9097,"Ġmalades":9098,"Ġparticipent":9099,"Ġrenforcer":9100,"agnies":9101,"Ã©sar":9102,"ĠKir":9103,"Joseph":9104,"hÃ©r":9105,"oudre":9106,"ĠDen":9107,"ĠÃ©tudier":9108,"Ġconservation":9109,"Ġinstruments":9110,"ĠmaÃ®trise":9111,"ĠdegrÃ©":9112,"Ġsel":9113,"astiques":9114,"Ġneur":9115,"Ġlongs":9116,"gration":9117,"Ġcatholiques":9118,"ĠGÃ©orgie":9119,"Ġpoule":9120,"ĠAssemblÃ©e":9121,"ĠKiev":9122,"Ġmonseigneur":9123,"Ġrepar":9124,"ĠÃ©lectronique":9125,"ĠprÃ©tend":9126,"Ġsoin":9127,"siers":9128,"existe":9129,"Ġmini":9130,"ĠprogrÃ¨s":9131,"Ġ*":9132,"ĠAussi":9133,"Ġimplant":9134,"82":9135,"RI":9136,"gÃ¨ne":9137,"uge":9138,"Ġrempla":9139,"ĠdÃ©passe":9140,"Ġsuivie":9141,"ĠestimÃ©es":9142,"ĠestimÃ©s":9143,"Ġlogement":9144,"Ġimmense":9145,"Ġmobile":9146,"ĠmÃ©ri":9147,"rante":9148,"ĠTay":9149,"Ã©cran":9150,"Ġmatches":9151,"Ġfaudra":9152,"Ġchinoise":9153,"ĠRon":9154,"oises":9155,"ĠChamb":9156,"ĠdÃ©couv":9157,"Ġrob":9158,"Ġaugmenter":9159,"Ġfixe":9160,"ĠrÃ©publicain":9161,"ĠMÃ©diterranÃ©e":9162,"espÃ©":9163,"Ġmaritime":9164,"ĠdÃ©crite":9165,"Ġconnues":9166,"Ġpodium":9167,"ĠBlanc":9168,"actuel":9169,"Ġressembl":9170,"Association":9171,"ĠStÃ©ph":9172,"76":9173,"ĠVar":9174,"ombe":9175,"Ġquator":9176,"Ġretrouvent":9177,"Ġguitare":9178,"ĠsalariÃ©s":9179,"mait":9180,"anton":9181,"aign":9182,"1950":9183,"ophysique":9184,"ĠrÃ©volte":9185,"Ġdimension":9186,"ouer":9187,"Ġtort":9188,"usalem":9189,"Ġprofiter":9190,"Ġtableaux":9191,"Ġembar":9192,"Ġjardins":9193,"ĠTal":9194,"ĠexpÃ©dition":9195,"Ġdrapeau":9196,"chevÃªque":9197,"Ġpoissons":9198,"itan":9199,"Ġmira":9200,"Ġvag":9201,"ĠKur":9202,"othique":9203,"ĠCassini":9204,"Ġsph":9205,"quÃªtes":9206,"ĠdiffÃ©rent":9207,"Ġarchives":9208,"nam":9209,"onciation":9210,"Ġbrou":9211,"ĠhÃ©b":9212,"arth":9213,"ĠRD":9214,"Ã©nie":9215,"Ġconsacre":9216,"itale":9217,"ady":9218,"Ġmoines":9219,"ĠrÃ©clam":9220,"Ġconstruits":9221,"ĠrefusÃ©":9222,"Ġhomosex":9223,"ĠSyrie":9224,"Ġnormale":9225,"esc":9226,"nÃ©ra":9227,"ĠgÃ©nÃ©raux":9228,"Ġdifficiles":9229,"Ġcass":9230,"Ġflu":9231,"ĠMme":9232,"ĠJam":9233,"Ġformations":9234,"Ġsty":9235,"ĠdÃ©cisions":9236,"Ġsmart":9237,"ĠfÃªtes":9238,"rag":9239,"Ġcoalition":9240,"Ġsports":9241,"ĠrÃ©col":9242,"Ġsignature":9243,"installation":9244,"Ġremer":9245,"Ġinsc":9246,"Ġconnaissances":9247,"ĠaÃ®nÃ©":9248,"enh":9249,"ĠlÃ©ger":9250,"Ġseules":9251,"ĠpÃ©trole":9252,"Ġadultes":9253,"?...":9254,"kins":9255,"Ġromp":9256,"ĠÃ©gyp":9257,"ĠReal":9258,"humanitÃ©":9259,"cis":9260,"hel":9261,"à¤":9262,"als":9263,"Ġadmis":9264,"ĠrÃ©fugiÃ©s":9265,"Avant":9266,"ÙĬ":9267,"osh":9268,"Ġcycliste":9269,"ĠDocteur":9270,"Ġterrible":9271,"ĠisraÃ©li":9272,"94":9273,"ĠIGN":9274,"ĠÃ©car":9275,"ĠÃ©tudiÃ©":9276,"ĠJusqu":9277,"matiques":9278,"ĠcÃ´tes":9279,"intervention":9280,"Ġdessins":9281,"Ġmeurtre":9282,"Ġsommeil":9283,"Ġmeu":9284,"Ġby":9285,"Ġmarques":9286,"Ġposer":9287,"ĠAnglais":9288,"Ġfinancier":9289,"ĠDonald":9290,"ĠPoutine":9291,"Mont":9292,"orges":9293,"ocation":9294,"Ġphotographie":9295,"oÃ®t":9296,"ĠPers":9297,"OM":9298,"inqui":9299,"Ġtardi":9300,"inscrit":9301,"ibilitÃ©":9302,"OrlÃ©ans":9303,"guerite":9304,"Ġpuits":9305,"ĠMid":9306,"ĠMess":9307,"ĠabandonnÃ©":9308,"ĠPacifique":9309,"Ġfroide":9310,"ĠQuatre":9311,"Ġimmob":9312,"ĠchrÃ©tien":9313,"Irlande":9314,"jus":9315,"Ġur":9316,"ĠÃ©glises":9317,"Ġsecteurs":9318,"appui":9319,"issements":9320,"Ġunies":9321,"Ġrentrer":9322,"Ġdiagnos":9323,"Ġtromp":9324,"Ġcompagnies":9325,"ĠFranz":9326,"ennie":9327,"Ġlarmes":9328,"Ġrobe":9329,"Ġaugmente":9330,"ĠchrÃ©tiens":9331,"Ã©bastien":9332,"71":9333,"ulier":9334,"Ġdue":9335,"ĠBell":9336,"Ġmarins":9337,"tÃ©rieurs":9338,"ĠpÃ©ninsule":9339,"Ġquotidienne":9340,"Loire":9341,"Ġom":9342,"ĠVis":9343,"Ġoutils":9344,"ĠsÃ©ance":9345,"ĠexpÃ©riences":9346,"Ġaccueillir":9347,"ĠAmerican":9348,"ĠmystÃ©ri":9349,"ĠRub":9350,"Ġcollections":9351,"entissage":9352,"Ġimportance":9353,"mage":9354,"tiles":9355,"oiselle":9356,"Ġrestaurant":9357,"Ã¸":9358,"ona":9359,"Ġcrain":9360,"tiss":9361,"thi":9362,"Ġapparaissent":9363,"ataire":9364,"dicap":9365,"Ġrois":9366,"unt":9367,"ĠCab":9368,"Ġtrace":9369,"ĠAwards":9370,"invent":9371,"oriste":9372,"ĠÃ©lecteurs":9373,"Ġvoile":9374,"ĠVictoria":9375,"enregistrement":9376,"91":9377,"Ġdames":9378,"Ġenj":9379,"estres":9380,"liÃ¨re":9381,"ĠDum":9382,"ople":9383,"Ġtraduction":9384,"Ã©mocra":9385,"Ġmanche":9386,"ĠLy":9387,"ĠLÃł":9388,"ĠMoi":9389,"illir":9390,"affir":9391,"ĠEnsuite":9392,"Ġflux":9393,"Ġbrut":9394,"Ġbrill":9395,"ensible":9396,"Ġplong":9397,"lues":9398,"Ġgrade":9399,"ĠspÃ©cialisÃ©e":9400,"Ġvoyait":9401,"ĠÃīdouard":9402,"Ġcanons":9403,"Ġhistoriens":9404,"ĠÃ©videmment":9405,"ĠMore":9406,"ĠRhÃ´ne":9407,"Ġparticules":9408,"Ġregarder":9409,"Ġbanlieue":9410,"83":9411,"Ġski":9412,"Ġvoulez":9413,"adop":9414,"Ġintervient":9415,"ĠBourgogne":9416,"ĠMunich":9417,"ĠsymptÃ´mes":9418,"âĤ¬":9419,"ito":9420,"ross":9421,"alisÃ©es":9422,"Ġprofil":9423,"Ġ1915":9424,"ĠChampions":9425,"ĠrÃ©partis":9426,"ghan":9427,"ĠÃ©nergÃ©tique":9428,"hr":9429,"Ġoncle":9430,"Ġdemain":9431,"ĠÃĹ":9432,"Ġfeux":9433,"ĠLion":9434,"Ġpassa":9435,"ĠgÃ©ographique":9436,"Ġarrivent":9437,"ĠrÃ©servÃ©":9438,"ĠWallonie":9439,"ĠvulnÃ©ra":9440,"Az":9441,"feu":9442,"ĠRio":9443,"ignan":9444,"Ġdessous":9445,"Ġhydro":9446,"Ġbo":9447,"Ġargu":9448,"Ġrepas":9449,"ĠmÃ©canique":9450,"ĠFront":9451,"ĠTourn":9452,"ĠcarrÃ©":9453,"ĠmatiÃ¨res":9454,"ĠvidÃ©os":9455,"Ġvoici":9456,"claves":9457,"entraÃ®nement":9458,"ĠconquÃªte":9459,"Ġ130":9460,"oriz":9461,"ĠCover":9462,"Ġremarquable":9463,"ĠTrump":9464,"ĠcritÃ¨res":9465,"Ã©ma":9466,"Ġendroits":9467,"mou":9468,"ĠreconnaÃ®t":9469,"Ġouvriers":9470,"ĠfidÃ¨les":9471,"arrÃªter":9472,"ĠStreet":9473,"ator":9474,"ĠBa":9475,"onnÃ©es":9476,"Ġtoile":9477,"Ġassis":9478,"ĠconsacrÃ©e":9479,"ĠLuis":9480,"astre":9481,"ĠCi":9482,"ĠrenommÃ©e":9483,"Ġpertes":9484,"Ġpaysages":9485,"ĠplacÃ©e":9486,"ĠRenaissance":9487,"ĠCertaines":9488,"OT":9489,"ĠPatri":9490,"Ġavance":9491,"Ġsavez":9492,"Ã©cart":9493,"Ġhasard":9494,"auph":9495,"Ġpourront":9496,"Ġconvo":9497,"ĠcaractÃ©ristique":9498,"ĠdÃ©diÃ©e":9499,"Ġamplitude":9500,"Ġjuive":9501,"Ġexhaustif":9502,"ĠFu":9503,"mier":9504,"Ġcourage":9505,"ĠÃ©pau":9506,"Ġ1905":9507,"ĠdÃ©liv":9508,"Ã©vÃ©nement":9509,"79":9510,"ank":9511,"antaine":9512,"Ġvues":9513,"ansion":9514,"ierry":9515,"ĠlibÃ©ral":9516,"divers":9517,"ctoire":9518,"Ġlourde":9519,"ĠLet":9520,"ĠBoul":9521,"ĠGusta":9522,"lave":9523,"Ġindustrielle":9524,"Ġmanifestation":9525,"Ġsprint":9526,"Ġsmartph":9527,"73":9528,"ev":9529,"Ġsab":9530,"sibles":9531,"Ġsond":9532,"Ġcouche":9533,"Ġmaintien":9534,"1866":9535,"ĠsÃ©paration":9536,"ĠÃ©lectorale":9537,"Ġamoureux":9538,"Ġabond":9539,"ĠdisputÃ©":9540,"ĠToutes":9541,"81":9542,"Ġproje":9543,"Ġrub":9544,"Ġimpri":9545,"Ġpain":9546,"ĠchrÃ©tienne":9547,"ĠAntonio":9548,"Ġsuccessivement":9549,"ivement":9550,"ĠDo":9551,"ĠDem":9552,"tint":9553,"aria":9554,"Ġcandidature":9555,"enfants":9556,"Ġconsultables":9557,"ĠRoumanie":9558,"augmentation":9559,"VD":9560,"pent":9561,"ĠSix":9562,"uma":9563,"ĠCorine":9564,"Marne":9565,"ĠcÃ©lÃ¨bres":9566,"ĠtransfÃ©rÃ©":9567,"Ġcontribue":9568,"lÃ¨vement":9569,"ĠaccÃ©lÃ©":9570,"Ġlimiter":9571,"ĠHÃ©lÃ¨ne":9572,"Ã©viter":9573,"Ġvolcan":9574,"Ġsommaire":9575,"ĠRaymond":9576,"ĠjugÃ©":9577,"ĠinterprÃ¨te":9578,"Ġattendant":9579,"ĠaugmentÃ©":9580,"rophÃ©e":9581,"inge":9582,"Ġvins":9583,"Ã©dÃ©e":9584,"Ġorigines":9585,"ĠÃ¢me":9586,"ĠguÃ¨re":9587,"ĠMajestÃ©":9588,"ĠRaoul":9589,"ĠFacebook":9590,"ĠJÃ©rusalem":9591,"ĠtÃªtes":9592,"Ġamie":9593,"Ġrig":9594,"Ġrapproche":9595,"ĠArts":9596,"ĠinstallÃ©e":9597,"Ġ1906":9598,"Ġopposition":9599,"uffis":9600,"quemment":9601,"mpe":9602,"Ġadolesc":9603,"nis":9604,"Ġaigu":9605,"Ġvoud":9606,"Ġrede":9607,"Ġmilitants":9608,"Ġsubi":9609,"ĠHab":9610,"Ġjouant":9611,"ohn":9612,"Ġindustriel":9613,"onal":9614,"ĠHal":9615,"ventions":9616,"ĠuniversitÃ©s":9617,"domad":9618,"row":9619,"ĠscÃ©nariste":9620,"AmÃ©ric":9621,"ĠfunÃ©ra":9622,"ĠparlÃ©":9623,"Ġhistoires":9624,"Ġprieur":9625,"Seine":9626,"ĠrÃ©cupÃ©rer":9627,"ortait":9628,"ĠHay":9629,"ĠspÃ©cial":9630,"ĠtraversÃ©":9631,"Ġpluvi":9632,"ĠTrÃ¨s":9633,"Fin":9634,"mÃ¨re":9635,"nait":9636,"Ġtox":9637,"Ġbataillon":9638,"Ð¸Ñ":9639,"hu":9640,"pa":9641,"ĠCinq":9642,"ĠOne":9643,"Ġforter":9644,"ĠAlgÃ©rie":9645,"bol":9646,"ĠNat":9647,"1820":9648,"ĠFinalement":9649,"ĠadaptÃ©":9650,"XVIII":9651,"yme":9652,"Ġmous":9653,"Ġuni":9654,"Ġjette":9655,"Ġconvention":9656,"ĠÃīc":9657,"Ġfaisaient":9658,"Ġvaccin":9659,"74":9660,"CE":9661,"ĠCli":9662,"igneurs":9663,"tar":9664,"ĠdÃ©cer":9665,"Ġinterd":9666,"Ġmagnitude":9667,"Ġversant":9668,"ĠÃ©preuve":9669,"ĠÃ©norme":9670,"Op":9671,"outes":9672,"Ġplomb":9673,"ingÃ©n":9674,"ĠSavoie":9675,"Ġsoixante":9676,"Ġcirconstances":9677,"ãģ":9678,"Ġcible":9679,"ĠtÃ©les":9680,"emplacement":9681,"ĠdÃ©fi":9682,"ĠtentÃ©":9683,"cus":9684,"ĠDor":9685,"onnet":9686,"ĠKer":9687,"Ġvols":9688,"Ġ1916":9689,"Ġpartenariat":9690,"Ġcertainement":9691,"ĠFondation":9692,",.":9693,"ortation":9694,"Ġencad":9695,"ĠrÃ©cup":9696,"Ġcardi":9697,"Ġcapital":9698,"ĠdÃ©faut":9699,"ĠassociÃ©s":9700,"Ġurban":9701,"ĠgÃ©nie":9702,"Ġmasculin":9703,"merie":9704,"ĠCongo":9705,"ĠFootball":9706,"Ġnatur":9707,"oll":9708,"assassin":9709,"Ġbiophysique":9710,"Ġvolumes":9711,"Ġsatellite":9712,"itions":9713,"xion":9714,"ĠIr":9715,"Ġattent":9716,"Ġengage":9717,"Ġdangereux":9718,"Em":9719,"Ġaires":9720,"ensis":9721,"Ġtenait":9722,"oung":9723,"ĠÃ©lue":9724,"rak":9725,"Ġaver":9726,"Ġrach":9727,"aventure":9728,"ĠJohnson":9729,"awa":9730,"Ġremarquer":9731,"shire":9732,"Ġgalaxies":9733,"cinq":9734,"etta":9735,"Ġexige":9736,"Ġ53":9737,"Ġmagni":9738,"Ġrenvers":9739,"ĠgarÃ§ons":9740,"Ġextrapolation":9741,"Claude":9742,"mor":9743,"ÅĦ":9744,"Ġsti":9745,"Ġbandes":9746,"instant":9747,"ĠAlli":9748,"Ġsexuelle":9749,"Oise":9750,"uns":9751,"ĠFour":9752,"ĠdiffÃ©rente":9753,"impression":9754,"Ġprobable":9755,"IntÃ©rieur":9756,"ĠPascal":9757,"Ġterrestre":9758,"omorph":9759,"ĠKong":9760,"ĠParc":9761,"Ġinterpolation":9762,"uites":9763,"Ġpublications":9764,"Ġvapeur":9765,"ĠcinÃ©mat":9766,"Ġreliant":9767,"Ġhydrog":9768,"ĠaffectÃ©":9769,"ĠprofondÃ©ment":9770,"ĠTexas":9771,"Ġpreuves":9772,"Ġjal":9773,"Ġjury":9774,"ĠÃ©tages":9775,"ĠKo":9776,"Ġtransmission":9777,"Ġsanitaire":9778,"CLC":9779,"ĠdÃ©cident":9780,"ingham":9781,"ignent":9782,"ĠrÃ©gionales":9783,"Ġdoux":9784,"ĠassociÃ©e":9785,"olfe":9786,"Ġalimentaire":9787,"ĠdoublÃ©":9788,"Ġcenti":9789,"ĠAmb":9790,"Ġoutil":9791,"ataires":9792,"Ġcontraint":9793,"Ġbarre":9794,"ĠbÃ©nÃ©ficie":9795,"Ġconduire":9796,"ĠVIII":9797,"ĠArthur":9798,"ĠprÃ©cision":9799,"Anne":9800,"Ġcommissaire":9801,"Ġrarement":9802,"ĠPhilipp":9803,"Ġsyndicat":9804,"ĠBritanniques":9805,"Ġhandicap":9806,"Ġpousse":9807,"ĠMons":9808,"ult":9809,"Ġorigine":9810,"Ġseuil":9811,"ONU":9812,"Ġoccas":9813,"ĠOutre":9814,"fr":9815,"Ġboute":9816,"ĠIX":9817,"allen":9818,"historien":9819,"App":9820,"ĠFal":9821,"phab":9822,"ĠmÃ¢le":9823,"aÃ©roport":9824,"rue":9825,"Ġutilisation":9826,"Ġhauts":9827,"ĠprÃ©fet":9828,"ĠbactÃ©ri":9829,"Ġhameau":9830,"aints":9831,"ĠprÃ©serv":9832,"ĠHigh":9833,"ĠdÃ©cro":9834,"Ġbijou":9835,"Ġ1908":9836,"Ġperspective":9837,"ĠAS":9838,"Ġplage":9839,"Ġpanneaux":9840,"appareil":9841,"Ġtari":9842,"Ġgall":9843,"Ġremb":9844,"Ã©galitÃ©":9845,"Ġrecon":9846,"athan":9847,"Ġcharbon":9848,"ĠspÃ©cialisÃ©":9849,"Ġlibres":9850,"Ġbatterie":9851,"Ġgrosse":9852,"fa":9853,"ĠLud":9854,"veurs":9855,"ĠtirÃ©":9856,"Ġdevraient":9857,"Ġdomination":9858,"Ġdramatique":9859,"Ġaccueill":9860,"Ð¾Ð²":9861,"GM":9862,"ving":9863,"user":9864,"Ã©lite":9865,"Ġ1901":9866,"ĠManchester":9867,"ĠintÃ©grÃ©":9868,"93":9869,"Ġrass":9870,"Ġprofite":9871,"larg":9872,"AndrÃ©":9873,"OL":9874,"bor":9875,"drome":9876,"Î¿":9877,"ĠdegrÃ©s":9878,"agen":9879,"via":9880,"Ġexam":9881,"Ġapporte":9882,"Ang":9883,"Ġsignes":9884,"Ġpartager":9885,"ĠattribuÃ©":9886,"ĠWhite":9887,"Ġsimilaires":9888,"ĠNaples":9889,"Ġconnec":9890,"ĠrÃ©chauffement":9891,"ĠrÃ©ellement":9892,"uise":9893,"Ġconsol":9894,"Alpes":9895,"vait":9896,"ĠabrÃ©":9897,"ombres":9898,"ĠCorn":9899,"ĠLove":9900,"ĠpÃ©dagog":9901,"ep":9902,"eli":9903,"allÃ¨lement":9904,"Ġgrecque":9905,"Ġvarie":9906,"ĠColombie":9907,"Ġpon":9908,"ĠÃ©pr":9909,"deau":9910,"Ġcompens":9911,"Ġabat":9912,"Ã©but":9913,"Ġbureaux":9914,"ĠPrÃ©sident":9915,"Ġsable":9916,"Ġquad":9917,"ason":9918,"Ġmotifs":9919,"Ġapporter":9920,"vergne":9921,"ĠspÃ©cifiques":9922,"Ġ>":9923,"rel":9924,"ĠÃ©par":9925,"Ġsurn":9926,"Ġoub":9927,"ĠdÃ©cennie":9928,"Ġrestait":9929,"ĠmariÃ©":9930,"Ġreconstruction":9931,"Ġachev":9932,"ĠdÃ©couvertes":9933,"Ġ56":9934,"Ġimpressionn":9935,"ĠempÃªcher":9936,"aluation":9937,"Ġcavalerie":9938,"ĠSerbie":9939,"xi":9940,"isses":9941,"Ġtravaillent":9942,"Ġmixte":9943,"Charles":9944,"hin":9945,"Ġgerman":9946,"ĠArch":9947,"enny":9948,"Ġcalc":9949,"Ġbulle":9950,"ĠLam":9951,"Ġqueue":9952,"Ġinternet":9953,"hard":9954,"Ġaient":9955,"Ġner":9956,"abs":9957,"Ġtriste":9958,"illÃ©s":9959,"Ġ1880":9960,"lame":9961,"Ġcerveau":9962,"Ġbranches":9963,"bie":9964,"ĠCup":9965,"Ġtranquille":9966,"Ġcyl":9967,"ĠÃ©mi":9968,"Ġprovient":9969,"ĠcompÃ©t":9970,"niÃ¨re":9971,"ristian":9972,"Ġsoldat":9973,"Ġtreize":9974,"ĠPrague":9975,"tale":9976,"oluer":9977,"ĠAk":9978,"Ġcoureur":9979,"Ġexistent":9980,"Ġcanadienne":9981,"ĠAuguste":9982,"housi":9983,"Ġfasc":9984,"ĠInstitu":9985,"Ġvoyages":9986,"ĠLorsqu":9987,"ĠInd":9988,"ĠÃ©tablie":9989,"Ġcrist":9990,"pellier":9991,"ĠboÃ®te":9992,"organ":9993,"raits":9994,"Ġconfl":9995,"ĠfraÃ®":9996,"Ġ1907":9997,"ĠFranÃ§oise":9998,"Ġfamiliale":9999,"Ġ_{":10000,"ĠSl":10001,"Ġpartiellement":10002,"ĠdÃ©bit":10003,"ĠAuc":10004,"ĠdÃ©partementale":10005,"Ġmunicipales":10006,"ĠcoÃ»te":10007,"Ġultra":10008,"diversitÃ©":10009,"usque":10010,"ĠCÃ©sar":10011,"ĠBud":10012,"ĠDE":10013,"ull":10014,"ĠprÃªte":10015,"Ġimmeub":10016,"ĠCharl":10017,"ĠvÃ©lo":10018,"Ġnormes":10019,"Ġrassembl":10020,"Ġhar":10021,"approche":10022,"Ġfemelle":10023,"ĠdÃ©mons":10024,"ĠgÃ©rer":10025,"ĠTam":10026,"Ġnez":10027,"ĠespÃ©":10028,"ĠpublicitÃ©":10029,"ĠConvention":10030,"ĠmaÃ®tresse":10031,"ĠGod":10032,"ĠWood":10033,"ĠIns":10034,"ĠArgentine":10035,"anna":10036,"ĠCompany":10037,"Ġdimensions":10038,"Ġexclusivement":10039,"ĠNick":10040,"Ġparticul":10041,"Ġrachet":10042,"Ġfinir":10043,"ĠsÃ©lections":10044,"Ġ1909":10045,"ĠfrÃ©quemment":10046,"Ġusine":10047,"Quand":10048,"ĠgÃ©nÃ©rales":10049,"ĠprocÃ©dÃ©":10050,"ĠhÃ´pital":10051,"ĠstratÃ©gique":10052,"GE":10053,"meur":10054,"siÃ¨re":10055,"Ã¢ts":10056,"ĠUr":10057,"Ã©cl":10058,"right":10059,"ĠsÃ©nateur":10060,"archi":10061,"oste":10062,"ĠapportÃ©":10063,"Ġanimal":10064,"Ġpatient":10065,"Ġsyndicats":10066,"ĠDominique":10067,"ĠApple":10068,")}":10069,"ME":10070,"ilÃ©e":10071,"ĠEuro":10072,"Ġexpositions":10073,"Ġinterro":10074,"dae":10075,"habit":10076,"Ġdivisions":10077,"ĠcontribuÃ©":10078,"ashi":10079,"ĠdÃ©bats":10080,"Ġstar":10081,"ĠdÃ©ploy":10082,"Ġphilosoph":10083,"Ġmineurs":10084,"ĠrÃ©fÃ©rend":10085,"oivent":10086,"former":10087,"Ġcomprom":10088,"ĠfermÃ©e":10089,"Ġfins":10090,"cides":10091,"ĠBad":10092,"ĠRose":10093,"endroit":10094,"ĠprÃ©dÃ©":10095,"plus":10096,"Ġmanip":10097,"Ġproducteurs":10098,"ĠdÃ©pÃ´t":10099,"Ġrestera":10100,"inclin":10101,"ĠdÃ©finit":10102,"ĠÃ©conomie":10103,"ĠfinanciÃ¨res":10104,"Ġadaptation":10105,"actualitÃ©":10106,"ĠFlorence":10107,"king":10108,"mun":10109,"eral":10110,"ĠNiger":10111,"Ġsuffit":10112,"ĠrÃ©unit":10113,"ĠdÃ©mocratie":10114,"Ġappareil":10115,"ĠBanque":10116,"Pas":10117,"tite":10118,"mane":10119,"ower":10120,"Ġparticuliers":10121,"Ġurbain":10122,"ĠSociety":10123,"Ġcamar":10124,"Ġfuture":10125,"Ã©quipage":10126,"ĠMou":10127,"ĠEN":10128,"Ġantique":10129,"Ġcauses":10130,"ĠprÃ©cisÃ©":10131,"ĠGalles":10132,"Ġprisonnier":10133,"Ġateliers":10134,"Ġdynamique":10135,"jo":10136,"Ġdesign":10137,"Ġparquet":10138,"ĠhÃ©":10139,"Ġore":10140,"Ġblind":10141,"ĠtotalitÃ©":10142,"Ġruines":10143,"Ġrentre":10144,"Ġcoureurs":10145,"Ãītienne":10146,"Ġvertic":10147,"Denis":10148,"ĠmarÃ©chal":10149,"iden":10150,"Ġrecens":10151,"Ġclip":10152,"Antoine":10153,"Ġpositif":10154,"Ġrassemble":10155,"ĠdÃ©tour":10156,"gor":10157,"lia":10158,"Ġplaque":10159,"ĠEric":10160,"issiles":10161,"Ġphare":10162,"Ġphysiques":10163,"Ġsacri":10164,"dinand":10165,"Ġmusulmans":10166,"OR":10167,"ties":10168,"Ġrenvoy":10169,"ĠMontpellier":10170,"Ġlogique":10171,"exemple":10172,"Ġdisques":10173,"ologiste":10174,"ĠJacob":10175,"ĠSteph":10176,"uz":10177,"ouri":10178,"istent":10179,"ĠdÃ©col":10180,"Ġaffich":10181,"Ġ1860":10182,"Ġjuifs":10183,"ĠFried":10184,"ĠBah":10185,"Ġhal":10186,"Ġfondateurs":10187,"ganisation":10188,"Ġlargeur":10189,"Ġstudios":10190,"ĠmarchÃ©s":10191,"ĠamÃ©liorer":10192,"MP":10193,"Ġciter":10194,"ĠAst":10195,"ĠdÃ©faites":10196,"Ġportait":10197,"Ġcrimes":10198,"Ġcompagnon":10199,"Ġ2050":10200,"endo":10201,"lÃ©si":10202,"Ġpaysans":10203,"Ġarbre":10204,"ims":10205,"ductions":10206,"Ġappuy":10207,"Ġcolonnes":10208,"Ġindisp":10209,"ĠacceptÃ©":10210,".).":10211,"ache":10212,"ĠSantÃ©":10213,"ĠMade":10214,"ĠrÃ©Ã©lu":10215,"ĠBes":10216,"Ġavanc":10217,"Ġblanches":10218,"Don":10219,"ticul":10220,"ĠbÃ©b":10221,"ĠChi":10222,"Ġfiliale":10223,"ĠTele":10224,"Ġcommerciale":10225,"Ġcousin":10226,"ĠLÃ©gion":10227,"ough":10228,"tige":10229,"ief":10230,"Ġrelative":10231,"ĠprivÃ©s":10232,"Atlantique":10233,"ĠenchaÃ®":10234,"ĠhÃ©tÃ©rog":10235,"ĠÃ©chec":10236,"ĠLub":10237,"ĠLamb":10238,"ulÃ©e":10239,"ĠKen":10240,"Ġrencontrent":10241,"Ġsouvenirs":10242,"tus":10243,"umes":10244,"aph":10245,"Ġadresse":10246,"Ġincendie":10247,"loge":10248,"Ġdiriger":10249,"Ġmessages":10250,"Ġbourse":10251,"ĠTimes":10252,"leine":10253,"Ġnett":10254,"asp":10255,"Lorsque":10256,"Ġvendus":10257,"Ġgalaxie":10258,"tz":10259,"Ġdents":10260,"inverse":10261,"amille":10262,"interprÃ©":10263,"ĠManuel":10264,"Ġsanctions":10265,"Ġnage":10266,"ĠMik":10267,"ĠrÃ©duite":10268,"tuelle":10269,"Ġverte":10270,"ĠrÃ©flÃ©ch":10271,"uan":10272,"ĠvÃª":10273,"serve":10274,"Ġgenres":10275,"ymn":10276,"ĠScott":10277,"Ġprovenance":10278,"Ġpistes":10279,"ĠrÃ©alisÃ©es":10280,"ĠdiversitÃ©":10281,"ĠÃ©clai":10282,"Ġbateaux":10283,"Asie":10284,"ĠtchÃ¨que":10285,"ĠIrlande":10286,"Ġnoble":10287,"Ġmontrant":10288,"Ã©ritage":10289,"Ġbelges":10290,"Ã¶n":10291,"ĠcollÃ¨gues":10292,"Ġvestiges":10293,"zabeth":10294,"ĠLas":10295,"ĠMot":10296,"ĠintÃ©rieur":10297,"Ġtram":10298,"ĠEnter":10299,"marin":10300,"Ġboudd":10301,"habitude":10302,"ĠforcÃ©ment":10303,"mus":10304,"ĠAvi":10305,"ĠIm":10306,"ĠMondi":10307,"Ġsculpture":10308,"ĠinaugurÃ©":10309,"Her":10310,"Ġlatine":10311,"Ġobs":10312,"ĠzÃ©ro":10313,"meaux":10314,"atar":10315,"illement":10316,"Ġcler":10317,"crire":10318,"ĠVersailles":10319,"ĠmÃ©diterran":10320,"Ġdieu":10321,"anique":10322,"orant":10323,"Ġtribu":10324,"Ġrestes":10325,"Ġdonnait":10326,"ĠgÃ©ant":10327,"Ġretire":10328,"Ġcartographiques":10329,"Ġjambes":10330,"entures":10331,"Ġfan":10332,"ĠLouv":10333,"ĠAnth":10334,"ĠprÃ©sentation":10335,"Ġforteresse":10336,"IP":10337,"ĠSNC":10338,"Ġchancel":10339,"Ġtoucher":10340,"Ġimpact":10341,"ĠDal":10342,"isembl":10343,"umÃ©e":10344,"orizon":10345,"Ġflamb":10346,"Ġtentatives":10347,"ĠAur":10348,"ĠAutriche":10349,"abi":10350,"institu":10351,"Ġdissi":10352,"ĠÃ©coss":10353,"ĠfidÃ¨le":10354,"Ġhospit":10355,"Mer":10356,"Val":10357,"ĠpÃ´le":10358,"ource":10359,"sive":10360,"ĠminÃ©ra":10361,"Ġsauve":10362,"ĠpossÃ¨dent":10363,"ĠService":10364,"Ġmusicien":10365,"ositions":10366,"ĠcommenÃ§a":10367,"OC":10368,"Sous":10369,"Ãīcosse":10370,"Ġconnait":10371,"ĠIndi":10372,"Ã©roÃ¯":10373,"Ġfinanciers":10374,"Ġu":10375,"ĠrÃ©ac":10376,"ĠopÃ©":10377,"luant":10378,"Ġfonctionn":10379,"Ġtensions":10380,"ĠIsland":10381,"Ġballe":10382,"Ã¶r":10383,"ĠdÃ©marche":10384,"ĠrÃ©flexion":10385,"}\\":10386,"ical":10387,"Ġtrent":10388,"Ġpharm":10389,"ĠpÃ©riph":10390,"Ġblessures":10391,"ĠrÃ©serves":10392,"ĠPed":10393,"onnage":10394,"ĠdiffÃ©rences":10395,"effic":10396,"Ġenceinte":10397,"vÃ©g":10398,"arrondissement":10399,"Ġmaroc":10400,"ĠRep":10401,"Germain":10402,"alcool":10403,"ĠgrÃ©":10404,"Ġaccro":10405,"essentiel":10406,"Ġukrainienne":10407,"ĠÃ©tablir":10408,"ĠvÃ©gÃ©tation":10409,"cor":10410,"noc":10411,"ĠGame":10412,"Ġarc":10413,"expÃ©dition":10414,"crimin":10415,"ĠÃ©tablit":10416,"ĠHarry":10417,"Ġarchitectur":10418,"Ġbouddh":10419,"IR":10420,"ĠlÃ¨vres":10421,"Ġballon":10422,"ĠAv":10423,"ĠextÃ©rieur":10424,"Ġcompatri":10425,"ureau":10426,"ĠmÃ©dicaments":10427,"Ġennemi":10428,"Ġquatorze":10429,"face":10430,"Ġlune":10431,"ĠBus":10432,"Ġ110":10433,"Ġchampionne":10434,"Phili":10435,"Ġatelier":10436,"Ġnoyau":10437,"Di":10438,"ĠPop":10439,"ĠexposÃ©":10440,"Ã©quilibre":10441,"Ġendomm":10442,"ĠsuÃ©dois":10443,"MC":10444,"veiller":10445,"mph":10446,"teries":10447,"orbite":10448,"mestre":10449,"unn":10450,"ĠhÃ©s":10451,"ĠpoÃ¨me":10452,"Christ":10453,"Ġdrame":10454,"Ġdurable":10455,"ĠmÃ©dical":10456,"Ġsanctuaire":10457,"ĠData":10458,"ĠJane":10459,"ĠtracÃ©":10460,"ĠchaÃ®nes":10461,"Ġexerce":10462,"ĠrÃ¨glement":10463,"Ġfolk":10464,"ĠGaulle":10465,"abelle":10466,"ĠGarde":10467,"ocÃ©an":10468,"Ġdoctr":10469,"Ġcontinuent":10470,"Ġplaf":10471,"uxell":10472,"ĠJud":10473,"ĠLeb":10474,"ĠVit":10475,"Åĵud":10476,"Ġdevra":10477,"ĠBrown":10478,"Ġanth":10479,"ĠfrÃ©quence":10480,"uls":10481,"Ġvraie":10482,"oupe":10483,"Ġmons":10484,"Ãªques":10485,"accus":10486,"Ġidentique":10487,"Ġhuman":10488,"Ġ1903":10489,"Ġpoursuivi":10490,"ilien":10491,"Ãªne":10492,"instru":10493,"Ġcompil":10494,"ĠFrances":10495,"ĠpoÃ¨mes":10496,"ĠcomposÃ©s":10497,"ĠestimÃ©e":10498,"Ġmagasin":10499,"gs":10500,"sept":10501,"ĠMis":10502,"Ġpoursuite":10503,"ĠsÃ©isme":10504,"Ġ1871":10505,"Ġparisienne":10506,"ĠCode":10507,"iga":10508,"ĠprÃªtres":10509,"Ġarchi":10510,"hÃ©sion":10511,"instar":10512,"ĠCulture":10513,"ĠDol":10514,"ĠdÃ©veloppÃ©e":10515,"Ġappartenait":10516,"Ġpromet":10517,"affront":10518,"board":10519,"ĠdivisÃ©":10520,"ĠCeux":10521,"Ġchat":10522,"Ġhonneur":10523,"Ġ85":10524,"Ġcamps":10525,"Ġ1902":10526,"ĠÃ¢gÃ©e":10527,"Ġallemandes":10528,"ĠdÃ©mocrate":10529,"TS":10530,"ronn":10531,"aile":10532,"Ġseigneurs":10533,"Ġhu":10534,"alestin":10535,"Ġtension":10536,"Ġtrouva":10537,"Ġ1890":10538,"ĠConserv":10539,"ĠingÃ©nieur":10540,"ĠbiodiversitÃ©":10541,"comp":10542,"vants":10543,"Ð´":10544,"ĠqualitÃ©s":10545,"roir":10546,"Ġinse":10547,"Ġcolline":10548,"ĠrÃ©volutionnaire":10549,"urrent":10550,"aluer":10551,"Ġtrah":10552,"Ġmarquer":10553,"Ġ68":10554,"aurÃ©":10555,"Ġconstructeur":10556,"ĠJustice":10557,"ĠfrÃ©quente":10558,"ĠRhin":10559,"Ed":10560,"onction":10561,"ĠFac":10562,"Ġavenue":10563,"Enfin":10564,"ĠMarguerite":10565,"intention":10566,"ĠdÃ©barque":10567,"Ã©lix":10568,"ĠcoÃ»ts":10569,"ĠrÃ©fÃ©rendum":10570,"TP":10571,"Ùħ":10572,"lect":10573,"itiÃ©":10574,"ĠprÃ©pare":10575,"rar":10576,"Ġfich":10577,"Ġquas":10578,"ĠMach":10579,"viÃ¨me":10580,"tenance":10581,"Ġconnais":10582,"Man":10583,"Ġaqu":10584,"ĠSau":10585,"ĠDre":10586,"ĠIt":10587,"Ġpeupl":10588,"ĠformÃ©e":10589,"pha":10590,"ĠÃ©changes":10591,"Ġutile":10592,"ĠAub":10593,"ĠrÃ©elle":10594,"ĠgÃ©nÃ©rations":10595,"ĠreÃ§ut":10596,"Ġsouffle":10597,"ĠsacrÃ©":10598,"ĠdÃ©gÃ¢ts":10599,"observation":10600,"dal":10601,"ands":10602,"aceae":10603,"quide":10604,"ĠpopularitÃ©":10605,"Ġinformation":10606,"Ġnettement":10607,"Ġfinances":10608,"rison":10609,"lettes":10610,"Ġcomparaison":10611,"ĠdotÃ©":10612,"bar":10613,"Ġfoyer":10614,"tera":10615,"Ġdisputer":10616,"Ġparisien":10617,"trer":10618,"ĠHow":10619,"ctrice":10620,"Ġ58":10621,"Ġabrit":10622,"Ġtransmis":10623,"ignon":10624,"ĠlÃ©gend":10625,"Ġempris":10626,"ĠprÃ©cÃ©dents":10627,"Ġremarque":10628,"ĠmÃ©nages":10629,"ĠCameroun":10630,"hÃ©s":10631,"harm":10632,"áĥ":10633,"ĠaÃ©roport":10634,"Ġglac":10635,"ĠMau":10636,"ĠStock":10637,"Ġveuve":10638,"intÃ©resse":10639,"Ġmonnaie":10640,"jac":10641,"Ġel":10642,"ĠrÃ©novation":10643,"ĠLeon":10644,"listes":10645,"empire":10646,"Ġinfir":10647,"alimentation":10648,"Ġpromouvoir":10649,"ĠtÃ©moigne":10650,"meurs":10651,"ĠSul":10652,"cienne":10653,"ĠFord":10654,"Ġgarn":10655,"Ġproclam":10656,"Ġ1904":10657,"ĠCenter":10658,"oupage":10659,"Ġclocher":10660,"Ġmultipli":10661,"ĠFr":10662,"ĠThierry":10663,"Ġterminer":10664,"Ġchasseurs":10665,"Ġmajoritairement":10666,"bel":10667,"cevoir":10668,"ĠBow":10669,"Ġroul":10670,"ĠGand":10671,"ĠGall":10672,"ĠVin":10673,"istÃ¨re":10674,"avons":10675,"ĠtempÃªte":10676,"ĠSalon":10677,"Homme":10678,"Ġvilla":10679,"Ġsigner":10680,"Ġfau":10681,"chesse":10682,"Art":10683,"Ġspectacles":10684,"Ġterritoriale":10685,"jamin":10686,"Ġpoit":10687,"ĠCond":10688,"agas":10689,"Ġalent":10690,"ĠWill":10691,"ĠdÃ©penses":10692,"ĠrÃ©compense":10693,"GP":10694,"four":10695,"ĠChelon":10696,"ĠChez":10697,"Ġproductions":10698,"Ġouvrir":10699,"ĠPrince":10700,"rÃ¨tement":10701,"zu":10702,"Ã¦":10703,"Ġens":10704,"Ġaudi":10705,"Ġmissiles":10706,"sif":10707,"tenues":10708,"ĠKarl":10709,"ĠdestinÃ©s":10710,"Ġregroupant":10711,"dar":10712,"rol":10713,"ĠTan":10714,"Ġracc":10715,"ĠChili":10716,"Ġfigurent":10717,"lywood":10718,"ĠdÃ©nom":10719,"ĠredÃ©c":10720,"URSS":10721,"ĠChelonus":10722,"Ñĥ":10723,"Ġcub":10724,"Ġaudio":10725,"ĠarrÃªt":10726,"Ġamateur":10727,"Ġexperts":10728,"ĠAutre":10729,"Ġformant":10730,"ĠnorvÃ©g":10731,"unique":10732,"ĠGor":10733,"ĠMarg":10734,"Ġpublier":10735,"rivant":10736,"anny":10737,"ĠÃ©quipÃ©":10738,"charge":10739,"Ã©levait":10740,"ĠtrÃ©sor":10741,"mad":10742,"inger":10743,"ingue":10744,"ĠentrÃ©":10745,"onomique":10746,"ultime":10747,"ensif":10748,"ĠÃ©trangÃ¨re":10749,"Ġcontenus":10750,"Ġpolicier":10751,"Ġcordes":10752,"ĠhiÃ©r":10753,"comme":10754,"mÃ¨tres":10755,"ĠSerg":10756,"ĠintÃ©rieure":10757,"Ġmotif":10758,"partement":10759,"Ġmonop":10760,"Ġpersonnelle":10761,"ĠfrappÃ©":10762,"ĠFontaine":10763,"Ġvint":10764,"Ġecc":10765,"Ġtraits":10766,"entir":10767,"ĠinvitÃ©s":10768,"Ġpollution":10769,"Ġchambres":10770,"FI":10771,"FM":10772,"tia":10773,"iditÃ©":10774,"effond":10775,"etteur":10776,"ĠCeci":10777,"Ġentame":10778,"Ġ140":10779,"Ġadversaires":10780,"cho":10781,"idÃ©mie":10782,"Ġgrotte":10783,"Er":10784,"TC":10785,"Ġaf":10786,"asme":10787,"Ġrect":10788,"ĠFred":10789,"immi":10790,"Ġphases":10791,"ĠÃ©poux":10792,"Ġcapture":10793,"Ġlimit":10794,"ĠprivÃ©es":10795,"Ġaccompagne":10796,"Ġconstate":10797,"Ġfossiles":10798,"Ġcentrales":10799,"Ġcontrovers":10800,"Occident":10801,"ĠduchÃ©":10802,"ĠrÃ©ception":10803,"Ġmotiv":10804,"ĠprÃ©cÃ©dentes":10805,"Ġscolaires":10806,"ĠJulien":10807,"Ġemmen":10808,"domadaire":10809,"Quel":10810,"mas":10811,"Ġlever":10812,"ĠMai":10813,"autor":10814,"Ġcertif":10815,"ovanni":10816,"ĠnÃ©cessite":10817,"ĠmÃ©dailles":10818,"Ġmasque":10819,"Ġsusceptibles":10820,"MalgrÃ©":10821,"Ġpath":10822,"Ġquai":10823,"ĠHaw":10824,"Ġtherm":10825,"igny":10826,"Ġallons":10827,"ĠconsidÃ©rÃ©s":10828,"tise":10829,"armerie":10830,"ĠÃ©ti":10831,"ĠHi":10832,"Ã¯n":10833,"Ġpassait":10834,"fice":10835,"ynam":10836,"Ġengagement":10837,"ĠSteve":10838,"ĠÃ©voluant":10839,"Ġmagasins":10840,"ĠdispersÃ©":10841,"Ġportugais":10842,"Con":10843,"omie":10844,"ĠCast":10845,"ĠChurch":10846,"Ġdispu":10847,"ĠlimitÃ©":10848,"Ġauxquels":10849,"Ġdemandes":10850,"ĠdÃ©tail":10851,"Ġvolontaires":10852,"Alexandre":10853,"garde":10854,"lim":10855,"ender":10856,"Ġprud":10857,"ĠrÃ©gi":10858,"ĠAns":10859,"ĠlÃ©gumes":10860,"ĠthÃ©Ã¢":10861,"ĠÃ©tudiant":10862,"ĠAlexander":10863,"ĠFouquet":10864,"Ġpavillon":10865,"Ġerreur":10866,"ĠÃİle":10867,"mberg":10868,"Ġrecette":10869,"Ġliquide":10870,"Ġfouilles":10871,"Ġconvaincre":10872,"Ġstockage":10873,"ĠTunisie":10874,"ĠtÃ©lescope":10875,"Ġconflits":10876,"Aut":10877,"wig":10878,"ĠLan":10879,"ĠrÃ©formes":10880,"ĠLeg":10881,"Ġtron":10882,"Ġalb":10883,"Ġviole":10884,"Ġattendu":10885,"Ġprofesseurs":10886,"Ġchercheur":10887,"ĠmolÃ©cu":10888,"Ġconversation":10889,"ĠsystÃ©matique":10890,"ĠMul":10891,"ĠDC":10892,"Ġaval":10893,"avocat":10894,"extrÃ©mitÃ©":10895,"Ġaffluent":10896,"ĠCannes":10897,"Ġextraordinaire":10898,"Ġphilosophe":10899,"Ġsympath":10900,"ĠVars":10901,"checs":10902,"Ġtranspar":10903,"ĠSpace":10904,"ĠoccupÃ©e":10905,"ĠindÃ©pendants":10906,"ĠViv":10907,"ĠÃīgypte":10908,"ĠÃ©levÃ©s":10909,"Ġran":10910,"Ġgothique":10911,"Ã©crit":10912,"Ġinsuffis":10913,"Ġlarges":10914,"ports":10915,"Ġcombattre":10916,"exÃ©cution":10917,"base":10918,"Ġdescription":10919,"ĠCle":10920,"ĠdÃ©truire":10921,"ĠNancy":10922,"Ġcomprennent":10923,"Ġcomprenait":10924,"ĠPrusse":10925,"Ġponts":10926,"Ġtransformer":10927,"Ġglaci":10928,"zÃ©":10929,"ĠBach":10930,"Ġpromis":10931,"Ġpeintres":10932,"Ġdiscussions":10933,"ĠBoston":10934,"Ġenvisage":10935,"Ġfameux":10936,"endrait":10937,"ĠdÃ©pass":10938,"Ġchars":10939,"ĠspÃ©cialistes":10940,"ĠClermont":10941,"ĠentraÃ®nÃ©":10942,"Ġinformatique":10943,"IV":10944,"ĠcurÃ©":10945,"ĠÃ©duc":10946,"Ġpros":10947,"ĠTrib":10948,"Ġ66":10949,"Ġoffrir":10950,"Ġexcell":10951,"Ġ1898":10952,"ĠMerc":10953,"Ġcolonies":10954,"Ġcontemporain":10955,"dt":10956,"entrepr":10957,"ryp":10958,"Ġfacteur":10959,"Ġdistinction":10960,"ĠhÃ©tÃ©rogÃ¨nes":10961,"RhÃ´ne":10962,"Ġcoi":10963,"Ġbox":10964,"ĠdÃ©lÃ©gation":10965,"instruction":10966,"Ġphrase":10967,"Ġcommerciales":10968,"Ġirlandais":10969,"ĠÃ©ditÃ©":10970,"Ġfir":10971,"chage":10972,"Ġceci":10973,"Ã©lor":10974,"ĠdÃ©grad":10975,"ĠBran":10976,"Ġmarbre":10977,"Ġamateurs":10978,"ĠattachÃ©":10979,"Ġsculpteur":10980,"quitaine":10981,"loy":10982,"ĠnÅĵud":10983,"acquisition":10984,"ennemi":10985,"Ġuniversitaires":10986,"Ġplacer":10987,"Ġdispositions":10988,"Ġseize":10989,"ĠallÃ©":10990,"duites":10991,"Ġ1830":10992,"Ġcroit":10993,"ĠBenoÃ®t":10994,"ĠWalter":10995,"mal":10996,"sous":10997,"ĠcitÃ©s":10998,"Ġturb":10999,"otter":11000,"try":11001,"venus":11002,"Ġadmi":11003,"ussÃ©e":11004,"ĠguÃ©r":11005,"ĠPÃ©kin":11006,"ĠRacing":11007,"ĠmÃ©ridi":11008,"Ġpist":11009,"chette":11010,"agÃ©es":11011,"Ġharc":11012,"Ã©nor":11013,"ĠdÃ©butÃ©":11014,"Ġaspects":11015,"explique":11016,"Ġrespecter":11017,"ĠsÃ©rieux":11018,"orig":11019,"ĠSciences":11020,"amer":11021,"ĠrÃ©pli":11022,"Ġpermettra":11023,"Ġlittor":11024,"Can":11025,"Ġunion":11026,"ĠÃ©ducation":11027,"chel":11028,"Ġgout":11029,"ĠMoul":11030,"amitiÃ©":11031,"ĠVend":11032,"istocra":11033,"ĠlittÃ©":11034,"Ġnatale":11035,"ĠTaylor":11036,"hon":11037,"vol":11038,"oura":11039,"ĠComb":11040,"lÃ©matique":11041,"Ã©tablir":11042,"Ġcouches":11043,"ĠArmÃ©e":11044,"Ġconstituer":11045,"ĠNamur":11046,"Ġbille":11047,"ĠMit":11048,"Ġ62":11049,"ilson":11050,"Ġfruit":11051,"bonne":11052,"ilde":11053,"osait":11054,"ĠGaz":11055,"ĠJul":11056,"Ġneveu":11057,"lÃ¨ge":11058,"Ġcantons":11059,"ĠMuseum":11060,"Ġseigneurie":11061,"Ġguide":11062,"Ġsusceptible":11063,"ando":11064,"Ġexil":11065,"Ġcharges":11066,"onymes":11067,"Ġdistinguer":11068,"clav":11069,"ĠSyd":11070,"Ġ59":11071,"Ġrepouss":11072,"Ġaspect":11073,"ĠrattachÃ©e":11074,"bri":11075,"Ġexpose":11076,"tish":11077,"Ã©quival":11078,"Ġrangs":11079,"Ġmodifications":11080,"ĠJackson":11081,"ĠCarlos":11082,"SC":11083,"Ä±":11084,"ĠCE":11085,"Ġharm":11086,"obil":11087,"ĠTemple":11088,"Ġannex":11089,"ĠÃ©vidence":11090,"Ġlumin":11091,"Ġuns":11092,"Ġber":11093,"ĠchÃ´":11094,"terne":11095,"adresse":11096,"ĠKim":11097,"ĠEng":11098,"ĠÃīric":11099,"Ġ72":11100,"Ġvive":11101,"Ġjoueuse":11102,"ĠrÃ©pondu":11103,"Ġcorrespondance":11104,"Ø§ÙĦ":11105,"ĠCommunautÃ©":11106,"enos":11107,"ĠAward":11108,"Ã®mes":11109,"Ġescad":11110,"atelier":11111,"avirus":11112,"Ġportraits":11113,"Ġfonctionne":11114,"Ġuniverselle":11115,"ĠentourÃ©":11116,"Ġlogiciel":11117,"ÏĤ":11118,"ĠLag":11119,"ĠCub":11120,"pron":11121,"ĠdÃ©coration":11122,"Ġvisibles":11123,"bilitÃ©s":11124,"Ġpromo":11125,"ĠSamuel":11126,"ĠnuclÃ©aires":11127,"ĠFormule":11128,"Ġouverture":11129,"Ã©ph":11130,"alon":11131,"ĠSir":11132,"ĠPD":11133,"Ġinuti":11134,"cesseur":11135,"Ġviolon":11136,"Ġeffectuer":11137,"Ġprotoc":11138,"anglais":11139,"PR":11140,"raux":11141,"raction":11142,"ĠDay":11143,"Ġheur":11144,"aintes":11145,"Ġavantage":11146,"ĠautoritÃ©":11147,"ĠapparaÃ®tre":11148,"ĠdÃ©nonce":11149,"Ġsymbolique":11150,"ĠÃ©voluÃ©":11151,"ĠAmÃ©ricains":11152,"Ġlentement":11153,"ĠrÃ©actions":11154,"Ġforfait":11155,"ĠmÃ©trage":11156,"Ã©cou":11157,"Ġrestant":11158,"ĠBey":11159,"Ġissues":11160,"Ġmodeste":11161,"Ġpoitrine":11162,"ĠrelÃ©gu":11163,"Ġcarre":11164,"cules":11165,"Ġrenforce":11166,"IRE":11167,"kina":11168,"Ġå":11169,"Ġved":11170,"ĠGilles":11171,"Ġfores":11172,"Ġpersonnels":11173,"ĠdÃ©finir":11174,"Ã©change":11175,"Ġcollabore":11176,"Ġfaciliter":11177,"Ġorthod":11178,"Ġpair":11179,"lever":11180,"ĠparaÃ®tre":11181,"ĠLind":11182,"ĠdÃ©tention":11183,"ĠBun":11184,"ĠexÃ©cutif":11185,"rem":11186,"ĠSpr":11187,"cient":11188,"angers":11189,"plan":11190,"Ġ1899":11191,"Ġquasiment":11192,"atti":11193,"ĠKam":11194,"visions":11195,"Ġcourts":11196,"Ġvoter":11197,"ĠrÃ©cente":11198,"Ġpuissante":11199,"ĠremplacÃ©e":11200,"ĠtÃ©moin":11201,"Ġiran":11202,"Ġcellule":11203,"ĠaperÃ§":11204,"amÃ©liorer":11205,"aso":11206,"aspect":11207,"ĠCru":11208,"amed":11209,"Ġprofession":11210,"Ġoccidental":11211,"Ã©levage":11212,"ĠtÃ¢che":11213,"ĠdiplÃ´mÃ©":11214,"Ġtrentaine":11215,"rices":11216,"ceau":11217,"ĠGa":11218,"ĠÃītienne":11219,"Ġremportant":11220,"ĠExp":11221,"ĠEuropÃ©":11222,"Ġexactement":11223,"ĠFloride":11224,"SP":11225,"Tube":11226,"USS":11227,"ĠlaÃ¯":11228,"ĠÃ©di":11229,"ĠBasse":11230,"Ġtraditions":11231,"Ġobtenus":11232,"Ġvoyez":11233,"Ġpseudonyme":11234,"ĠVarsovie":11235,"Ġden":11236,"oper":11237,"ĠRouen":11238,"ingÃ©nieur":11239,"por":11240,"illus":11241,"Ġregarde":11242,"ĠRosa":11243,"Ġsimultan":11244,"Ġindispens":11245,"Fer":11246,"enberg":11247,"Ġfres":11248,"ĠVau":11249,"ĠCher":11250,"ĠsupÃ©rieures":11251,"ĠconsidÃ©rablement":11252,"Ġenseignants":11253,"Philippe":11254,"onien":11255,"ĠSin":11256,"Ġsituations":11257,"ĠReims":11258,"itinÃ©":11259,"ĠnumÃ©ros":11260,"ĠLiban":11261,"ĠdÃ©sert":11262,"Ġsaut":11263,"Ġott":11264,"aper":11265,"Ġservant":11266,"Ã®tre":11267,"Ġabsent":11268,"ĠCoun":11269,"otamment":11270,"ĠTechn":11271,"ĠCastel":11272,"ĠconsidÃ©rable":11273,"his":11274,"omique":11275,"Ġvall":11276,"Ġ1000":11277,"ĠdÃ©mis":11278,"ĠSophie":11279,"Ġchor":11280,"ĠÃ©voluer":11281,"Ġredou":11282,"ĠOuest":11283,"Ġcylind":11284,"Aug":11285,"ĠSyn":11286,"Ġconjoin":11287,"Ġchiens":11288,"ĠFed":11289,"ĠKal":11290,"Ġcolonne":11291,"Ġaccent":11292,"ĠrestÃ©e":11293,"Ġvicom":11294,"Ġdoigts":11295,"mit":11296,"Ġsecrets":11297,"ĠjournÃ©es":11298,"Ġcorruption":11299,"Åĵuvres":11300,"ĠlibÃ©rÃ©":11301,"incendie":11302,"Ġclassification":11303,"Ġ1848":11304,"Ġluxe":11305,"xford":11306,"ĠcÃ¢":11307,"ĠlaurÃ©":11308,"ĠVoici":11309,"ids":11310,"ĠJohnny":11311,"ĠclassÃ©s":11312,"Ġarables":11313,"ĠÃ©clat":11314,"Ġrappeler":11315,"ĠdÃ©mÃ©nage":11316,"ĠBleus":11317,"mations":11318,"annes":11319,"Ġcoc":11320,"Ġjoin":11321,"oient":11322,"Ġavoc":11323,"optÃ¨res":11324,"Ġallez":11325,"Ġmanifeste":11326,"ĠinstallÃ©s":11327,"Georges":11328,"ĠBall":11329,"ĠNu":11330,"ĠOl":11331,"ĠdÃ©cal":11332,"Ġmesurer":11333,"Ġnavigation":11334,"Ġstatues":11335,"Ġvraisembl":11336,"Ġsatellites":11337,"Ġquan":11338,"ĠÃ©b":11339,"ĠRach":11340,"Ġrayon":11341,"ĠdÃ©pit":11342,"Ġconstructions":11343,"Ġvariable":11344,"ĠpartagÃ©":11345,"ĠfixÃ©":11346,"fran":11347,"ouc":11348,"accident":11349,"ĠJord":11350,"ĠÃ©cran":11351,"Ġ900":11352,"Ġroues":11353,"ĠtÃ©moins":11354,"ĠFerdinand":11355,"Ġrural":11356,"ĠcontrÃ´ler":11357,"ĠrÃ©pÃ©ti":11358,"},":11359,"erme":11360,"ĠAcc":11361,"Ã¼n":11362,"Ġinitial":11363,"ĠFlandre":11364,"ajou":11365,"ĠPass":11366,"Ġchau":11367,"mbourg":11368,"ĠAnna":11369,"Ġbasil":11370,"Ġcombatt":11371,"Ġprogression":11372,"ĠrÃ©ussite":11373,"ĠpauvretÃ©":11374,"Ġguitariste":11375,"ĠCNRS":11376,"BS":11377,"ĠTro":11378,"Ġimmi":11379,"marins":11380,"Ġsauvage":11381,"!Â»":11382,"GT":11383,"dÃ©mocra":11384,"miers":11385,"Ġpeux":11386,"Ġpuissent":11387,"ĠAnt":11388,"ĠÃ©quipements":11389,"irac":11390,"Ġlanceur":11391,"Ġfourni":11392,"Ġislamique":11393,"pus":11394,"Ġmyst":11395,"ĠPoi":11396,"ĠFig":11397,"ĠÃ©gal":11398,"enfance":11399,"ĠGrenoble":11400,"onto":11401,"ĠSac":11402,"Ġgel":11403,"atmosphÃ¨re":11404,"diff":11405,"ĠGab":11406,"Ġamende":11407,"Ġauront":11408,"Ġarabes":11409,"ij":11410,"ĠRoss":11411,"entretien":11412,"Ġatten":11413,"Ġnaturellement":11414,"ĠSarah":11415,"ĠYouTube":11416,"sterdam":11417,"Cal":11418,"orgue":11419,"ĠCH":11420,"ĠAle":11421,"ĠpubliÃ©es":11422,"Ġperf":11423,"Ġcanic":11424,"Ġcoupable":11425,"Ġorganismes":11426,"ĠplacÃ©s":11427,"Ġtravaillant":11428,"ĠSydney":11429,"urn":11430,"ĠRennes":11431,"uies":11432,"ĠGon":11433,"Ġrecul":11434,"Ġ95":11435,"ĠsÃ©min":11436,"Ġindustriels":11437,"Ġrayons":11438,"GB":11439,"Ġdent":11440,"ĠBak":11441,"ĠTony":11442,"ĠHerm":11443,"ĠKaz":11444,"Ġgrandi":11445,"Ġ1889":11446,"Ġneutra":11447,"ĠmÃ©dicale":11448,"RA":11449,"mÃ¨tre":11450,"Ġtro":11451,"ĠPier":11452,"ĠNob":11453,"ĠVos":11454,"Ġconstante":11455,"Ġattra":11456,"outent":11457,"Ġflanc":11458,"Ġemplois":11459,"ĠdÃ©roulent":11460,"ĠaÃ©rien":11461,"ĠVenez":11462,"Ġremonter":11463,"ĠenterrÃ©":11464,"ench":11465,"ĠSC":11466,"ĠMed":11467,"ĠBard":11468,"osyst":11469,"ĠnommÃ©s":11470,"Ġ67":11471,"Ġincont":11472,"Ġexemples":11473,"ĠobservÃ©":11474,"ĠarrÃªter":11475,"ĠmentionnÃ©":11476,"Ġsupporters":11477,"lix":11478,"Ġtraiter":11479,"Ġoblige":11480,"Ġbasque":11481,"Ġmenaces":11482,"Ġeffectivement":11483,"ĠProf":11484,"Ġarchitecte":11485,"Ġinconnu":11486,"Ã©demment":11487,"etnam":11488,"ĠBureau":11489,"Ġmoine":11490,"Ġadress":11491,"ĠprÃ©cÃ©demment":11492,"ĠEdward":11493,"ĠbaptisÃ©":11494,"ĠecclÃ©si":11495,"Ãİle":11496,"Ġloy":11497,"ĠMagn":11498,"ĠPad":11499,"Ġpropositions":11500,"vio":11501,"imposer":11502,"ĠTrin":11503,"Ġaccepter":11504,"ĠBrook":11505,"Ġparoissi":11506,"ĠBertrand":11507,"Ġabsolument":11508,"ĠpluviomÃ©trie":11509,"zig":11510,"Ã©th":11511,"Ġball":11512,"oln":11513,"ĠAp":11514,"ĠthÃ©rap":11515,"Ġespoirs":11516,"Ġpatern":11517,"Ġgardes":11518,"Ġsportifs":11519,"stagram":11520,"ĠtransformÃ©":11521,"ĠÃ¨re":11522,"Als":11523,"Jus":11524,"ardes":11525,"Ġentretien":11526,"tinent":11527,"Ġcommandes":11528,"Ġsouffre":11529,"DE":11530,"har":11531,"ĠLord":11532,"ĠPin":11533,"mbles":11534,"ĠmÃ©tiers":11535,"ĠYves":11536,"ĠâĨ":11537,"Ġcomplexes":11538,"Ġpoisson":11539,"Ġportail":11540,"lys":11541,"vise":11542,"ĠPoint":11543,"Ġdisent":11544,"Ġgouvernements":11545,"intermÃ©di":11546,"Ġcontemporaine":11547,"ĠbÃ©nÃ©ficier":11548,"ĠÃ©lectoral":11549,"ĠDatabase":11550,"IB":11551,"gr":11552,"ĠsÃ©d":11553,"Ġbrass":11554,"Ġ76":11555,"ĠabonnÃ©s":11556,"Ġcorrec":11557,"Ġaccords":11558,"ĠlÃ©gislation":11559,"ĠchÃ´mage":11560,"gas":11561,"Ġrevoir":11562,"Ġretenu":11563,"ĠRest":11564,"Ġintercommun":11565,"Ġinclut":11566,"Ġhistorien":11567,"formÃ©ment":11568,"siÃ¨ge":11569,"Ġarra":11570,"Ġreporta":11571,"Ġpoche":11572,"tones":11573,"Ġincap":11574,"ĠBosnie":11575,"abandon":11576,"reuses":11577,"Ġfier":11578,"Ġsuites":11579,"ĠprÃªts":11580,"ĠHouse":11581,"ĠpÃ¢le":11582,"occuper":11583,"hypothÃ¨se":11584,"ĠSicile":11585,"mber":11586,"Ġmanches":11587,"Ġfavoriser":11588,"aoÃ»t":11589,"cast":11590,"oche":11591,"ĠprÃ©al":11592,"ĠrÃ©cits":11593,"Ġqualifications":11594,"owns":11595,"Ġlourds":11596,"Ġartificielle":11597,"ĠVirginie":11598,"xy":11599,"ĠÄ":11600,"intelligence":11601,"ĠCant":11602,"mper":11603,"avie":11604,"Ġrestri":11605,"ĠrÃ©soudre":11606,"ĠExpl":11607,"Ġabandonne":11608,"forts":11609,"onavirus":11610,"roise":11611,"ignÃ©es":11612,"Ã©gard":11613,"ĠYoung":11614,"ĠreprÃ©sentÃ©e":11615,"accal":11616,"affiche":11617,"Ġrefuge":11618,"Ġgloire":11619,"Ġmessieurs":11620,"Ġressemble":11621,"Ġfuir":11622,"taires":11623,"Ġrendant":11624,"Ġtrait":11625,"nik":11626,"ĠconfiÃ©":11627,"assemblÃ©e":11628,"Ġmorale":11629,"pitaux":11630,"Ġarr":11631,"Ġabus":11632,"Ġincorp":11633,"Ġmena":11634,"Ġcontribution":11635,"UN":11636,"ĠNAS":11637,"Ġmonarchie":11638,"ĠpolÃ©mique":11639,"issante":11640,"Ġcache":11641,"ernant":11642,"aÃ¯s":11643,"inflation":11644,"Ġproduisent":11645,"ĠNavy":11646,"Ð¹":11647,"Ã©enne":11648,"ĠvÃ©nÃ©":11649,"tumes":11650,"ĠRugby":11651,"Ġexamen":11652,"ĠforcÃ©":11653,"Ã©tape":11654,"Ġjustement":11655,"Ġqualifier":11656,"Ġ1896":11657,"Agence":11658,"Ġscandale":11659,"wer":11660,"ĠSib":11661,"ĠcongrÃ©":11662,"oct":11663,"opinion":11664,"titudes":11665,"ĠperÃ§":11666,"interdiction":11667,"oui":11668,"ĠCu":11669,"ĠobÃ©":11670,"Ġlive":11671,"aÃ¯que":11672,"quettes":11673,"ĠGroup":11674,"ĠCÃ©":11675,"ends":11676,"Ãītats":11677,"Ġsollic":11678,"ĠChristine":11679,"Ġboire":11680,"ĠSqu":11681,"ĠBR":11682,"Ġronde":11683,"ĠHit":11684,"Ġsalaire":11685,"Ġalimentaires":11686,"exercice":11687,"lay":11688,"ĠÃ©tern":11689,"rano":11690,"ĠTours":11691,"ĠtraitÃ©s":11692,"intendo":11693,"Ġphotographe":11694,"ĠAlexand":11695,"royable":11696,"Ġnorme":11697,"Ġ1789":11698,"ĠtÃ©moignages":11699,"orientation":11700,"ĠquÃ©bÃ©cois":11701,"frac":11702,"vad":11703,"informations":11704,"ĠRel":11705,"ordin":11706,"dule":11707,"obert":11708,"ovo":11709,"Ġchimiques":11710,"ĠLibÃ©ration":11711,"ĠpossÃ©dait":11712,"Ïģ":11713,"Ġbor":11714,"Ġboul":11715,"ĠMir":11716,"ĠcongÃ©":11717,"Ġov":11718,"ĠKan":11719,"Ġsuicide":11720,"Ġapprendre":11721,"ĠprovoquÃ©":11722,"ĠsÃ©pare":11723,"rÃ©hension":11724,"vu":11725,"envoy":11726,"ĠMali":11727,"ĠprÃ©server":11728,"Ġ74":11729,"accent":11730,"Ġmetal":11731,"ĠÃ©tend":11732,"aÃ¯wan":11733,"Ġbruxell":11734,"ĠSerge":11735,"Ġrichesse":11736,"ĠmodifiÃ©":11737,"lanc":11738,"Ġrevers":11739,"Ġaventure":11740,"Ã©diteur":11741,"Ãīgypte":11742,"ĠrÃ©dacteur":11743,"Ġchimie":11744,"ĠCharlotte":11745,"DF":11746,"Iv":11747,"trois":11748,"ÙĨ":11749,"ĠÃ©met":11750,"Ġroche":11751,"ift":11752,"Ġpress":11753,"encer":11754,"ycl":11755,"ĠÅĵufs":11756,"Ġapproxim":11757,"efficacitÃ©":11758,"Ġlistes":11759,"quÃ©rir":11760,"ĠtÃ©l":11761,"ĠBut":11762,"ĠFel":11763,"Ġtrajet":11764,"elly":11765,"Ġmajeures":11766,"Argentine":11767,"Ġajouter":11768,"rasser":11769,"RC":11770,"ĠDenis":11771,"ĠRN":11772,"Ġtouristique":11773,"Ġcoach":11774,"ghanistan":11775,"ĠpÃ¢te":11776,"Ġtouristes":11777,"Ġconfig":11778,"ĠSeigneur":11779,"Ġconsommateurs":11780,"ĠVoilÃł":11781,"ĠprÃªtÃ©":11782,"tible":11783,"ĠSel":11784,"ĠSaxe":11785,"ĠIran":11786,"ĠRiv":11787,"prits":11788,"ĠÃīlisabeth":11789,"ĠprÃ©cau":11790,"ĠcaractÃ¨res":11791,"ĠCollÃ¨ge":11792,"Ġmunicipale":11793,"Ġmeurtri":11794,"ĠMcC":11795,"ortations":11796,"ovaquie":11797,"ĠAramis":11798,"adaptation":11799,"Ġmoulin":11800,"wald":11801,"Ġpaire":11802,"ĠCit":11803,"ĠSky":11804,"ĠAy":11805,"ĠDuc":11806,"Ġhypoth":11807,"Ã©ville":11808,"aisseur":11809,"Ġtraditionnels":11810,"Ġprovoquer":11811,"ĠsuggÃ¨re":11812,"SE":11813,"Te":11814,"Ġstre":11815,"ĠÃ©ri":11816,"ĠSah":11817,"ĠchÃ¨re":11818,"avel":11819,"ĠÃ©vÃªques":11820,"Ġchimique":11821,"ĠRomains":11822,"adoption":11823,"Ġnoires":11824,"ĠJeff":11825,"rosse":11826,"ĠdÃ©je":11827,"ĠrÃ©sidences":11828,"ĠCamille":11829,"ĠmÃ©canisme":11830,"ĠmÃ¢les":11831,"quitÃ©":11832,"atal":11833,"ĠPie":11834,"Ġtransform":11835,"Ġsuspension":11836,"ĠToronto":11837,"ĠSports":11838,"assent":11839,"ĠBlo":11840,"ouvement":11841,"ĠInstagram":11842,"onomes":11843,"Ġordinaire":11844,"Ġanticip":11845,"ĠphÃ©nomÃ¨nes":11846,"Ã¨nent":11847,"enceinte":11848,"Ġjuges":11849,"ĠDev":11850,"ĠrapportÃ©":11851,"ĠdisparaÃ®tre":11852,"Ġcalculer":11853,"atteindre":11854,"ĠsÃ©quence":11855,"Ġtunnel":11856,"Ġcrainte":11857,"Ġalentours":11858,"ĠChirac":11859,"Ġ350":11860,"Ġexplic":11861,"ĠmenÃ©es":11862,"ĠorganisÃ©s":11863,"ovic":11864,"Ġ1893":11865,"Ġexistence":11866,"aÃ¯djan":11867,"Ġlimitroph":11868,"intermÃ©diaire":11869,"ĠTo":11870,"iert":11871,"ĠidentitÃ©":11872,"erbaÃ¯djan":11873,"ĠmÃ©tÃ©orologiques":11874,"Ġvocation":11875,"introduction":11876,"uite":11877,"olition":11878,"ĠEc":11879,"ouvant":11880,"ĠNintendo":11881,"nia":11882,"Ġofficiels":11883,"Ġ1885":11884,"Ġtentent":11885,"hÃ©tique":11886,"odique":11887,"Ġhoriz":11888,"ĠHistoire":11889,"Ġalla":11890,"ular":11891,"ĠLew":11892,"opa":11893,"Ġbaseball":11894,"ĠBenjamin":11895,"Ġchapeau":11896,"Ġargile":11897,"TE":11898,"Ġsis":11899,"urrection":11900,"Ġfine":11901,"Ġdut":11902,"ĠKos":11903,"Ġdiscrimin":11904,"stan":11905,"Ġcombus":11906,"IL":11907,"ouin":11908,"ĠrÃ©tro":11909,"ulte":11910,"inspire":11911,"aver":11912,"Ġimpression":11913,"odore":11914,"Ġauto":11915,"Ġ99":11916,"Ġfonctionnaires":11917,"Ġculturelles":11918,"Ġretraites":11919,"Ġsanction":11920,"ĠachetÃ©":11921,"Ġacheter":11922,"Ġmurmura":11923,"hos":11924,"ĠmÃ©rite":11925,"ĠtrophÃ©e":11926,"ussion":11927,"dement":11928,"atine":11929,"asses":11930,"ĠvoÃ»":11931,"glas":11932,"Ġbrusque":11933,"Ġnavig":11934,"Ġalliance":11935,"ĠremplaÃ§ant":11936,"FP":11937,"ĠaidÃ©":11938,"Ġfoul":11939,"ĠSÃ©bastien":11940,"ĠAmi":11941,"ĠRic":11942,"istants":11943,"version":11944,"uela":11945,"offensive":11946,"Ġmobilisation":11947,"ĠErnest":11948,"teaux":11949,"rik":11950,"Ġplonge":11951,"Ġrh":11952,"Ġcontest":11953,"Ġjugement":11954,"Ġcadres":11955,"Ġdescente":11956,"Ġcontemporains":11957,"Ġintense":11958,"ylvanie":11959,"reb":11960,"uner":11961,"Ġjoy":11962,"agon":11963,"ĠrÃ©cep":11964,"ĠrÃ©side":11965,"inson":11966,"pool":11967,"ĠÃīmile":11968,"raphique":11969,"Ġpira":11970,"ĠCanadi":11971,"Ġ1895":11972,"Ġsignifiant":11973,"Ġadopte":11974,"Ġanglo":11975,"Ġjunior":11976,"omorphes":11977,"Ġoublier":11978,"corÃ©":11979,"Ġic":11980,"urÃ©s":11981,"Ġhaine":11982,"ulteurs":11983,"uts":11984,"ĠLaw":11985,"icien":11986,"Ġrestre":11987,"aviation":11988,"ĠContrairement":11989,"Ġracines":11990,"Ġencoura":11991,"Ġpropagande":11992,"ĠSNCF":11993,"Ġbillets":11994,"Ġcombattants":11995,"Ġcib":11996,"onnements":11997,"Ġ63":11998,"Ġespoir":11999,"ĠthÃ©ologie":12000,"Ġ1892":12001,"ĠRusses":12002,"vail":12003,"organiser":12004,"Ġsentiments":12005,"Ġcycl":12006,"ĠexprimÃ©s":12007,"ĠsolidaritÃ©":12008,"ns":12009,"uta":12010,"olith":12011,"ĠBBC":12012,"ĠTol":12013,"Ã©lab":12014,"Ġtrouble":12015,"ĠMicros":12016,"thiop":12017,"Ainsi":12018,"Ġ@":12019,"Ġcle":12020,"roix":12021,"ĠSum":12022,"ĠNBA":12023,"Ġcomptant":12024,"Ġconstitutionnel":12025,"sionnaire":12026,"Ġ1867":12027,"Ġ1790":12028,"ĠStef":12029,"ĠBlue":12030,"ĠtÃ©moignage":12031,"ĠsurnommÃ©":12032,"box":12033,"illo":12034,"ĠOc":12035,"empÃªcher":12036,"Ġmusiques":12037,"Ġprimi":12038,"ĠlÃ©giti":12039,"Ġautrement":12040,"Ġ1792":12041,"Ġperdue":12042,"Ġadministrativement":12043,"ĠriviÃ¨res":12044,"accalaurÃ©":12045,"Ġrand":12046,"Ã©ens":12047,"ĠLife":12048,"Ġsoul":12049,"ĠentrÃ©es":12050,"ĠdÃ©partementales":12051,"ĠprÃ©fÃ¨re":12052,"Ġinitiale":12053,"Ġcitoyen":12054,"ĠMetz":12055,"Ġhongrois":12056,"MD":12057,"oa":12058,"eneur":12059,"ĠDonc":12060,"ĠTs":12061,"Ã´tel":12062,"Ġfemelles":12063,"Ġgouvern":12064,"Ġsimpli":12065,"oviÄĩ":12066,"Ġ1897":12067,"Ġsexuel":12068,"Ġautomne":12069,"Ġplaques":12070,"ĠDiego":12071,"ĠSP":12072,"tueux":12073,"Ġincluant":12074,"ĠHein":12075,"Ġbanques":12076,"ĠÃ©crivains":12077,"Ġmarchandises":12078,"ĠBlanche":12079,"Î¹":12080,"Ġdoul":12081,"Ġponc":12082,"Ġgonf":12083,"ĠPenn":12084,"Ġ61":12085,"Ġmanoir":12086,"Ġprogrammation":12087,"ĠcausÃ©s":12088,"Ġdanois":12089,"ĠWindows":12090,"ĠItal":12091,"tuel":12092,"ĠGouver":12093,"Ġmilit":12094,"Ġcollecte":12095,"ĠhÃ´te":12096,"Ġmourut":12097,"intÃ©gration":12098,"Ġbleue":12099,"Ã©chec":12100,"Ġdesqu":12101,"Ġintellig":12102,"ĠDVD":12103,"parti":12104,"Inter":12105,"Ġdiscussion":12106,"ĠprotÃ©gÃ©":12107,"Ġacquiert":12108,"ĠcinÃ©matographique":12109,"Ġdrain":12110,"autique":12111,"ĠPÃ¨re":12112,"ĠRad":12113,"Ġesclaves":12114,"ĠdÃ©pression":12115,"ĠcinÃ©":12116,"Ġdevenus":12117,"ĠactualitÃ©":12118,"ĠannoncÃ©e":12119,"PC":12120,"ĠMam":12121,"actifs":12122,"ĠTel":12123,"illeur":12124,"ĠmariÃ©e":12125,"Ġpsychi":12126,"ĠprononcÃ©":12127,"Ġpousser":12128,"ĠÃ©paules":12129,"Ġplaines":12130,"ĠGrÃ©g":12131,"ĠÃ©trange":12132,"Ġhabituellement":12133,"Nord":12134,"bury":12135,"chest":12136,"Ġjeter":12137,"Ġsections":12138,"Ġpluies":12139,"ĠEast":12140,"ĠRab":12141,"Ġraf":12142,"assaut":12143,"Ġcourants":12144,"oppose":12145,"outez":12146,"Ġpassages":12147,"Ġbiologique":12148,"Ġadministration":12149,"ĠRoch":12150,"ĠdivisÃ©e":12151,"Ġsentait":12152,"occupe":12153,"Ġdomestique":12154,"Esp":12155,"Ġiv":12156,"Ġaid":12157,"Ġparut":12158,"euf":12159,"ĠÂ±":12160,"Ġ1850":12161,"Ã©nÃ©gal":12162,"culaires":12163,"Î½":12164,"Ġpne":12165,"cif":12166,"ĠBet":12167,"opold":12168,"Ġmarge":12169,"ĠcrÃ©dit":12170,"Ġproposent":12171,"ĠtÃ©lÃ©s":12172,"Nic":12173,"ouk":12174,"ĠPu":12175,"ĠArd":12176,"Ã©curitÃ©":12177,"Ġvolontaire":12178,"Ġmodifier":12179,"Ġpermanente":12180,"Ã¥":12181,"âĪ":12182,"eno":12183,"quets":12184,"rienne":12185,"ĠPres":12186,"ĠLeurs":12187,"lÃ¨tes":12188,"ĠnationalitÃ©":12189,"Ġextrait":12190,"ĠconcernÃ©s":12191,"ĠElizabeth":12192,"Ġdicta":12193,"hl":12194,"ield":12195,"Ġmex":12196,"orÃ©s":12197,"ĠSire":12198,"Ġchair":12199,"ĠaltÃ©rÃ©":12200,"ĠcrÃ©ant":12201,"Anjou":12202,"ĠSchw":12203,"explo":12204,"Ġfamilial":12205,"Ġcreus":12206,"Ġfiction":12207,"oua":12208,"ĠCin":12209,"ĠClÃ©":12210,"Ġbis":12211,"Ġcond":12212,"ĠRien":12213,"ĠWagner":12214,"Ã©rait":12215,"Ġintervention":12216,"ĠtournÃ©es":12217,"Ġcapables":12218,"Ġdiplomatique":12219,"holm":12220,"ĠdÃ®ner":12221,"Ġcoiff":12222,"ĠlittÃ©raires":12223,"Ġouverts":12224,"Ġasi":12225,"Ġleva":12226,"ĠSA":12227,"Ġgaul":12228,"ĠKab":12229,"oblig":12230,"Ġculmin":12231,"Ġcampus":12232,"Ġcadet":12233,"Ġmerveille":12234,"ĠÃ©chanti":12235,"Ġsculpt":12236,"ĠÃ©nergies":12237,"ĠsÃ»re":12238,"Ġreconstitu":12239,"Ġconvaincu":12240,"Ġer":12241,"Ġservent":12242,"roupe":12243,"Ġcoul":12244,"Ã©mis":12245,"Ġgrandit":12246,"ĠdÃ©pens":12247,"Ġattest":12248,"ĠAmaz":12249,"Ġsommets":12250,"Ġpratiquement":12251,"ĠRoman":12252,"Ġprononc":12253,"ĠSmall":12254,"ĠdÃ©missionne":12255,"Ġturc":12256,"escalier":12257,"Ġpoign":12258,"Ġaus":12259,"ĠclÃ©s":12260,"Ġaffili":12261,"ĠstabilitÃ©":12262,"Ġcarburant":12263,"tainment":12264,"Ġdign":12265,"Ġdieux":12266,"ĠMong":12267,"Ġdialogue":12268,"ĠUN":12269,"Ġbrun":12270,"tionnels":12271,"ĠaraignÃ©es":12272,"Ġfournisse":12273,"Ġparlementaires":12274,"ĠinterprÃ©tÃ©":12275,"Iran":12276,"Ġouvertes":12277,"titre":12278,"Ġmante":12279,"alles":12280,"ĠBrest":12281,"Ġarchitecture":12282,"ĠTemps":12283,"Ġrenseignement":12284,"ĠInstitute":12285,"blit":12286,"Ġduel":12287,"ĠCur":12288,"ĠcarrÃ©s":12289,"Ġexpression":12290,"Ġrapides":12291,"ĠparticularitÃ©":12292,"times":12293,"itanie":12294,"Ġfe":12295,"ĠAires":12296,"Ġproph":12297,"Ġfinancer":12298,"Ġvivement":12299,"...)":12300,"Ġlogis":12301,"ĠMike":12302,"Ġpoudre":12303,"Certains":12304,"ĠStÃ©phane":12305,"Emmanuel":12306,"Ġfirent":12307,"ĠÃ©difice":12308,"sig":12309,"ĠMand":12310,"ĠGib":12311,"ĠHard":12312,"ness":12313,"ĠCanal":12314,"Ġ1876":12315,"Ġ1881":12316,"ĠarrÃªtÃ©s":12317,"ĠTeam":12318,"Ġmidi":12319,"ĠGilbert":12320,"ĠPÃ©rou":12321,"accalaurÃ©at":12322,"mens":12323,"Ø±":12324,"oum":12325,"isant":12326,"ĠdÃ©cÃ¨de":12327,"ĠdÃ©posÃ©":12328,"Ġtraverser":12329,"Ġpatrou":12330,"ĠCroatie":12331,"Ġargentin":12332,"Ġdoctrine":12333,"Ġmexic":12334,"ĠLot":12335,"Ġculturels":12336,"Ġ1882":12337,"ĠenvoyÃ©s":12338,"ĠvÃ©rifier":12339,"ĠdÃ©nomination":12340,"Ġsensible":12341,"Ġparvenir":12342,"ĠSn":12343,"tÃ©n":12344,"ĠjÃ©s":12345,"ĠYe":12346,"Ġhabitant":12347,"ĠapprouvÃ©":12348,"Ġcirconscriptions":12349,"Ġrebelles":12350,"ĠautorisÃ©":12351,"Garonne":12352,"ey":12353,"Ġdons":12354,"Ã©min":12355,"ĠCitÃ©":12356,"ĠdÃ©truite":12357,"Ġrond":12358,"cheur":12359,"ĠChÃ¢":12360,"ingen":12361,"ĠÃ©cras":12362,"Ġcommunistes":12363,"ĠorganisÃ©es":12364,"Ġsexuelles":12365,"Ġrecords":12366,"Outre":12367,"Ġgrosses":12368,"ĠurbanisÃ©es":12369,"gÃ¨nes":12370,"non":12371,"Ġpisc":12372,"artistes":12373,"ĠÃ©li":12374,"Ġparviennent":12375,"ĠMb":12376,"Ġdiale":12377,"onnance":12378,"ĠON":12379,"ĠposÃ©":12380,"Ġregistre":12381,"afric":12382,"ĠopposÃ©":12383,"ĠcomplÃ©mentaire":12384,"Ġdiagnostic":12385,"ĠvÃ©tÃ©":12386,"ĠLut":12387,"tina":12388,"Ġcombien":12389,"demn":12390,"Ġcompagnons":12391,"lÃ©tisme":12392,"ĠWolf":12393,"Ġcoucher":12394,"Ġcacher":12395,"Ġpermettait":12396,"Ġrevendi":12397,"animal":12398,"ĠidentifiÃ©":12399,"Ġmodification":12400,"ĠBrian":12401,"ĠCatalog":12402,"BI":12403,"Che":12404,"bat":12405,"anais":12406,"ĠColu":12407,"miÃ¨re":12408,"Ã©ters":12409,"ĠWeb":12410,"ĠfiÃ¨vre":12411,"ĠHollande":12412,"ĠdÃ©placer":12413,"Ġvagues":12414,"ĠEntertainment":12415,"ius":12416,"Ġbap":12417,"ĠFI":12418,"utent":12419,"Ġmarcher":12420,"ĠKra":12421,"ĠÃªtres":12422,"Ġ77":12423,"ussy":12424,"Ġretomb":12425,"Ġvolant":12426,"ĠsupplÃ©":12427,"engager":12428,"Ġessentiel":12429,"Ġattribue":12430,"ĠCentral":12431,"Ã©quivalent":12432,"uÃ©e":12433,"Ġenvelopp":12434,"Ã¨ges":12435,"ovine":12436,"Ġzo":12437,"ĠdixiÃ¨me":12438,"ĠdisparaÃ®t":12439,"ĠKhan":12440,"Ġdissolution":12441,"Ġlinguistique":12442,"assassinat":12443,"Ġq":12444,"ĠSS":12445,"Ġplay":12446,"ĠRud":12447,"ĠHum":12448,"ativitÃ©":12449,"Ġcolons":12450,"ĠcrÃ©Ã©s":12451,"ĠrÃ©pÃ©tÃ©":12452,"orel":12453,"ĠneuviÃ¨me":12454,"Ġtraditionnelles":12455,"ĠHollywood":12456,"inventaire":12457,"Ath":12458,"hÃ©ri":12459,"rami":12460,"ĠBau":12461,"aders":12462,"Ġmarty":12463,"appellation":12464,"tionnelles":12465,"Ġterminant":12466,"ĠAndroid":12467,"ĠfrÃ©quents":12468,"ĠBuenos":12469,"Ġdoigt":12470,"ĠLivre":12471,"cÃ©s":12472,"tario":12473,"Ġdates":12474,"ĠSig":12475,"Ġconjug":12476,"ĠEP":12477,"ĠWin":12478,"Ã©tain":12479,"ĠdÃ©passer":12480,"espÃ¨ces":12481,"ĠengagÃ©e":12482,"Ġregardait":12483,"ĠdestinÃ©es":12484,"mel":12485,"Ġib":12486,"Ġdron":12487,"Ġaud":12488,"ĠBiden":12489,"pper":12490,"ĠUni":12491,"angulaire":12492,"Ġquarantaine":12493,"ĠGiovanni":12494,"Ġcatalogue":12495,"Ġmagistra":12496,"Euro":12497,"Ġpire":12498,"ouf":12499,"ĠrÃ©unions":12500,"Ġbuteur":12501,"ĠEugÃ¨ne":12502,"ĠbÃ©bÃ©":12503,"Ġensole":12504,"ĠâĨĴ":12505,"ĠMicrosoft":12506,"ĠMouvement":12507,"attrib":12508,"ĠrÃ©mun":12509,"ĠprÃ©voy":12510,"Ġcontras":12511,"umine":12512,"Ã©rable":12513,"Ġempereur":12514,"Chaque":12515,"engagement":12516,"ĠterminÃ©e":12517,"attaquant":12518,"Ġmanifestants":12519,"Ġaccusations":12520,"investissement":12521,"ouille":12522,"Ġventre":12523,"ĠLinc":12524,"ĠDick":12525,"Ġritu":12526,"ology":12527,"Ã¨nements":12528,"ĠtombÃ©":12529,"Ġsurpris":12530,"augmenter":12531,"ĠbÃ©ton":12532,"archÃ©":12533,"Ġextension":12534,"niti":12535,"Ġarm":12536,"ĠmÃ©c":12537,"ston":12538,"ĠchargÃ©s":12539,"ĠcollectivitÃ©s":12540,"Ġ1840":12541,"Ġtribune":12542,"Ġtalents":12543,"hydrog":12544,"Ġpaiement":12545,"Oli":12546,"Ġondes":12547,"Ġdress":12548,"Ġcuri":12549,"ĠflÃ¨":12550,"ĠAC":12551,"Ġaventures":12552,"ĠHad":12553,"ĠChÃ¢te":12554,"Ġ1815":12555,"Laurent":12556,"Ġinterrog":12557,"Ġactuels":12558,"ĠretirÃ©":12559,"accompagne":12560,"Ġtabac":12561,"cz":12562,"enzo":12563,"ogÃ¨ne":12564,"ĠcessÃ©":12565,"Ġappartement":12566,"ĠÃ©tranger":12567,"fiÃ©e":12568,"Ġgenoux":12569,"Ġusines":12570,"Ġsurfaces":12571,"ĠinfluencÃ©":12572,"Ġpompiers":12573,"Ġdose":12574,"ourage":12575,"ĠSom":12576,"ĠDim":12577,"ĠJour":12578,"ĠWilson":12579,"Ġcla":12580,"aÃ¯a":12581,"Ġoption":12582,"ĠMonaco":12583,"ĠlignÃ©e":12584,"ĠPSG":12585,"Ġsultan":12586,"ĠBy":12587,"ĠHauts":12588,"ĠWol":12589,"Ġconfid":12590,"ĠprioritÃ©":12591,"ĠBeaucoup":12592,"Ġfrancophone":12593,"iance":12594,"enaire":12595,"sign":12596,"ĠPubli":12597,"ĠexpÃ©":12598,"Ġconstell":12599,"ĠKu":12600,"Ġsocialistes":12601,"Ġcontrats":12602,"ĠsuccÃ©d":12603,"ĠsynthÃ¨se":12604,"ĠConservatoire":12605,"ET":12606,"Ġduchesse":12607,"Ġheb":12608,"oges":12609,"ĠCha":12610,"avÃ¨re":12611,"Ġclinique":12612,"Ġ73":12613,"ĠmusÃ©es":12614,"akistan":12615,"Ġrevendic":12616,"Ġindividuel":12617,"Ġrelief":12618,"ĠHugo":12619,"senal":12620,"ĠaccompagnÃ©e":12621,"rarouge":12622,"Ã©tersbourg":12623,"Trois":12624,"ints":12625,"ĠBoh":12626,"Ġcollines":12627,"ĠgÃ©nÃ©tique":12628,"ĠAls":12629,"ĠrÃ©pression":12630,"liga":12631,"Ġoffensive":12632,"Ġidenti":12633,"Ã©loi":12634,"Ġ1886":12635,"ĠengagÃ©s":12636,"Ġbords":12637,"Os":12638,"cts":12639,"work":12640,"rose":12641,"ĠLie":12642,"Ġinfin":12643,"esseur":12644,"ortives":12645,"ĠordonnÃ©":12646,"Ġlaissa":12647,"ĠToujours":12648,"ĠintermÃ©diaire":12649,"apprentissage":12650,"Ġaustralien":12651,"had":12652,"ĠSo":12653,"pez":12654,"Ġassiste":12655,"Ġfaill":12656,"Ġautoroute":12657,"Ġplateformes":12658,"ĠNationale":12659,"ĠpoussÃ©":12660,"belli":12661,"ĠMiller":12662,"ĠVati":12663,"Ġnotaire":12664,"yste":12665,"office":12666,"Ġaffirmant":12667,"Ġsemblable":12668,"ĠsoulignÃ©":12669,"ĠFriedrich":12670,"John":12671,"sud":12672,"oro":12673,"omen":12674,"olphe":12675,"Ġgymn":12676,"ĠPoly":12677,"Ġexistait":12678,"Ã©crire":12679,"Ġeffort":12680,"Ġdomine":12681,"antiers":12682,"Ġtribus":12683,"ĠMidi":12684,"ĠobligÃ©":12685,"ĠÃ©levÃ©es":12686,"ĠthÃ©ories":12687,"Ġgrossesse":12688,"Ġinsectes":12689,"ÃŁ":12690,"Ġpun":12691,"ilton":12692,"ĠÃ©tats":12693,"Ġclaire":12694,"associ":12695,"aviÃ¨re":12696,"ĠreÃ§oivent":12697,"conque":12698,"ĠsÃ©lectionneur":12699,"Ġcommerciaux":12700,"ĠXXI":12701,"Jusqu":12702,"'t":12703,"oral":12704,"rales":12705,"ĠrÃ©cip":12706,"dict":12707,"ĠinÃ©g":12708,"Ġmarais":12709,"ĠtÃ©lÃ©f":12710,"ĠÃ¢gÃ©es":12711,"Ġdescendant":12712,"Ġcatal":12713,"Ġoccuper":12714,"ĠJÃ©rÃ´me":12715,"Ġincendies":12716,"quatre":12717,"etti":12718,"Ġbag":12719,"Ġhyp":12720,"ĠFlam":12721,"ĠprÃ©vention":12722,"ĠÃīg":12723,"ĠDeb":12724,"ixe":12725,"fiction":12726,"Ġ1878":12727,"Ġconsacrer":12728,"ĠSeries":12729,"Ġcuivre":12730,"ĠprieurÃ©":12731,"iales":12732,"lÃ¨s":12733,"ĠCir":12734,"ĠJun":12735,"ĠprÃ©venir":12736,"ocie":12737,"tress":12738,"ĠimposÃ©":12739,"Ġobserve":12740,"Ġamont":12741,"iness":12742,"Ġoffert":12743,"ĠClaire":12744,"Ġtournois":12745,"amÃ©ricaine":12746,"ĠPedro":12747,"Ġtendre":12748,"Ġvot":12749,"ĠMill":12750,"Ġprosp":12751,"Ġclan":12752,"Ġrendue":12753,"Ġreproduction":12754,"ĠgravitÃ©":12755,"Ġattire":12756,"officier":12757,"ĠcÃ©ra":12758,"Ġchristian":12759,"ĠBata":12760,"ĠXavier":12761,"Ġpasses":12762,"Ġsuppression":12763,"Ġparticipant":12764,"ĠÃ©choue":12765,"Ġmentionne":12766,"interprÃ©tation":12767,"mund":12768,"arl":12769,"eto":12770,"atra":12771,"ĠJi":12772,"Ġantic":12773,"Ġesprits":12774,"ĠMario":12775,"Ġ78":12776,"ĠremportÃ©e":12777,"ĠspÃ©cialement":12778,"cades":12779,"ĠChampagne":12780,"Ġmobiles":12781,"Ġinconnue":12782,"uritÃ©":12783,"oma":12784,"Ġgam":12785,"Ġprouver":12786,"Ġmarie":12787,"Ġmilles":12788,"Ġ69":12789,"Ġinscription":12790,"owski":12791,"Ġtrouvant":12792,"habitu":12793,"ĠdÃ©lai":12794,"ĠassassinÃ©":12795,"Ġtriomphe":12796,"ĠLincoln":12797,"ĠEss":12798,"ĠFil":12799,"ĠÃīcosse":12800,"Ã©pouse":12801,"Ġdrogue":12802,"rette":12803,"Ġtrouvaient":12804,"Ġ1874":12805,"Ġ1888":12806,"Ġitaliens":12807,"ĠLondon":12808,".--":12809,"Ġdiminuer":12810,"ĠsoviÃ©tiques":12811,"ĠnÃ©erlandaise":12812,"Ġmaternelle":12813,"Ġcontraintes":12814,"Ġpontific":12815,"PÃ©tersbourg":12816,"Vers":12817,"hai":12818,"rov":12819,"ĠgÃ©rÃ©":12820,"ĠBag":12821,"ĠNot":12822,"ĠHot":12823,"ignements":12824,"ĠYam":12825,"Ã©limin":12826,"donÃ©sie":12827,"ĠWarner":12828,"ĠAcade":12829,"Ġmalheureux":12830,"Ġmagnifique":12831,"He":12832,"ĠÃ©lÃ©g":12833,"avril":12834,"ricts":12835,"ĠsÃ©di":12836,"Ġchanter":12837,"Ġhydra":12838,"ĠdÃ©lÃ©guÃ©":12839,"ĠVall":12840,"aritions":12841,"ĠassistÃ©":12842,"Ġeffectifs":12843,"Ġbombe":12844,"Ġhumides":12845,"Ġdette":12846,"ĠÃ©difi":12847,"ĠPel":12848,"Ġprenait":12849,"ĠmarquÃ©s":12850,"Ġsauvet":12851,"Ob":12852,"arbre":12853,"levÃ©":12854,"ĠSang":12855,"ĠAfin":12856,"ĠDavis":12857,"ĠNar":12858,"ĠVel":12859,"Ġcompositions":12860,"ĠKon":12861,"ĠspÃ©ciales":12862,"ĠClassi":12863,"Ġ1863":12864,"ĠrÃ©unis":12865,"ĠinhumÃ©":12866,"Station":12867,"ĠCr":12868,"chy":12869,"ĠbaccalaurÃ©at":12870,"ĠdÃ©ploie":12871,"ĠentraÃ®ner":12872,"Ġmigrants":12873,"flix":12874,"Ġalig":12875,"Ġparlant":12876,"ĠMort":12877,"ĠTai":12878,"onnent":12879,"Ġcomptent":12880,"Ġard":12881,"linois":12882,"Ġbarb":12883,"Ġdemandant":12884,"Ġallong":12885,"Ġconstruites":12886,"Ġheureuse":12887,"ĠÃ©liminatoires":12888,"arrÃªte":12889,"Ð¼":12890,"Ġparlait":12891,"ĠblÃ©":12892,"ĠBoe":12893,"Ġinnov":12894,"Ġpersonnelles":12895,"ĠthÃ©m":12896,"attente":12897,"expri":12898,"Ġcompatriote":12899,"enb":12900,"Ġbin":12901,"Ġbillet":12902,"Ġplastique":12903,"ĠJer":12904,"ĠHistor":12905,"Ġmange":12906,"Ġassistant":12907,"ĠdÃ©fic":12908,"ĠÃ©tendue":12909,"Ġflui":12910,"visionnement":12911,"Ġ1875":12912,"ĠÃ©piscop":12913,"Ġcosm":12914,"Ġdesservi":12915,"aisie":12916,"ĠDix":12917,"ĠaccÃ©der":12918,"Ġrevues":12919,"ĠCapit":12920,"ĠMohamed":12921,"Ġsculptures":12922,"earch":12923,"horizon":12924,"chers":12925,"Ġgig":12926,"Ġconvient":12927,"ueur":12928,"Ġtiennent":12929,"Ġ88":12930,"ArmÃ©e":12931,"organisme":12932,"Phone":12933,"ĠUniversity":12934,"tez":12935,"ĠHon":12936,"Ġcompta":12937,"Ãīducation":12938,"Ġcoff":12939,"Ġbouc":12940,"Ġsubstitu":12941,"ĠarrivÃ©s":12942,"Marc":12943,"Ġ1872":12944,"Ġ1884":12945,"habitation":12946,"Ġrival":12947,"Ġparfum":12948,"Ġcardiaque":12949,"Quelques":12950,"nels":12951,"Ġlacs":12952,"Ġnaval":12953,"agan":12954,"ĠTak":12955,"onses":12956,"Ġaccumul":12957,"ĠcrÃ©ateur":12958,"pecteur":12959,"Ġsalaires":12960,"Ġ1887":12961,"Ġquinzaine":12962,"Ġdomestiques":12963,"octobre":12964,"EM":12965,"ĠStr":12966,"atchev":12967,"Ġchaude":12968,"ĠBonn":12969,"illÃ©es":12970,"venant":12971,"Ġtransforme":12972,"Ġremportent":12973,"Ġsportives":12974,"oka":12975,"Arts":12976,"Ġdescendre":12977,"chaussÃ©e":12978,"ĠDouglas":12979,"Ġgendarmes":12980,"cÃ´":12981,"ĠdÃ©tenus":12982,"Ġconstat":12983,"isson":12984,"Ġvoler":12985,"ĠremarquÃ©":12986,"ĠNetflix":12987,"ĠrÃ©pertoire":12988,"Ġgarnison":12989,"ĠColumb":12990,"Ġpend":12991,"ĠPlace":12992,"Ãªnes":12993,"ĠprÃ©occup":12994,"ĠHamb":12995,"Ġnommer":12996,"ĠarmÃ©":12997,"Ġclin":12998,"Ġobsta":12999,"oke":13000,"Ġfrau":13001,"Ġoppose":13002,"ĠaccordÃ©":13003,"ĠhÃ´pitaux":13004,"ĠsouverainetÃ©":13005,"Ġincarne":13006,"frÃ¨re":13007,"zen":13008,"eneuve":13009,"Ġave":13010,"alo":13011,"ĠLouvre":13012,"neurs":13013,"Ġdiable":13014,"agnol":13015,"ĠrÃ©gionaux":13016,"180":13017,"incline":13018,"Ġ1894":13019,"ĠindÃ©pendance":13020,"Ġmusicales":13021,"ĠcÃ©rÃ©b":13022,"Ġnuages":13023,"ĠbrÃ©silien":13024,"ĠVatican":13025,"sol":13026,"Ġspec":13027,"ĠLour":13028,"atter":13029,"Ġchang":13030,"onnu":13031,"ĠextÃ©rieure":13032,"Ġcompati":13033,"ĠarchevÃªque":13034,"oristes":13035,"Ġbonus":13036,"Ġ1891":13037,"Ġ1883":13038,"Ġsensation":13039,"Ġaccompagn":13040,"ĠadoptÃ©e":13041,"Ġindividuelles":13042,"Ġauxquelles":13043,"ĠØ§ÙĦ":13044,"ouement":13045,"ĠClÃ©ment":13046,"ĠbÃ©g":13047,"ĠAsh":13048,"ĠrÃ©nov":13049,"Ġintr":13050,"ĠFant":13051,"Ġconnaissent":13052,"Ġroutier":13053,"anciens":13054,"urbanisme":13055,"ĠIsabelle":13056,"Ali":13057,"Ġcig":13058,"ĠSub":13059,"Ġsonge":13060,"Ġclandes":13061,"essai":13062,"ĠDidier":13063,"ĠMaintenant":13064,"Ġtramway":13065,"Ari":13066,"Ġdr":13067,"ĠquÃªte":13068,"tag":13069,"ĠPorte":13070,"ĠFol":13071,"inscription":13072,"Ġaccorde":13073,"ĠmontÃ©":13074,"ĠespÃ¨re":13075,"loie":13076,"Ġmarquant":13077,"Ġvariations":13078,"Ġregarda":13079,"ĠdÃ©putÃ©e":13080,"cas":13081,"nois":13082,"anou":13083,"ilib":13084,"Ã§ants":13085,"Ã©valuation":13086,"Ġfonctionner":13087,"Ġnormal":13088,"Ġcanicule":13089,"Histoire":13090,"Off":13091,"hier":13092,"omÃ¨tre":13093,"med":13094,"ĠBÃ¢":13095,"ĠBart":13096,"ĠarmÃ©s":13097,"ĠChen":13098,"ĠassurÃ©e":13099,"ĠprÃ©cieux":13100,"ĠproposÃ©e":13101,"Ġ1861":13102,"Ġajoutant":13103,"Ġcirculaire":13104,"ĠChristoph":13105,"ĠconÃ§ue":13106,"Ġfaudrait":13107,"ĠamenÃ©":13108,"No":13109,"yt":13110,"Ä«":13111,"ĠlatÃ©ra":13112,"techn":13113,"ĠfÃª":13114,"Ġtunis":13115,"osants":13116,"obÃ©":13117,"Ġmanquer":13118,"Ġ92":13119,"Ġparcs":13120,"Ġ1877":13121,"ĠSurvey":13122,"Ġfaim":13123,"Maur":13124,"Ġlan":13125,"ĠpriÃ¨re":13126,"Ġlecteur":13127,"viÃ¨re":13128,"verg":13129,"ĠvoÃ»te":13130,"oreille":13131,"Ġessayer":13132,"Ġsentir":13133,"ĠKevin":13134,"Ġgolfe":13135,"Ġcontiennent":13136,"ĠEnvi":13137,"phonse":13138,"Ġminor":13139,"Ġfausse":13140,"avions":13141,"Ġenferm":13142,"Ġgares":13143,"Ġmajeurs":13144,"Ġartistiques":13145,"Ġpause":13146,"ĠdÃ©cider":13147,"ĠpossibilitÃ©s":13148,"ĠcausÃ©":13149,"Ġadulte":13150,"abilitÃ©s":13151,"ning":13152,"ĠÃ©rig":13153,"ĠScience":13154,"ĠMak":13155,"Ġprodi":13156,"Ġprest":13157,"Ã§aient":13158,"brer":13159,"Ġindiquent":13160,"Ġdistricts":13161,"ĠBeaux":13162,"Ġpeloton":13163,"adelph":13164,"Alsace":13165,"lante":13166,"mur":13167,"ĠmÃ¨tre":13168,"Ġnarra":13169,"ĠDÃ©s":13170,"ulations":13171,"Ġabsence":13172,"atrices":13173,"ĠconsidÃ¨rent":13174,"Ġestiment":13175,"ĠÃ©crites":13176,"Ġfabrique":13177,"Ġcolonisation":13178,"ĠinaugurÃ©e":13179,"moni":13180,"poration":13181,"ĠÃ©te":13182,"phy":13183,"Ġpersu":13184,"ĠvotÃ©":13185,"Ġempire":13186,"ĠrÃ©centes":13187,"Ġenvoyer":13188,"amiral":13189,"ĠimpliquÃ©":13190,"ĠarchÃ©ologique":13191,"explosion":13192,"cial":13193,"Ġcomprise":13194,"ĠlibÃ©rer":13195,"guay":13196,"ĠmatÃ©riau":13197,"Ġambassadeur":13198,"Ã©chapper":13199,"Ġtriomph":13200,"ĠalbÃ©do":13201,"rah":13202,"ĠLoi":13203,"ĠDeu":13204,"acÃ©e":13205,"ĠTw":13206,"Ġoffrant":13207,"Ġports":13208,"keting":13209,"Ġfontaine":13210,"ĠdÃ©cida":13211,"ĠdÃ©lib":13212,"ĠdÃ©vas":13213,"ĠÃ©chapper":13214,"Tous":13215,"dor":13216,"ĠMoz":13217,"Ġconducteur":13218,"Ġmesse":13219,"acht":13220,"Ġinvasion":13221,"Ġprototype":13222,"ĠdÃ©finitive":13223,"ĠachÃ¨te":13224,"Ġaffronter":13225,"ĠLionel":13226,"yne":13227,"Ġdigne":13228,"ĠRiver":13229,"ĠNature":13230,"onniers":13231,"ĠHart":13232,"Ġnombres":13233,"ĠÃ©gale":13234,"Ġcoule":13235,"finales":13236,"Ġaffiche":13237,"Ġ1866":13238,"Ġregardant":13239,"ĠmÃ©dicament":13240,"Ġcostume":13241,"ersey":13242,"ĠachevÃ©":13243,"ĠhÃ©ritier":13244,"Ġrejoignent":13245,"vation":13246,"ĠOk":13247,"ther":13248,"Ġconclusion":13249,"Ġvieilles":13250,"Ġuniversel":13251,"ĠÃ¢gÃ©s":13252,"ĠmunicipalitÃ©s":13253,"ĠÃ©troite":13254,"ĠbriÃ¨vement":13255,"ĠNASA":13256,"ĠmÃ©s":13257,"Ġprostitu":13258,"ĠJos":13259,"ĠdÃ©croche":13260,"tines":13261,"Ġobserver":13262,"Ġ81":13263,"Ġvisites":13264,"aurais":13265,"ĠValence":13266,"Paris":13267,"arctique":13268,"Ġrestaurants":13269,"Ġmasculine":13270,"ĠtÃ¢ches":13271,"ĠBillboard":13272,"house":13273,"timis":13274,"ĠCav":13275,"aumes":13276,"ĠDin":13277,"ĠIvan":13278,"ĠFir":13279,"ĠTime":13280,"ĠTroy":13281,"otage":13282,"prÃ©sid":13283,"Ġtraditionnellement":13284,"ĠYougos":13285,"ĠMaxim":13286,"ĠschÃ©ma":13287,"Ġnoctur":13288,"Ġinscrite":13289,"ÄĻ":13290,"Ġgras":13291,"Ġhonte":13292,"ĠhypothÃ¨se":13293,"Ġcomparer":13294,"ĠKat":13295,"Ġobsc":13296,"Ġcinquant":13297,"Ġindien":13298,"Ġordonne":13299,"Ġvivait":13300,"Ġvariables":13301,"ĠadaptÃ©e":13302,"ĠÃ©diteur":13303,"Ġcroyait":13304,"Ġindication":13305,"helm":13306,"ium":13307,"sia":13308,"Ġconfor":13309,"Ġprussi":13310,"ĠRouge":13311,"ĠretrouvÃ©s":13312,"Ġrebaptis":13313,"Ġmassive":13314,"NIE":13315,"Ġfasse":13316,"ĠMassi":13317,"amÃ©":13318,"oba":13319,"ĠgÃ©nÃ©ralis":13320,"tÃ©rim":13321,"ĠpassÃ©s":13322,"Ġmoyennes":13323,"interro":13324,"Ġtechnologique":13325,"ĠRomain":13326,"ĠÃ©liminÃ©":13327,"Ġcivilisation":13328,"amÃ©lioration":13329,"ĠResearch":13330,"Ġattentats":13331,"ĠLouvain":13332,"Cont":13333,"PP":13334,"swick":13335,"itres":13336,"Ã¨ves":13337,"ĠBuck":13338,"Ġintention":13339,"ĠRid":13340,"ĠGreg":13341,"ĠJPL":13342,"ĠprÃ©d":13343,"aparte":13344,"Ġferait":13345,"ĠconsidÃ©rer":13346,"Ġobservatoire":13347,"Ġcandidate":13348,"Ġtrio":13349,"Ġ1862":13350,"ĠAbd":13351,"Ġmineur":13352,"Ġconnaissait":13353,"Ġnavale":13354,"ĠcritiquÃ©":13355,"Ġencourage":13356,"Ġlittoral":13357,"rables":13358,"alth":13359,"ĠCass":13360,"aton":13361,"Ġserment":13362,"Ġcertes":13363,"Ġwall":13364,"ĠdÃ©clarations":13365,"ĠManche":13366,"ĠRÃ©public":13367,"Ġmarchands":13368,"ĠPhiladelph":13369,"Ġluc":13370,"Ġsaints":13371,"ramment":13372,"asy":13373,"ĠSyl":13374,"pris":13375,"apour":13376,"liss":13377,"Ġ2025":13378,"Ġfuturs":13379,"Ant":13380,"Ġopus":13381,"Ġdemandent":13382,"Ġsortes":13383,"Ġsuspendu":13384,"Ġexceptionnelle":13385,"Ġbattue":13386,"ĠsupÃ©rieurs":13387,"mitt":13388,"Ġpul":13389,"ello":13390,"ĠTig":13391,"Ġagence":13392,"ĠcontinuÃ©":13393,"orbatchev":13394,"ĠLucas":13395,"ĠclergÃ©":13396,"BF":13397,"cence":13398,"court":13399,"istÃ©ri":13400,"Ġchances":13401,"ĠFN":13402,"Ġmontage":13403,"ĠprÃ©con":13404,"ĠastÃ©roÃ¯des":13405,"ĠBourbon":13406,"intÃ©grer":13407,"ĠalÃ©a":13408,"Ġtapis":13409,"Ġcollective":13410,"Ġcomportements":13411,"Ġvaccination":13412,"ĠmÃ©tropole":13413,"bellion":13414,"100":13415,"}=":13416,"neuf":13417,"ĠMast":13418,"ĠKent":13419,"ĠrÃ©gulier":13420,"Ġcouramment":13421,"Ġ82":13422,"Ġvenaient":13423,"ĠappelÃ©es":13424,"Ġviolent":13425,"Ġ1865":13426,"Ġconcurrents":13427,"Ġinvestissements":13428,"OU":13429,"ĠlatÃ©":13430,"ansas":13431,"ĠCad":13432,"Ġreten":13433,"ĠPla":13434,"ĠJup":13435,"ogue":13436,"Ġimplique":13437,"ĠgÃ©nÃ©rique":13438,"triques":13439,"arel":13440,"Ġvieill":13441,"Ġmalheur":13442,"ĠrÃ©fÃ©rences":13443,"ĠSharon":13444,"guÃ©":13445,"duisant":13446,"ĠrappelÃ©":13447,"Ġcombinaison":13448,"Ġethn":13449,"Ġanthrop":13450,"autoroute":13451,"Ġperfection":13452,"point":13453,"vra":13454,"ĠLiver":13455,"ĠMig":13456,"ĠBac":13457,"Ġ1873":13458,"Ġ1864":13459,"Ġajouta":13460,"ĠintÃ©grÃ©e":13461,"Ġjuif":13462,"Ġchancelier":13463,"Ġcompilation":13464,"CS":13465,"otique":13466,"relles":13467,"arg":13468,"Ġvign":13469,"ĠdÃ©tient":13470,"ĠBis":13471,"ĠBuc":13472,"Ġtib":13473,"Ġimpose":13474,"Ġroches":13475,"ĠÃ©vÃ¨nements":13476,"iliation":13477,"Ġdisposent":13478,"Ġoriginaires":13479,"ĠcontinuitÃ©":13480,"Ġabsorb":13481,"ĠalliÃ©":13482,"Ġcyclisme":13483,"ĠingÃ©nieurs":13484,"Avi":13485,"Toute":13486,"Ġtes":13487,"assurance":13488,"Ġprinces":13489,"autonomie":13490,"Ġcapt":13491,"ĠAuvergne":13492,"Ġliqu":13493,"marÃ¨s":13494,"Ġsortent":13495,"NIEFF":13496,"ĠÃ©me":13497,"ĠIN":13498,"Ġinternes":13499,"Ã¡s":13500,"Ġrevint":13501,"ĠcaractÃ©rise":13502,"ĠnumÃ©riques":13503,"expansion":13504,"ĠlittÃ©ralement":13505,"ĠBritish":13506,"ĠConstantinople":13507,"Fils":13508,"ĠlÃ©":13509,"ĠSÃ©nÃ©gal":13510,"ĠPy":13511,"Ġhier":13512,"Ġstable":13513,"ĠconservÃ©e":13514,"Ġglobale":13515,"Ġfauteuil":13516,"ĠÃ©cossais":13517,"bourne":13518,"Ġdil":13519,"quants":13520,"etto":13521,"ĠBaviÃ¨re":13522,"ĠHun":13523,"Ġsorties":13524,"ĠStand":13525,"Ġfusionn":13526,"ĠpÃ©ti":13527,"Ġcite":13528,"Ġparts":13529,"ĠAR":13530,"geoise":13531,"ĠarmÃ©n":13532,"ĠmobilitÃ©":13533,"emm":13534,"Ġadmira":13535,"Ġnotables":13536,"ĠYann":13537,"ruguay":13538,"ĠShow":13539,"Ã¢teaux":13540,"ĠSept":13541,"Ġpensent":13542,"Ġanciennement":13543,"ĠLiber":13544,"ĠconfiÃ©e":13545,"Ġnormalement":13546,"Ġfavorables":13547,"Ġcopie":13548,"Ġfromage":13549,"ĠPlayStation":13550,"Ġcontacts":13551,"ĠtÃ©lÃ©specta":13552,"ĠPuy":13553,"Ġproviennent":13554,"ops":13555,"Ã¯s":13556,"leroi":13557,"Ġverts":13558,"Ġregards":13559,"Ġgraines":13560,"Ġdescendants":13561,"Ġblocs":13562,"institut":13563,"dan":13564,"ÙĪ":13565,"encontre":13566,"ĠRav":13567,"Ġraff":13568,"ardie":13569,"Ġorchestre":13570,"Ġriz":13571,"ĠProvin":13572,"ralitÃ©":13573,"ĠcommandÃ©":13574,"Ġcondamnation":13575,"atisme":13576,"Ġdiversi":13577,"Ġplafond":13578,"Calais":13579,"lons":13580,"ĠTot":13581,"Ġavantages":13582,"Ġdisposer":13583,"Ġofficielles":13584,"Ġpositive":13585,"Ġsymph":13586,"ĠathlÃ¨tes":13587,"ĠAnthony":13588,"Roy":13589,"oj":13590,"ily":13591,"aba":13592,"ĠHos":13593,"Ġassister":13594,"athon":13595,"ignons":13596,"rillique":13597,"Ġpubliquement":13598,"Ivoire":13599,"Ġaveug":13600,"tiver":13601,"etz":13602,"ourir":13603,"Ġba":13604,"ĠSui":13605,"ĠAni":13606,"ĠFÃ©lix":13607,"ĠTa":13608,"exploit":13609,"Ġindispensable":13610,"ĠcongrÃ©gation":13611,"feld":13612,"Ġcog":13613,"Ġnutri":13614,"agh":13615,"ĠVik":13616,"inspiration":13617,"Ġcouper":13618,"Ġinfec":13619,"grade":13620,"Ġmaintient":13621,"ĠcrÃ¢":13622,"Ġartisan":13623,"Ġpuissants":13624,"Ġmassacre":13625,"lavie":13626,"Ġaffronte":13627,"ĠPhilippines":13628,"orent":13629,"ralement":13630,"ĠPales":13631,"ĠNy":13632,"Ġapparitions":13633,"ĠaccÃ¨de":13634,"Ġautoch":13635,"aura":13636,"Ġvoisines":13637,"orthos":13638,"ĠGlob":13639,"ĠMathieu":13640,"Ġhyper":13641,"jÃł":13642,"Ġaig":13643,"urich":13644,"cir":13645,"Ġchaise":13646,"ĠBibliothÃ¨que":13647,"Ġhonn":13648,"Ġcourir":13649,"ĠÃ©voquÃ©":13650,"ĠathlÃ¨te":13651,"ĠprotÃ©ines":13652,"aperÃ§":13653,"Body":13654,"Ġparrain":13655,"ĠLA":13656,"ĠHerb":13657,"Ġtristes":13658,"Ġfinales":13659,"mÃ©nie":13660,"Ġcharte":13661,"ĠrelÃ¢":13662,"ĠfÃ©ministe":13663,"ĠRenault":13664,"Ġsingles":13665,"Ġprochaines":13666,"effectu":13667,"ouchure":13668,"ĠMadeleine":13669,"ajouter":13670,"Aub":13671,"FL":13672,"TT":13673,"Ã¨bres":13674,"ĠSong":13675,"Ġjum":13676,"ĠNa":13677,"lusions":13678,"Ġrendus":13679,"Ã©curie":13680,"Ġfermer":13681,"Ġprimaires":13682,"ĠGuiche":13683,"ĠconsÃ©cutive":13684,"Ġconstellation":13685,"Ġsoie":13686,"orable":13687,"ĠCoc":13688,"peaux":13689,"Ġanaly":13690,"emme":13691,"Ġenthousi":13692,"raphe":13693,"Ġopport":13694,"Ġvoulant":13695,"Ġconcernent":13696,"Ġparoisses":13697,"ĠrÃ©servÃ©e":13698,"ĠpoussÃ©e":13699,"Ġglobal":13700,"Ġalternative":13701,"Ġdessert":13702,"ĠNavarre":13703,"Ġassembl":13704,"rane":13705,"ĠFilm":13706,"ĠrÃ©putÃ©":13707,"Ġvif":13708,"ĠCaen":13709,"Ġterritoriales":13710,"ĠAcademy":13711,"Ġmout":13712,"olat":13713,"ĠSen":13714,"ĠAct":13715,"osc":13716,"Ġsortit":13717,"ĠattaquÃ©":13718,"ĠqualifiÃ©s":13719,"ĠMÃ©rey":13720,"Ġfallu":13721,"ĠsÃ©vÃ¨re":13722,"Ġprotocole":13723,"ĠLiverpool":13724,"usanne":13725,"ĠSanti":13726,"Ġ(âĪ":13727,"ĠHou":13728,"exper":13729,"Ġinsiste":13730,"ĠlocalitÃ©s":13731,"ĠabandonnÃ©e":13732,"Ġcyrillique":13733,"Ġsauvages":13734,"Ġrecrutement":13735,"ĠmÃ©diÃ©vale":13736,"Ġfirme":13737,"Ġfief":13738,"Ġberg":13739,"Ġbiblioth":13740,"ĠdÃ©esse":13741,"mic":13742,"Ġpasteur":13743,"Ġrotation":13744,"ĠÃ©ponyme":13745,"ĠgÃ©ographie":13746,"Ġtriple":13747,"Ġpuissances":13748,"ĠinspirÃ©e":13749,"ĠtÃ©moignent":13750,"Ġlogiciels":13751,"hydrogÃ¨ne":13752,"gard":13753,"plÃ©":13754,"unitÃ©s":13755,"Ġfri":13756,"ĠdÃ©tenu":13757,"ĠMoun":13758,"ĠRoc":13759,"ocal":13760,"examen":13761,"Ġinsta":13762,"ĠdÃ©nomb":13763,"Ġconvainc":13764,"ĠarchÃ©ologiques":13765,"ĠĠĠĠĠĠĠĠ":13766,"doc":13767,"ĠlinÃ©":13768,"ĠbiÃ¨re":13769,"aim":13770,"ĠBil":13771,"ĠBible":13772,"ĠJersey":13773,"Ġalphab":13774,"ÃīO":13775,"Anti":13776,"ĠtantÃ´t":13777,"ĠLive":13778,"amÃ©ricain":13779,"ĠlevÃ©e":13780,"mouth":13781,"ĠvallÃ©es":13782,"Ġstress":13783,"Ġchaire":13784,"Ġsurvie":13785,"ĠFox":13786,"ĠJou":13787,"Ġmarin":13788,"ĠcachÃ©":13789,"oker":13790,"ĠCharente":13791,"Ġcouples":13792,"ĠmÃ©diatique":13793,"Ġaliments":13794,"ĠpalmarÃ¨s":13795,"ĠinterprÃ©tation":13796,"Ġmanteau":13797,"guerre":13798,"Ġpalestin":13799,"inations":13800,"Ġfosse":13801,"Ġtube":13802,"ĠgÃ¨re":13803,"ĠGood":13804,"ĠWay":13805,"issaient":13806,"Ġcertific":13807,"ĠrÃ©ponses":13808,"Ġautonomie":13809,"Ġstabil":13810,"Ġprior":13811,"Ġindustrielles":13812,"Ġ1859":13813,"Ġmentale":13814,"notamment":13815,"ÅĻ":13816,"Ġmy":13817,"Ġretenue":13818,"geance":13819,"Ã¢mes":13820,"Ġ79":13821,"ĠInc":13822,"Ġfaune":13823,"Ġindiquant":13824,"encie":13825,"Ġboutique":13826,"Â»,":13827,"Ġreconstruit":13828,"Ġapost":13829,"Ġtypique":13830,"Ġstatistique":13831,"immigration":13832,"fant":13833,"gro":13834,"Äĥ":13835,"onel":13836,"erge":13837,"quaient":13838,"Ġsons":13839,"istante":13840,"Ġ1800":13841,"ahn":13842,"Ġconstructeurs":13843,"Ġenseig":13844,"Ġvariante":13845,"Ġmusicaux":13846,"Ġrassemblement":13847,"ĠimpÃ©rial":13848,"audience":13849,"ĠharcÃ¨lement":13850,"Col":13851,"Ġpant":13852,"ousie":13853,"ĠJen":13854,"Ġtrous":13855,"Ġmadem":13856,"Ġcommuns":13857,"Ġinfrarouge":13858,"ĠdÃ©sespÃ©":13859,"Ġbatteries":13860,"Ã©las":13861,"ĠMiami":13862,"ĠexprimÃ©":13863,"Ġcommunautaire":13864,"ĠMoliÃ¨re":13865,"Herz":13866,"ĠrÃ©pliqua":13867,"ceaux":13868,"eul":13869,"ĠNoire":13870,"ĠLap":13871,"ĠpersÃ©cu":13872,"Ġrempli":13873,"Ġeurent":13874,"Ġapparu":13875,"ĠplanÃ¨tes":13876,"espÃ¨re":13877,"ĠNews":13878,"Ġpensait":13879,"ĠGeneral":13880,"Ġrattra":13881,"ĠMondial":13882,"Ġvedette":13883,"Ġbasilique":13884,"Ġmademoiselle":13885,".),":13886,"Aquitaine":13887,"Ġlaissent":13888,"ĠÃ©puis":13889,"Ġparlent":13890,"Ġhe":13891,"Ã´ture":13892,"visible":13893,"ĠÃ©vacu":13894,"Ġprofessionnelles":13895,"heureusement":13896,"ĠmÃ©nage":13897,"Ġaccessibles":13898,"Ġsinon":13899,"envoi":13900,"Ġnettoy":13901,"ĠVenezuela":13902,"Ġira":13903,"ĠMang":13904,"ĠDJ":13905,"Ġsubir":13906,"ĠsignÃ©e":13907,"ĠSpor":13908,"ĠChelem":13909,"ĠHamas":13910,"ĠassemblÃ©e":13911,"Ġhumide":13912,"Ġmanuscrits":13913,"ĠLewis":13914,"liques":13915,"Ġchantiers":13916,"irant":13917,"extension":13918,"Ġconfusion":13919,"ĠCharleroi":13920,"ĠRoad":13921,"ĠabbÃ©":13922,"Ren":13923,"dits":13924,"arÃ©":13925,"aris":13926,"Ġboy":13927,"ĠFrÃ©":13928,"ĠdÃ©couverts":13929,"Ġsoutenue":13930,"autorisation":13931,"aliÃ¨re":13932,"Ġentreprend":13933,"ĠChev":13934,"ĠPalestine":13935,"Å¾":13936,"atori":13937,"ĠRC":13938,"Ġ1814":13939,"ĠParallÃ¨lement":13940,"Ġamoureuse":13941,"Ġ86":13942,"Ã¼l":13943,"ĠJaponais":13944,"ĠlÃ©gislature":13945,"ĠcÃ©rÃ©ales":13946,"Ġgendarmerie":13947,"Ġoccasionn":13948,"Ġoreilles":13949,"ĠLady":13950,"astes":13951,"ĠDa":13952,"Ã©govine":13953,"ampleur":13954,"Ġintervenir":13955,"entielles":13956,"ĠcrÃ©Ã©es":13957,"Ġinscriptions":13958,"Ġressenti":13959,"666":13960,"ĠpalÃ©":13961,"ĠToulon":13962,"Ġminimale":13963,"Ġanalyses":13964,"Mex":13965,"hen":13966,"ĠDec":13967,"amine":13968,"ĠNos":13969,
[...]
