#version: 0.2
Ġ d
Ã ©
e s
Ġ l
e n
o n
Ġ p
Ġd e
a n
Ġ s
Ġ c
r e
Ġ a
o u
e r
t i
i s
i n
q u
a r
en t
l e
i t
e t
Ġl a
Ġ m
u n
u r
o r
t e
Ġl e
i l
Ġ Ã
Ġ et
Ġ f
ĠÃ ł
o m
Ġ en
Ġ t
Ġ qu
Ã ¨
ti on
r a
Ġ un
Ġ n
e l
es t
ou r
a l
r Ã©
u s
Ġd es
an t
Ġ v
Ġl es
m ent
r i
r o
Ġ Ã©
Ġd u
Ġ 1
an s
Ġp ar
Ġ L
c e
Ġa u
Ġ ,
a s
Ġ C
on t
a u
Ġ est
c h
m e
i e
t a
Ġ b
v e
qu e
Ġd Ã©
n e
o l
r es
Ġ S
Ġ .
Ġc om
s i
s e
t Ã©
Ġ g
Ġ 2
Ġ re
a tion
Ġ M
Ġd ans
Ġ j
a i
Ã© e
c i
a is
d e
Ġun e
Ġ (
â Ģ
a t
Ġ P
Ġs e
Ġp our
a g
l i
Ġ A
Ġc on
o i
Ġp l
m p
a it
Ġc h
Ġ rÃ©
Ġ B
Ġqu i
d i
Ġ in
Ġqu e
Ġs ur
el le
r an
Ġ2 0
Ġ1 9
âĢ Ļ
e u
o s
er s
Ġ D
Ġp ro
t re
Ġ il
Ġ E
Ġ I
l es
Ġ h
a in
Ġ Â
Ã¨ re
Ġ r
ou s
Ġ e
a le
a c
it Ã©
p p
t u
Ġ R
Ã ª
f f
a m
ou v
Ġ o
en d
Ġ F
Ġ T
Ġpl us
v i
a b
ve c
il le
u i
Ġs on
u l
Ã¨ s
ur s
m i
Ġ G
Ġa vec
u x
Ġp as
i g
n Ã©
un e
g e
t er
Ġd i
on s
Ġ J
p e
m b
u e
p r
o is
or t
ai re
Ġa v
Ã© s
Ġ :
Ġ N
qu es
it e
Ġ an
Ġs a
i c
Ġp rÃ©
Ġs u
Ġp r
an d
ĠI l
on n
t es
ĠL e
in e
Ġc e
Ġs ont
Ġcom m
u is
Ġ H
Ã© ri
or s
i r
c tion
et te
u t
Ġ V
i que
Ġt r
Ġ ou
ag e
Ġe x
o t
Ġn e
i en
ch e
o c
Ġpar ti
o p
a d
Ġ ra
Ã §
au x
0 0
c es
in s
is t
u b
Ġa l
ent re
Ġt ou
i on
ĠÂ »
o g
Ġ20 1
il l
ĠL a
ĠÂ «
ĠÃ© tÃ©
or d
Ġau x
Ġcom p
Ã ´
re mi
Ġs i
a y
oi r
t s
on d
ar d
Ġt ra
Ġn om
Ġde ux
n i
a p
en ce
Ġcom me
Ġa r
m es
is e
Ġm o
Ã© es
Ġp remi
Ġs es
Ġcon s
u re
a ti
ĠÃ© ta
Ġa c
i m
Ġc ont
Ġm ais
b re
l le
Ġm ar
t r
L e
ĠC h
u m
a v
) ,
Ġ O
Ġp eu
t res
te ur
an ce
ant s
en s
l Ã©
Ġ te
pr Ã¨s
Ġ K
a ce
Ġf or
Ã ¢
our s
Ġf ait
Ġ 3
Ġ elle
ĠdÃ© c
ĠE n
) .
d u
Ã© r
Ġ U
Ġc ette
i v
Ġ1 8
i d
Ã ł
Ġa pp
Ġn o
ation s
Ġ ont
Ġ W
p ar
s ent
Ġ entre
c o
Ġm on
ĠL es
Ġs er
Ã ®
Ãª me
p h
o it
ti que
e ur
mb re
oi re
er m
si on
Ġl ui
Ġd is
Ġm Ã©
ale ment
Ġ20 0
al is
Ã¨ me
ou ve
ti n
Ġf in
c t
ĠF ran
ouv er
i er
Ġ "
Ġc ar
i mp
o in
Ġc l
r it
c u
âĢ Ķ
o y
ment s
ci p
E n
Ġj e
ro is
al l
ti f
Ġ es
l is
L a
in g
Ã© ra
el les
Ġg ran
t en
r ou
o ci
as s
ĠP ar
tu re
s s
on ne
ain e
ub li
an g
eu x
us si
Ġt er
ai res
Ã© d
e x
Ã© g
Ġ y
Ġle ur
a mp
s t
an te
le ment
ĠÃ© g
Ġj u
Ġ 4
i b
o b
on g
d es
Ġm e
tion s
Ġ20 2
Ã© nÃ©
nÃ© es
Ã ¹
Ġa t
ĠÃ©ta it
Ġch e
m in
v en
ĠÃ© c
Ġ 5
it u
t ra
m Ã©
si d
Ġm Ãªme
Ġs ous
n es
Ġre c
Ġtra v
Ġm a
Ġm il
e c
ĠM ar
en ne
ai ent
ĠrÃ© g
Ġ ti
Ġf ran
Ġ ans
Ġin ter
p uis
qu i
s er
Ġp uis
us e
on c
Ġl ors
Ġp e
p o
Ġo Ã¹
i ent
i re
end ant
Ġa ussi
i ci
Ġd ont
Ġp ers
ĠÃ ª
f or
a te
p l
n Ã©e
Ã »
Ġc es
Ġ19 9
Ġf il
Ã¨ res
is te
Ġde r
Ġa prÃ¨s
Ġtou t
Ġ or
in si
c le
Ġ imp
al es
Ã© ta
ol og
Ġc ou
Ġj us
Ġo b
ti s
ab le
ĠE lle
ti tu
Ġp ol
Ġt rois
m an
Ġs ou
or te
r on
Ġv ous
ĠÃª tre
Ã© n
t h
. .
Ã§ ais
ĠÃ©g alement
Ġav ait
Ġ %
Ġdi ff
ĠÃ ī
u it
t ant
Ġp os
Ġc ol
u er
ie u
Ġb ien
ĠFran ce
e m
Ġ res
Ġp ubli
Ġm in
ĠA n
b le
Ġ on
Ġ ro
Ã© c
Ġpr in
Ġcomm une
Ġa m
Ġcont re
Ġal ors
Ġ 6
Ġte mp
Ġpeu t
Ã© m
Ġ k
Ġsi Ã¨
Ã© v
Ġnom bre
Ġa insi
u ti
Ġse c
Ġcomm un
ri v
f in
is s
ent s
Ġr en
Ġ X
ĠJ e
Ġpremi er
Ġder ni
Ġj ou
Ġ '
l a
Ġa d
al itÃ©
an c
I l
ig ne
Ġfran Ã§ais
i ques
Ġre p
en ti
Ġg Ã©nÃ©
e au
el on
Ã ¯
Ġs itu
j et
Å ĵ
Ġde puis
l Ã¨
ĠdÃ© b
h e
end re
ay s
Ġpremi Ã¨re
Ġ )
Ġt our
Ġp h
te ment
om m
Ġac c
Ã© tÃ©
ain t
en se
au t
v es
v is
m ment
Ġf ut
ch er
p Ã©
Ġc rÃ©
Ġ -
L es
Ġpers onn
Ġc el
ie urs
l u
ĠA l
a pp
Ġ1 7
er t
Ġj our
Ġe ff
Ġ 7
Ġp erm
Ġs ans
co re
Ġtr Ã¨s
Ġpro p
ar i
ur es
Ġcon f
Ġdi re
v er
ent e
ĠD e
Ġn Ã©
v ers
Ġm an
o d
om me
ĠgÃ©nÃ© ra
Ġg rou
e mp
re r
Ġ ;
Ġc er
Ã ī
Ãª te
t ri
Ġs y
Ġcon c
n er
Ġparti e
Ġf aire
Ġ19 8
Ġde v
ci en
ĠÃ© v
Ġa b
Ã© p
ag es
tr u
as se
Ġ 8
Ġqu el
r is
Ġav ant
Ġcon n
in es
ou t
Ġf ois
ĠC e
Ġan nÃ©es
Ġ Q
a Ã®
Ġs oci
ag ne
Ġjus qu
Ġs ui
i Ã¨me
Ġ ent
00 0
Ġc o
ĠprÃ© sent
l er
Ġ19 7
Ġs c
g es
Ġtr ans
ais on
Ġex p
Ġpro f
Ġgran d
u es
Ġp er
Ġn ouv
Ġn ous
uti lis
Ġc our
Ġc a
r ent
Ġv ille
Ġp ays
Ġen core
Ġn ation
Ġse p
g an
Ġ ri
1 9
ĠrÃ© p
a z
Ġa ss
itÃ© s
Ġv ers
Ġplus ieurs
Ġau t
v ent
a re
ol u
Ġre mp
Ġpol i
at h
ti ques
Ġpro du
Ġm ont
ĠÃ© le
Ġin s
Ġpe ti
Ġv o
ĠS aint
Ġp oin
I I
om p
u d
Ġno ta
Ġf am
Ġn ouve
Ġv i
ch es
Ġf em
Ġb as
ĠsiÃ¨ cle
o pp
Ġp o
Ġd it
Ġv ie
il s
om b
el s
Ġ1 5
Ġc or
Ġmon de
Ġt h
ĠdÃ© p
Ġh ab
ne ment
Ġl ong
Ġm ort
o v
U n
rÃ© e
Ġm us
Ġprin cip
vi ent
Ã» t
Ġtrav a
Ġav oir
Ġgrou pe
ĠI n
ri c
Ġ Y
o de
Ã©ri c
i f
vi er
ou te
it s
r u
ction s
i es
Ġ 9
Ġt ous
Ġn i
l an
Ġra pp
Ġm al
Ġs Ã©
Ġpl ace
ou l
Ġ1 0
Ġc in
Ġes p
Ġtemp s
ĠÃ© p
Ġperm et
us s
p es
o se
te urs
Ġa ff
Ġnota mment
Ġc ap
tÃ© ri
ĠdÃ© f
Ġcer ta
Ġp op
i ch
m and
Ġs ta
ti v
at s
Ġs ol
ĠPar is
Ġan n
tÃ© s
Ġle urs
ĠU n
il les
v el
Ġ 000
t on
Ġmo ins
li g
ta ts
Ġqu at
Ãª tre
ag n
Ġd ro
Ġ1 6
ĠprÃ© sid
Ġ19 6
ce p
a k
ĠdÃ© par
Ġ19 4
Ġpop ul
Ġf ond
ig n
Ã¨ ne
uer re
Ã©ri e
qui pe
v re
ĠA u
o le
Ġo ff
ie ux
Ġd onc
ĠrÃ©g ion
2 0
Ġv is
er n
ĠrÃ© alis
in t
Ġ utilis
ti ve
ĠA r
m er
ĠP our
ille t
on e
Ġm es
Ã© lÃ©
tÃ© g
Ġau tres
ra ph
i a
Ġpas s
ri Ã¨re
Ġin c
l us
Ġa s
rÃ© sent
Ġf a
m Ã©e
Ġdiff Ã©r
m is
mb le
Ġr est
es se
eu re
ch Ã©
c c
ant es
ta t
Ġmil li
Ġnouve au
Ġch amp
elle ment
di tion
Ġp ri
ro p
en n
on de
ĠÃ© tu
l o
p i
ĠprÃ© c
Ã© rÃ©
ra it
ain s
Ġfil m
an vier
Ġser vi
Ġrep rÃ©sent
a teur
ĠÃ Ģ
Ġm at
in d
p er
Ġa g
Ġp ouv
us es
Ġc Ã´
Ġj anvier
Ġs oit
gan is
Ġs aison
Ġil s
ĠM ais
Ġg ouver
te mbre
Ġm ai
si tion
Ġ Z
Ġs elon
or ti
Ġch ar
Ġc ours
Ġv er
Ġfam ille
ĠdÃ©b ut
Ġm is
Ġp Ã©ri
a de
ĠrÃ© s
Ġn on
Ġsep tembre
l ie
ri er
Ġc an
at ure
c ont
ĠQ u
il i
Ġhab it
Ġf r
ar t
ac c
Ġsu ite
Ġtou te
s u
on om
vel opp
Ġju in
Ġ z
ĠJe an
Ġc as
a vi
Ġin di
Ġju illet
Ġsui v
Ġen f
o Ã»t
Ġ1 2
g Ã©
ci d
qu Ã©
g n
Ġl Ã©g
g l
Ġe mp
a que
r Ãª
Ġp endant
Ġse u
Ġm en
Ġ19 5
ĠR e
r il
a h
Ġ1 4
Ġd ou
el l
Ġl i
Ġl ieu
Ġmo y
ĠO n
Ġparti r
au tres
ais s
Ã¨ tres
ĠD ans
Ġm et
ĠU ne
l ar
ĠdÃ© velopp
Ġam Ã©ric
Ã© t
Ġquel ques
te l
ri b
Ġgran de
i ons
ain es
ur ant
ĠC ette
Ġl oc
c ou
Ġcom pr
i x
z e
an n
Ġd om
Ġmar s
Ġquat re
Ġe ur
Ġapp ar
ĠÂ» .
Ġpubli c
Ġk m
is on
u g
Ã´ le
ouv ent
Ġc li
Ġm ois
ĠT h
j ours
a ta
is se
a ch
for m
Ġcl ub
Ġ1 3
o w
o bre
Ġ im
n ation
Ġp res
Ġin f
Ã©ra tion
Ġnouv elle
pe c
Ġ ?
Ġp or
ĠÃ© t
is tre
Ġ1 1
li er
Åĵ u
b les
Ġd on
o h
Ġc ent
Ġf on
g ra
Ġv ic
Ġo ct
ve mbre
rÃ© s
Ġp i
p s
og raph
Ġs al
Ġre t
o re
Ã©ta it
u c
r y
Ġ19 3
our d
f ois
er g
A n
Ġf er
Ġj ours
Ġti tre
Ġre g
m ar
c ul
ist oire
Ġno vembre
Ġche z
Ġderni er
Ġsu d
Ġimp ort
ra s
Ġcel ui
Ġs Ã©rie
iv ers
Ġre pr
Ġg r
Ġc ul
ro s
i ti
om mes
ĠdÃ© ce
Ġmo d
Ġn ord
ran d
am b
Ġoct obre
f ic
ille urs
Ġpar t
Ġfor m
Ġa oÃ»t
Ġm ain
Ġv ill
di c
Ġpersonn es
li c
Ġv ol
Ġau tre
Ġtou jours
ier re
tÃ© e
olu tion
Ġs p
ser v
ra in
a me
ĠdÃ©ce mbre
o k
Ġre l
l and
Ġde vient
i onn
Ġparti cu
it aire
ĠC ar
Ġs orti
ĠÃī tats
1 8
ĠdÃ© j
pÃ© ci
.. .
Ġmat ch
Ġpoli tique
su ite
Ġc elle
Ġter rit
l in
ti er
Ã´ t
Ġav ril
ent es
it er
ĠE t
Ã¨ ce
Ġg ra
Ġcon tin
oi x
Ġr ou
Ġs pÃ©ci
ĠN e
Ġdis p
Ġren cont
Ġv en
Ġg uerre
ĠprÃ©sid ent
v in
ĠgÃ©nÃ©ra l
ien ne
ais e
Ġni ve
or i
ĠdÃ©par tement
op Ã©
Ġc ri
Ġf ace
it es
Ġo c
Ġhabit ants
g ne
h ui
g er
Ġt ant
Ġeff et
Ġapp el
is me
Ġa ur
co le
an ge
Ġb eau
Ġpr Ã¨s
ĠdÃ©j Ãł
mb l
ĠÂ» ,
Ã©v rier
Ġpro jet
ti ent
Ġl iv
Ġser a
f i
op h
Ġgouver nement
Ġ eu
Ġs t
y ant
Un is
Ġcomp os
Ġf Ã©vrier
u el
al i
ĠÃ©ta ient
Ġv a
qu er
Ġ âĢ
Ã¨re ment
ur o
Ġro i
Ġde ven
Ġp ort
si ons
Ġpoin t
ĠrÃ© f
an e
Ġin d
f s
en c
Ġt ard
is es
our g
Ġjou e
b um
Ġre tr
a ur
Ġcons titu
ĠpÃ©ri ode
l s
le x
Ġl igne
c teur
ĠdÃ© s
or m
Ã¨ rent
en ces
Ġj eu
ol es
b e
ab les
ĠCh ar
ĠrÃ© c
Ġt y
it al
at ri
ien s
Ġg ar
l ise
Ġcom b
un i
p endant
man de
Ġcomp te
Ġth Ã©
Ġtou tes
Ġp orte
Ġcon sid
Ġd onn
Ġn ature
Ġd ist
t al
Ġinter nation
Ġen suite
Ġsitu Ã©e
a Ã¯
Ġl ib
Ġc et
Ġdeux iÃ¨me
b il
k e
le ction
ati que
Ġret our
y le
Ġen vi
Ġcou p
Ġmon di
Ġf l
Ġpl an
j ourd
Ġb ou
an de
an ces
Ġpro b
Ġcon se
t ent
Ġ 0
as si
Ġma j
vis ion
Ġtr ouve
Ġb r
or is
Ġpopul ation
olog ie
ces s
te mp
Ġd oit
Ġres te
aÃ® t
Ġeur opÃ©
Ġfor me
Ġo p
Ġcont ra
eur es
Ġ /
ta it
oi res
Ġre Ã§
ist or
ĠC on
Ġan nÃ©e
j oin
Ġsu cc
a x
ur ent
Ġfem me
ĠfranÃ§ais e
e ment
Ġf ra
po que
Ġsu pp
Ġrapp ort
Ġex emp
Ġr om
Ġfil s
Ġm oi
ĠD es
Ġcel a
Ġfon ction
Ġc amp
Ġor ganis
v Ã©
d re
ĠS h
ĠS on
Ġparti cip
si onn
Ġsu b
Ġp Ã¨re
ate urs
Ġt Ã©lÃ©
ĠIl s
Ġt Ãªte
Ġvill age
Ġ3 0
us se
Ġje une
A r
au l
i Ã¨re
Ġc ir
Ġb ut
Ġ2 5
ati ve
v oir
Ġcin q
Ġc ad
Ã¢ te
Ġch aque
Ã© b
y n
A u
au d
re t
ĠdÃ© m
y s
Ã¨ de
is tes
Ġm om
ĠM ont
Ġcons tru
Ġsy st
Ġc entre
Ġch er
an nÃ©e
ra tion
Ġt en
Ġoff ici
Ġf ais
Ġnive au
Ġsec ond
Ġcli m
ill er
v o
Ġc i
d a
E lle
Ġb ar
Ġs ig
ra i
Ġ201 8
Ġnombre ux
il li
as t
Ġ id
ri que
Ġl ar
ot h
ui re
Ġ202 2
Ġv oit
e z
ĠA prÃ¨s
Ġpr om
Ġa fin
m a
Â «
Ġse ul
il es
Ãī tat
i le
Ġtrav ers
Ġv oy
Ã Ģ
a ff
Ġm er
ĠS e
Ġh omme
ra ge
a di
Ġs ouvent
si ble
Ġpouv oir
Ġc ro
g u
Ġte ch
Ġal le
Ġfem mes
on es
Ġsoci Ã©tÃ©
Ġmilli ons
I n
Ã¨ le
Ġre f
uro pe
er ie
Ġcar ac
i o
cou p
li que
cu p
Ġ {
ĠC or
ĠT he
ai r
in c
Ġpeu vent
om e
Ã¨ te
Ġo f
Ġes s
am ais
g rÃ©
Ġ19 2
Ġs ite
ĠdÃ© si
ĠC l
Ã¢ ce
ĠÃ© tant
Ġb Ã¢
Ġre cher
min ist
Ġche f
ĠS t
Ġdi ri
Ġpri x
c ri
Ã© quipe
Ġt u
ĠX V
Ġt erm
Ġd oc
A l
Ġdev ant
ĠB ar
l les
y c
Ġs our
Ġmin istre
Â »
Ġnation ale
Ġ202 0
Ġpr end
Ġl it
se au
ĠP h
Ġa yant
ti en
Ġb l
Ġh ommes
Ġat te
Ġenf ants
Ġr end
ig ine
tif s
Ġd Ã¨s
Ġqu and
ĠÃ© ch
Ġun ivers
Ġrec onn
Ġen se
Ġse m
ou is
qu el
alis te
Ġpro c
po se
ĠB el
ti c
Ġcl asse
D e
Ġtrava il
es tion
ĠB r
m o
qu elle
Ġra ison
e d
mb res
Ġterrit oire
Ġmom ent
Ġcommun es
Ġj amais
un es
ta tion
in ter
ĠÃ© quipe
le ur
Ġ ouv
enn ent
Ġcons er
ĠcÃ´ tÃ©
Åĵ ur
Ġ201 0
ĠC es
Ġmais on
Ġnation al
au me
le t
ou se
Ġac tu
Ġla quelle
Ġ201 5
Ã§ on
Ġs au
ĠG u
nÃ© s
Ġre m
Ġqu ar
Ġjour n
r ant
au tre
l ac
Ġ Åĵu
gra m
er a
Ġes ti
Ġservi ce
Ġpeti t
p Ã©ri
an ci
Ġcerta ins
an ti
ĠC ol
Ġpar c
u te
Ġf ort
Ġb at
k i
ĠS a
h istoire
ĠJ ac
Ġdro it
Ġsi x
ĠS i
ĠC ou
Ġme mbres
Ã© cu
Ġ ord
Ġpr is
u li
s on
Ġc al
Ġ201 9
Ã© l
ĠÃ©c rit
Ġ19 1
Ġbeau coup
Ġ2 4
Ġbas e
o ot
ou est
Ġde mand
Ġmar i
v al
Ġr ue
Ġm ati
es p
Ġ202 1
Ġ !
Ġm ag
Ġin st
Ġv it
Ġr Ã´le
Ġsitu Ã©
Ġpl u
Ġv iv
D ans
Ġh istor
g ent
Ġcomm er
or igine
Ġd urant
cid ent
res s
Ġm ouve
Ġ w
Ġg Ã©
Ġl im
Ġme ille
en nes
Ġqu it
Ġpos s
ur b
Ġsyst Ã¨me
o x
on ce
et s
ra Ã®
Ġh au
ap on
tr uit
ĠbÃ¢ ti
Ġcap it
Ġm ot
u le
s ence
Ġvic t
b all
Ġs cien
r ont
Ã ¡
Ġchamp ionn
Ġ2 1
Ġsi mp
Ã© ti
Ġb i
Ã©r ence
Ġeff ec
Ã¢te au
Ġtrois iÃ¨me
o vi
Ġderni Ã¨re
Ġl ang
ĠdÃ© fin
Ġal l
Ġau c
Ġau jourd
Ġro y
p ort
Ġprop os
j ou
Ġt rop
Ġ201 4
Ġc eux
Ġgr Ã¢ce
Ġse in
Ġ2 3
ĠP ro
Ġl Ãł
aiss ance
Ġ2 2
ran g
Ġexemp le
Ġf ille
Ġcar riÃ¨re
Ġv oir
Ġb on
Ġf aut
s p
i de
c ture
ĠÃ© qui
is sion
Ġpremi ers
Ġp ra
ouver t
ard s
Ġ201 1
ĠÃ©ta b
Ġtr ou
Ġm uni
ĠrÃ©s ul
ag it
Ġ201 7
Ġh um
Ġ elles
Ġm Ã¨tres
ĠJ oh
re g
Ġ â
as ion
Ġme mbre
ri e
g ment
ra l
ci pe
ti Ã¨re
olog ique
d is
m Ãªme
Ġg en
ĠrÃ© v
se ment
Ã¨ ces
ĠM on
Ġre join
Ġat t
ĠC an
Ġch ans
Ġ19 0
ra le
ĠNe w
Ġc r
Ã© ro
di tions
Ġar riv
Ġnom mÃ©
5 0
av ant
c k
and is
or itÃ©
ch i
Ġprof es
o ff
ĠprÃ©sent e
Ġar tis
pi de
y p
Ġcor ps
Ġpas se
Ġ201 6
our n
Ġlar ge
Ġno tre
pr ise
g ue
Ã§ ois
ie ur
Ġpro vin
Ġt omb
Ġnombre uses
ĠA m
h i
al if
Ġdi x
Ġsucc Ã¨s
ve ment
ni vers
t o
Ġm ise
ĠN ord
Ġenvi ron
k a
Ã© lÃ¨
es s
Ġtr ouv
Ġ201 3
Ġcul ture
res sion
Ġseu lement
temp s
v ant
au tÃ©
Ġs oi
Ġmil ieu
an i
tion n
ĠG e
ur g
v res
Ġ201 2
tÃ©ri eur
t or
ve z
Ġfin ale
on ie
Ġor ig
du it
Ġm Ã¨re
Ġdes s
ĠÃ©c onom
Ġf ont
Ġh eures
ĠM al
ĠamÃ©ric ain
en ant
Ã© li
id Ã©
i ce
ĠS ch
Ġ202 3
C h
o ta
Ġf eu
ĠdÃ©c lar
Ġpoin ts
us tri
Ġat ta
Ġra pide
ĠrÃ©p ond
Ġf ac
Ġtour n
Ġmondi ale
Ġpro gram
cri p
Ġcad re
ĠÃ ¢
g le
Ġav aient
Ġre v
Ġ eux
t out
F ran
ri g
in f
an o
ĠnÃ© cess
Ġcont r
di o
Ġmuni cip
Ġan cien
Ġass oci
Ġal bum
oc k
Ġri en
Ã¨ se
Ġre ven
Ġpos te
se z
er re
Ġr is
ab ord
ig ue
Ġvi ol
ie d
Ã© qu
Ġph ot
er ne
i tion
Ġlong ue
Ġvo tre
Ġpl ac
Ġp le
Ġde mande
Ġrencont re
Ġs ort
ĠP ierre
ant Ã©
in a
re u
l am
Ġ200 9
ra ine
y d
Ġt andis
Ġpeti te
Ġ200 8
di d
Ġmus ique
Ġex c
Ġtech n
d am
ten ir
en g
Ġ2 6
ĠS ud
M ar
rib u
ĠM e
Ġl oi
Ġf ig
l ab
x im
Ġma Ã®
ten ant
en de
Ã «
ĠB e
Ġdiff us
ubli que
Ġp riv
c rit
v oy
y si
Ġsy n
l y
Ġ2 8
Ã© ch
Ġs us
A prÃ¨s
it h
Ġr oute
po sition
Ġan ci
onne ment
ĠX I
Ġaur ait
ar ch
ĠO r
Ġ2 7
Ġ{ \
t ro
II I
Ġqu alif
Ġconn u
Ġpr endre
Ġv oix
ĠI I
Ġcarac tÃ©
ĠprÃ© f
ĠL ouis
j ec
Ġan gl
u p
ac tion
ur Ã©
Ġs ais
C ette
ĠdiffÃ©r ents
e ff
Ġde mi
Ġsu pÃ©ri
er b
ĠM ich
at t
Ġ18 9
ĠG rand
Ġmoy enne
v ille
Ġparticu li
or k
j e
le c
Ġch Ã¢teau
Ġf oot
Ġty pe
ĠmÃ© di
for me
Ġaut our
pp e
Ã©c ur
ass in
Ġprofes sionn
Ġre lig
Ġter re
c s
Ġser ait
Ġac tiv
v ous
Ġdon nÃ©es
au che
as e
aÃ® tre
Ġcomm ence
Ġprop ri
os s
i me
ĠdÃ©velopp ement
Ġprodu ction
Ġsur tout
i k
p rÃ©
ĠR oy
ĠdÃ© pl
ĠV al
y l
ĠR uss
Ġmar qu
ĠJoh n
ĠM an
on y
Ġorig in
Ġpour s
Ġgrand s
ci de
ĠD i
Ġv eu
i ers
or ie
Ġ18 7
u tÃ©
Ġb rit
Ġmes ure
lÃ© ment
l ace
ĠC om
ati ques
Ġn um
Ġ20 00
Ã ³
ĠCou pe
Ġk il
h a
Ġd onne
d er
Ã¢ tre
Ġ18 8
Ġex pl
Ã© poque
am bre
ex p
h ab
Ġob serv
Ġres p
u elle
Ġje unes
ĠÃ©tu di
Ġcl ass
is ion
ĠC el
a ille
u ment
Ġdi vers
Ġp u
Ġpe in
Ġn os
Ġv ari
ri r
ĠR ob
1 7
ic ation
Ġsc Ã¨ne
Ġz one
C e
Ġesp Ã¨ce
Ġca use
Ġdire ction
Ġcan did
et tre
Ġl anc
ĠS ur
or ation
ous s
v a
Ġpar mi
ois e
Ġchampionn at
an a
onc Ã©
Ġf rÃ©
Ġen g
Ġc rois
at oire
Ġt able
Ġb ata
en f
Ġalle mand
ĠH en
Ã Ń
Ġman iÃ¨re
m agne
Ġr Ã¨
Ġseu le
ĠcaractÃ© ris
qu Ãªte
du c
it aires
Ġeffec tu
ib le
les s
Ġnouv elles
Ã ¼
Ġc ath
Ġn avi
Ġpubli Ã©
c ad
Ġ200 7
Ġt ent
ouver te
Ġan im
Ġtrav aux
Ġremp orte
ici le
Ġch ange
Ġ5 0
Ġprodu it
ĠL ors
ter n
pl ay
end u
ĠÃ©tu des
ĠR Ã©p
ne ur
Ġpar fois
us tra
or tÃ©
Ġconstru ction
mi que
o te
Ġh aut
a prÃ¨s
Ġter me
s se
ĠT r
Ġt ri
Ġrecher che
isse ment
Ġmouve ment
Ġcomm enc
Ġresp ons
ĠS u
Ġmet tre
Ġ1 00
ĠÃ©le ct
Ġ2 9
ic k
Ġb ois
Ġlors que
Ġp ens
av ait
Ġtra dition
Ġmil itaire
c on
lle magne
lan de
rÃª t
Ġf ai
par t
ĠC omm
alitÃ© s
Ã© tu
Ġm eur
ĠChar les
P our
Ġkil om
Ã©ri que
u tes
i res
Ã¨ nes
a e
ĠG uerre
Ġdis par
Ġ200 6
ĠÃ©le ctions
ĠprÃ© v
Ġform ation
g ique
Ġ18 6
Ġpers onne
tive ment
ĠrÃ©alis Ã©
ad a
ĠcrÃ© ation
c an
ĠB er
d Ã©
m en
Ġr usse
ar mÃ©e
Ġsu jet
Ġf Ã©
b y
Ġqu estion
Ġs ens
Ġ âĢĶ
i ra
ĠdiffÃ©r entes
Ġpuis s
Ã©m ie
J e
Ġad minist
ten u
des s
ĠrÃ© seau
oc ra
d it
Ġsu c
mÃ© di
ense mble
Ġn uit
Ġver sion
ab lement
Ġdire cteur
qu ant
ol y
Ġb ord
ti e
Ġp ied
ĠFran Ã§ois
ar s
Ġre tra
ar a
is ation
titu de
ĠÃ §
ti ne
pec ta
Ġquel que
Ġvict oire
Ġliv re
Ġte x
Ġ ital
ĠP remi
h Ã´
os Ã©
av oir
i Ã©
Ġt ot
Ġf us
ou n
qu ent
de c
Ġce pendant
d uire
Ġcomp Ã©ti
Ġd ate
u mi
ĠsÃ© lection
Ġrec ense
Ġjou eur
Ġsu is
Ġparticu lier
ul ti
u k
Ġt he
ons ieur
Ġpos sible
Ġa mi
ang er
Ã¨ mes
Ġle quel
Ġb es
Ġsu ff
Ġd ra
Ġl iste
Ġch ois
ĠI s
ĠdÃ© n
ĠprÃ©c Ã©d
ann ique
Ġparti cipe
Ġmoy en
Ã¨ ge
Ġsig ni
c ons
Ġm or
agn ie
tÃ© ra
Ġreg ard
ti l
ĠÃ§ a
Ġtemp Ã©ra
qu et
ĠdÃ© ta
a w
ĠP e
Ġdon nÃ©
ti cle
v ie
p ond
Ġ17 9
Ġemp l
Ã© ment
Ġprincip ale
Ġp a
al ais
Ġterm in
st yle
Ġprovin ce
il itÃ©
ĠS elon
Ġfr Ã¨re
Ġn eu
bil itÃ©
oc c
Ġpo sition
ĠrÃ© un
Ġent raÃ®
ind re
ac t
ĠA b
Ġg auche
Ġf it
le y
dis play
display style
Ãª t
le urs
Ġsu per
Ġsta tu
Ġas sez
Ġdis c
a f
Ġgen re
Ġd oi
Ġres s
l it
Ġd ur
Ġm m
Ġcomb at
Ġs Ã©cur
Ġprop re
1 0
a j
Ġpremi Ã¨res
1 5
Ã©g lise
Ġc ant
Ġau gment
Ġcomm and
Ġsuiv ante
Ġdire c
le v
ĠCh amp
ĠS al
Ã¢ ge
Ġprof esse
Ġsa voir
Ġ is
Ġs ign
Ġv ue
ĠdÃ© rou
o des
Ġscien tif
Ġv ale
c al
s ur
ĠsiÃ¨ ge
ard in
ĠeuropÃ© enne
U ne
Ġ199 0
ten tion
or ganis
en si
Ġsec onde
Ġsitu ation
Ġun ique
tal ie
or ter
res se
Ġ200 5
ĠprÃ© sence
h omme
ĠÂ °
Ġcons truit
Ġpro g
Ġca tÃ©g
Ġa illeurs
ot te
ni ques
Ġin v
3 0
p le
Ġb Ã©nÃ©
Ġo pp
ĠP r
ĠRuss ie
ouv re
Ġdi vision
Ġl oin
Ġsep t
ain te
Ġcerta ines
Ġm ieux
er ta
ĠGe or
Ġplu part
rÃ© es
an ne
ĠCon se
ĠRÃ©p ublique
Ġentre pr
ait e
oci ation
ati ves
cep tion
Ġkilom Ã¨tres
ĠM ac
ĠR o
Ġv oul
oc cup
Ġcommun autÃ©
Ġf urent
mis sion
Ġf Ã©d
l ant
Ġdis tin
ch et
g Ã©e
ĠM us
Ã©v olution
igne ur
Ġv u
Ġv idÃ©
Ġ202 4
Ġpour rait
Ġdiri ge
Ġy eux
Ġn Ã©g
Ġv rai
O n
ĠL i
orm ais
Ġconse il
ĠN o
Ġch i
ĠE l
ord re
ĠM ad
ĠG r
Ġmar que
Ġfin alement
ter re
s titu
res pond
oi gn
au te
Ġch ap
Ġin iti
ĠmÃ© dec
Ã©r it
Ġin form
Ġremp lac
ta ire
Ġl ut
E urope
Ġpar ta
Ġmin ist
Ġar rÃª
as h
Ġutilis Ã©
Ġv ing
Ġv Ã©
Ġsta tion
Ġb less
Ġdro ite
Ġimport ant
Ã© an
ĠJac ques
Ġan ti
Ġz ones
ay e
Ġl ance
ou d
P ar
Ġb al
ĠS te
ĠH e
Ġob tient
crip tion
ou le
es tiv
Ġcin Ã©m
ar de
ĠÃ©qui pes
Ġ3 1
Ġacc omp
ĠConse il
Ġb el
Ġg az
Ġchans on
Ġcom ment
ĠAn d
Ġrom an
Ġdi pl
en vi
Ġrapide ment
Ġcom te
Ġangl ais
ĠdÃ©f ense
Ġse x
ar es
Ġcor respond
Ġacc ue
ĠC ons
ĠP lus
onn es
Ġbrit annique
Ġacc ord
Ġb an
Ġgran des
Ġ199 9
Ġl og
1 6
r ist
po si
Ġla iss
Ġp at
Ġfa Ã§on
Ġv oi
ĠcrÃ© Ã©
b ert
Ġ +
est re
Ġs pecta
end ance
re c
ĠC o
ĠdÃ©par t
n ie
in ation
} }
r ite
Ġse mble
Ġau prÃ¨s
en ir
ol d
ĠT e
ad es
Ġs antÃ©
Ġper d
ĠBel gique
Ġf av
Ġaff ir
Ġpas ser
onne ur
Ġmin utes
iv er
Ġ4 0
Ġvoy age
ĠÃ©p is
Ġcontin u
n a
h eure
gle terre
Ġpass Ã©
ĠH ar
s y
ĠP aul
al d
Ġen reg
ti ce
Ġcamp agne
Ġg al
Ġsou ff
Ġlors qu
ut Ã´t
ĠamÃ©ric aine
ĠMar ie
Ġconf ir
Ġph ysi
ill Ã©
or Ã©
Ġpro che
ven tion
h Ã©
Ġcons ac
Ġs oir
Ġsem aine
Ġv ois
di en
ĠF in
ĠM or
ĠD u
Ġclim at
m ain
ĠY ork
Ġb onne
ar c
ti Ã©
Ġf ab
ĠreÃ§ oit
Ġaut or
Ġservi ces
Ã ¶
b ourg
ĠCe pendant
Ġs tru
ĠS p
ti ers
Ġrejoin t
Ġdom aine
Ġl ig
Ã© cole
sp agne
ĠA d
Ġvic ti
Ġ us
ĠdÃ©s ormais
ĠrÃ© par
Ġ urb
is l
Ġh ors
Ġdonn er
ĠE urope
1 2
Ġadminist ra
Ġf erm
l Ãł
Ġprincip alement
ĠfÃ© min
Ġc it
re ur
ag er
estiv al
Ġconser v
Ġin tÃ©
Ġcol lab
Ġprodu its
Ġ200 4
Ġe mb
in i
Ã¨ tre
u les
ĠsÃ©cur itÃ©
ai de
Ġfoot ball
Ġcl assi
ĠPh ili
Ġc elles
Ġv ient
ol ique
o sition
Ġt Ã©m
ĠV ous
an cien
l or
Ġnouve aux
Ġprincip al
Ġsorti e
ill on
at ta
Ġpl utÃ´t
Ġan d
Ġpl ate
ur a
Ġre mar
Ġcher che
Ã´ me
ĠDe puis
Ġ iss
Ġquar tier
Ġcommer ci
Ã¨ ve
f rique
ro g
Ġche min
ig h
du ction
Ġinternation al
Ġch ose
ĠS ta
tis te
ĠL ond
Ġann once
ouver ture
ent rÃ©e
di re
o ti
tri b
ĠdÃ© cid
ĠA lex
Ġmeille ur
ĠP l
Ġapp r
ĠR en
ro ph
Ġcontr Ã´le
Ġprogram me
Ġt aux
al y
Ġter rain
ur i
Ġn oir
Ġretr ouve
ri d
Ġdes c
all Ã©e
Ġman if
re z
ri ve
ati f
Ġcol lec
c l
Â °
ra ient
c les
Ġtot al
Ġpro t
ĠT our
Ġbata ille
g h
Ġp ub
b er
tÃ© es
am es
Ġp il
al bum
ĠG ran
ĠS er
Ġs omm
ograph ie
1 4
o ie
Ġmal grÃ©
ĠF or
Ġst yle
i ment
Ġfor ces
ĠB en
a illeurs
Ġ Ð
ĠÃ ®
ĠL igue
Ġpoli tiques
ĠrÃ©g uli
c re
ĠN ous
Ġex iste
k raine
Ġmatch s
Fran ce
ĠPar ti
Ġm ulti
Ġpoli ce
os es
Ġet c
Ġ18 4
Ġlang ue
lÃ© g
ĠN ouv
ĠA vec
t te
Ġind Ã©p
Ġgrou pes
Ġsur f
it y
ro Ã¯
ĠJ apon
ais se
Ġjoue urs
Ġris que
nivers itÃ©
Ġcour se
Ġcompr end
Ġmar chÃ©
or de
ĠrÃ©f Ã©rence
in tÃ©
et h
Ġh uit
Ġh eure
ve ur
Ġn Ã©e
Ġch ac
et tes
Ġchar ge
Ãª tes
ĠÃ© poque
o e
r onnement
in te
Ġcir cons
Ġm i
ĠC our
ĠÃ© lu
Ġpr ise
ĠdÃ© cide
ou x
k y
Ġsal le
m Ã©es
Ġex tra
qu is
Ġsou h
Ġri vi
O r
Ġauc un
y th
alis tes
Ġpres que
ĠrÃ©sul tats
m il
o ins
s h
Ġg are
Ġd oute
onom ie
Ġappel Ã©
Ġtrans port
Ġdro its
Ġla b
qu Ã©e
Ġpar ce
ĠS ec
os er
use ment
Ġpro te
Ġc Åĵur
Ã® le
Ġ i
Ġparticuli Ã¨rement
Ġfais ant
on i
Ġveu t
ĠHen ri
Ġense mble
Ġt rib
ort s
u y
Ġpubli que
ac itÃ©
L ors
Ġar ch
Ġrou ge
l Ã©e
re ux
Ġte lle
Ġ200 3
Ġcons ul
Ġen d
Ġconsid Ã©rÃ©
Ã« l
c ar
di fi
Ġpres se
Ġder riÃ¨re
ar gent
ag ue
ĠB l
ĠE x
Ãª mes
Ġrecense ment
in Ã©
ro che
ĠS an
Ġderni ers
Ġprofesse ur
pe ct
ĠmÃ© da
Ġlit tÃ©ra
Ġesp agn
occ asion
Ġcant on
Ġen fin
Ġp atri
Ġg ros
Ġma tÃ©ri
ol i
Ġexp lique
mÃ© n
Ġs tu
m Ã©s
le u
Ġv al
Ġsuiv ant
Ġbl anc
Ġvo ie
Ġunivers itÃ©
ĠÃ©p ouse
Ġinternation ale
ite ur
ĠtempÃ©ra ture
Ġtr ouver
el d
Ġc Ã©lÃ¨
ĠrÃ© sid
d uis
Ġser ont
Ġmus ic
y on
Ġac cep
Ġa jou
Ġa li
r ond
m ont
Ġl o
ĠM i
ĠR ome
Ġ200 1
ĠÅĵu vre
Ġind ustri
Ġles qu
Ġfor ce
ĠcompÃ©ti tion
' s
oly mp
Ġm as
Ġs ac
ite ment
Ġ18 5
Ġg ens
Ġch aÃ®
Ġ200 2
Ġsuc ces
ex pl
Ġaut om
Ġen voy
Ġimport ante
Ġpub lie
Ġcomp agnie
Ġr endre
land ais
Ġte ls
Ġpeti ts
ĠgÃ©nÃ©ra lement
ĠâĢ ľ
p t
ti ves
Ġcons Ã©qu
ort h
Ġconn ue
reu ve
Ġ199 8
g ie
ĠA insi
ci ence
Ġ olymp
Ġg u
ĠW e
Ġd ol
Ġ198 0
Ġann oncÃ©
1 3
ĠdÃ©si g
Ġsc Ã©n
Ġin tÃ©g
ne ments
Ġcon dam
Ã©ta t
Ġclasse ment
au v
h am
Ġreg rou
Ġatte int
Ġv illes
Ġdoi vent
lic ation
Ġa ra
Ġtrans f
Ġf ourn
b res
ĠD ieu
Ġ ici
Ġmaj oritÃ©
e urs
Ġcapit ale
f ique
ure r
tÃ© roÃ¯
Ġposs Ã¨de
Ġs enti
Ġvol ont
l en
Ġchamp ion
t an
ar riv
_ {
r Ã¨s
ĠXI X
un ivers
Ġhistor ique
ĠP ri
Ġdiff ic
Ġs igne
ot s
Ġh Ã´
Ġse mbl
ĠC as
ĠlÃ©g isl
ĠAl ors
Ġres pec
o z
is c
Ġ% ),
Ġf ix
form ation
ĠprÃ©c is
Ġla c
Ġv endre
tiv itÃ©
ĠS es
Ã§ ant
Ġmar ch
ĠthÃ© Ã¢tre
occup ation
qu oi
ter min
Ġh istoire
ĠC omp
ĠvidÃ© o
ro id
ĠbÃ¢ti ment
ĠÃ©t rang
Ġph il
h ic
ĠAn g
Ġ5 00
Ġfilm s
Ġmati n
Ġm onsieur
o rer
ĠcinÃ©m a
Ġcontra t
Ġli bre
ĠP er
Ġpass age
es te
ĠâĢ ĵ
Ġmod Ã¨le
Ġving t
Ġmis sion
Ġcom tÃ©
Ġ ir
ĠÃ©conom ique
ĠprÃ© cip
Ġt est
ĠS oci
is sent
Ġv ain
ĠCh ine
ĠLond res
e mb
Ãª que
Ġs ing
ac es
Ġsol d
olog ne
Ġp ont
Ġp Ã©n
ĠN or
Ġh a
n ent
b erg
ĠG al
Ã© tique
Ġp au
Ġfin anci
mbl Ã©e
Ġpro pose
Ġauc une
Ġob jet
Ġpra tique
ĠmÃ© th
ĠFran Ã§ais
ob jet
al og
Ġ197 0
itu de
ĠNouv elle
f ait
Ġch ambre
age ment
illi am
Ġcon ditions
t Ã¨re
Ġqu ant
ĠRob ert
Ġdou ble
avi d
2 00
h um
Ġtradition n
Ġg l
Ġref us
ĠmÃ© dic
ra ges
Ġmus Ã©e
ĠM in
Ġsimp le
dess us
o od
Ġvis ite
an ie
ĠN ic
en tif
Ġsec rÃ©
ĠreÃ§ u
ĠE d
ĠJ eux
Ġl un
it ations
ose ph
Ġterm ine
ĠvÃ© hic
ĠsÃ© par
Ġess enti
Ġsem aines
S elon
Ġanci enne
igne ment
Ġ =
Ġexp Ã©ri
Ã¨ que
olog iques
Ġmoi tiÃ©
Ġtrava ille
Ġsour ce
Å į
Ġg ard
on ique
Ġdeven ir
ins t
Ġcomp orte
m y
Ġr u
Ġsol s
Ġderni Ã¨res
Ġat trib
Ġb out
e k
in o
Ġ199 1
ĠB ra
S S
Ġprin ce
Ġcompr is
ĠÃ©ta t
ĠB re
lu ence
Ġre ti
Ġ% ).
d s
ĠÅĵu vres
Ġmeur t
Ġjour nÃ©e
Ġim m
ĠÃ© lÃ©
u ments
ĠCel a
Ġ uti
ar m
ĠM er
Ġpro tÃ©g
al ise
ĠM os
ĠR ou
duc ation
at es
Ã©d Ã©
Ġab and
Åĵu vre
Ġbes oin
ri ct
ri ce
Ġpos si
c te
t y
jec tif
ch ant
tri ce
l on
Ġcar te
ĠdÃ©c ision
Ġf ron
Ġpro ch
ĠÃ©v Ã©
ĠG ra
Ġdol lar
Ġch oix
ĠÃ© dition
ĠgÃ©nÃ©ra le
Ġc iv
Ġesp Ã¨ces
a ie
alis ation
Ġpe ine
Ġdeven u
imp ort
ĠP ays
Ġad ap
Ġa mb
ĠX X
Ġjou er
o f
ĠI II
Ġpours ui
ĠdÃ©m ocra
er ts
Ã¨ les
Ġindi vi
Ġrivi Ã¨re
Ġqu alitÃ©
re d
Ġm ur
Ġactiv itÃ©s
h onneur
Ġins crit
Ġrec ord
Ġdess in
Ġt aille
Ġsou tien
Ġmen tion
ĠG i
Ġdu c
ĠfÃ©d Ã©ra
Ġpro vo
ĠA s
Ġminist Ã¨re
c er
Ġt ota
Ġab s
Ġcomm ande
Ġad op
Ġc at
ĠM c
Ġche val
ĠC ro
Ã© on
Ġs ang
A m
Ġor ient
ĠÃ© qu
o ch
ĠC omme
ĠP as
tin g
au de
Ġfais ait
Ġcons omm
ti t
Ġcompos Ã©
Ġmanif est
s es
âĢ Ŀ
Ġag ric
Ġoc cu
l ine
Ġb ras
Ġliv res
O u
i z
Ġsec teur
Ġd os
entre prise
6 6
Ġp sy
Ġp ap
Ġj apon
ĠdÃ©clar Ã©
ĠB ou
Ġv ont
ĠÃ©tab lis
um ul
ol ue
ĠD el
Ġâ Ī
ĠCan ada
Ð °
Ġfai ble
Ġa Ã©ri
Ġs tra
Ġm aire
Ġ18 0
Ġcomp lÃ¨
Ġann uelle
Ġc ra
Ġdoc ument
Ġm ains
Ġfor te
ĠT ur
ĠmaÃ® tre
ux elles
ĠT ra
ĠB ern
Ġdev ait
l d
Ġsui vi
ĠdÃ© g
Ġsurf ace
ti enne
ist ance
Ġtrou pes
it ation
Ġ6 0
ge ment
Ġcr ise
ct ures
b li
l ent
Ġqu oi
es ti
Ġter res
Ġcol lÃ¨
Ġdollar s
k s
Ġ18 3
Ġempl oy
ĠMar c
ĠD Ã©
Ġdisp on
ĠG en
ĠGran de
Ġmari age
ĠprÃ© par
ĠL ib
Ġpopul aire
ĠW illiam
Ġpar ents
Ġjourn al
Ġal ler
ch Ã©e
ag Ã©
ĠcrÃ© Ã©e
Ġconc ern
Ġcent rale
ĠÃ© lÃ¨
ro y
Ġgar de
Ġmain tenant
ĠsupÃ©ri eur
ĠA t
all er
Ġ197 1
ograph ique
fic ation
Ġc am
ro it
ĠCh ris
os se
b es
p ol
Ġlong temps
p ital
or ta
li min
Ġcomp tait
rond issement
ĠÃ©v o
ab b
Ġentrepr ises
di que
ĠV ic
Ġnum Ã©ro
c teurs
ag ner
ĠsecrÃ© taire
Ġmes s
Ġdi man
pr it
Ġmont re
om bre
Ġc ab
te x
ĠD avid
ĠreprÃ©sent e
ĠB ro
a ci
Ġf ou
mo ins
Ġpo si
ĠC entre
Ġqu oti
Ġcontin ue
id Ã©e
Ġoc cup
Ġ196 0
Ġpi Ã¨ces
E t
ar itÃ©
oi le
se aux
Ġprote ction
Ġcon v
rÃ©s il
Ġfig ure
b o
ai x
Ġc Ã©rÃ©
ab ilitÃ©
Ġv Ã©rit
res si
Ġtoute fois
Ġcerta in
Ġdist rict
iss ant
t ures
or b
on se
and re
Ġch oses
Ãª ts
Ġb lan
Ġins titu
Ġp ou
Ã©b ec
k er
ne y
Ġcir cul
S on
ĠM a
os t
Ġpar ler
Ġp ati
Ġpersonn age
ĠcÃ´ tÃ©s
f ie
en a
E S
in ture
minist ration
Ġquat ri
om as
id es
et er
Ġsy mb
Ã© rÃ©e
atri ce
Ġparti es
ni es
Ġquit te
Ġcontra ire
ĠN ation
alis Ã©
ĠF er
Ġretr ouv
Ġmati Ã¨re
in ois
Ġn or
Ġre d
E st
g a
Ġde me
Ġvale ur
Ġch an
ĠB eau
Ġ Î
Ġcri tique
Ġpar ois
ĠPhili ppe
tr Ãªme
Ġa vi
ĠV er
Ġquatri Ã¨me
Ġsp or
Ġpropri Ã©ta
ĠrÃ© ser
ĠE m
Ġen ti
ol as
Ġpouv ait
ĠdÃ©fin i
ĠS am
ĠJ us
ĠD eux
Ġtechn ique
Ġin titu
Ġvoit ure
Ġbel ge
Ġar ticle
Ġmo de
Ġf i
ĠC ap
ĠR om
Ġenf ant
Ġperm is
Ġm auv
Ã© le
au teur
as te
ul ture
Ã§ a
Ġpor tÃ©
g re
ubli c
ĠA h
ĠÃ©c riv
Ġop Ã©ra
ĠMich el
ĠT erre
Un ion
Ġ199 7
Ã ¤
ĠF C
ĠFran c
Ġm and
Ġbut s
organis ation
ol a
Ġre b
ĠÃ©lÃ© ments
che v
ĠchaÃ® ne
Ġdiman che
ĠA llemagne
ĠL u
ig e
Ġmil itaires
arriv Ã©e
ĠK h
Ġpropri Ã©tÃ©
ĠmÃ© m
ole il
Ġphil os
se ments
gl ise
Ġjus te
Ġv e
Ġpermet tant
ĠÃ©g lise
c Ã©
au ff
ĠrÃ©g ions
Ġ199 5
tr uire
Ġp oi
Ġra is
w e
ĠBr uxelles
ar k
Ġ ant
os Ã©e
Ġexp li
Ġparti s
Ġob lig
Ġ rang
an im
l oi
it ant
Ã©tu de
ĠC am
Ġital ien
ĠdÃ©c ouvert
Ġacc us
ony me
ĠCh e
Ġau tant
Ġcont en
vi ennent
Ġb ure
ĠÃ©tu de
Ġb ande
1 1
ĠdÃ© termin
oy en
ĠG ar
Ġma xim
in tÃ©rieur
ul aire
ĠcÃ©lÃ¨ bre
in aire
Ġrest aur
O N
Ġ199 6
erg ie
anc er
ouv rir
Ġrepr ises
ĠRoy aume
Ġal li
g on
Ġ &
ib les
Ġrel ations
ĠÃ©c l
Ġvit esse
is ter
n om
Ġfr ont
Je an
A S
g o
Ġo cc
Ġsc ul
Ġche v
Ġhau te
Ġd Ã»
Ġeu t
d el
Ġmes ures
Ġautor itÃ©s
ĠÃ© ner
ri ch
Ġjus tice
Ġvi a
ĠIn ter
Ġdi vis
ĠV i
ĠQu Ã©bec
ac tu
du ite
Ġar rive
Ġchi ff
Ġ199 2
ĠdÃ©c la
Ġlig nes
Ġdirec tement
Ġc y
ĠP al
au g
Ġce inture
Ġ Ġ
Ġs Ã»
Ð ¾
Ġch asse
ĠE lles
Ġg estion
x e
Ġc yc
ĠP uis
Ġtrava ill
ol f
ra ss
Ġti tres
Ġor gan
Ġple in
Ġv end
ĠdÃ© di
id er
Ġl ettre
Ġphysi que
Ġs orte
Ġali ment
r om
ĠÃ©le v
ĠR ich
ĠO u
ĠprÃ©cip itations
is er
Ġin t
Ġou tre
d on
ib li
P ierre
Ġmal ad
2 5
Ġpeu ple
. -
Ġpr ison
Ġj eux
Ġprob ablement
Ġse ction
Ġav ons
Ġdis posi
lÃ¨ mes
enti el
ustra lie
is Ã©
ĠR os
Ġb elle
Ġdiffic ul
a ment
Ġex er
U ni
Ġpar ten
Ġdiff icile
Ġpi Ã¨ce
Ġse igneur
Ġstru cture
av al
uit s
ta gne
Ġen quÃªte
Ġdes tin
ĠK ar
Ġt re
ĠbÃ¢ti ments
c a
ĠdÃ©c rit
Ġprincip aux
Ġcommenc Ã©
Ġte l
ĠcrÃ© er
Ġsou lig
qu Ã©s
Ġlib er
ĠdÃ©p utÃ©
4 0
Ġl et
mp ire
Ãª che
ĠCh rist
uis se
am a
Ġ199 4
ac k
stitu t
Ġ riv
an che
Ġcomp ar
Ġca us
Ġar mÃ©e
avant age
De puis
y m
Ġs it
ug by
ĠV an
Ġman que
Ġb our
Ġanci ens
anci enne
6 0
ad ministration
ĠT out
ĠM ag
uc lÃ©
is ser
Ġ3 5
s ta
Ġl ieux
Ã©n ergie
Ġ8 0
o Ã¯
ĠM il
ĠrÃ© uss
app el
Ġcon Ã§
Ġtra in
Ġ ouvert
Ġscientif ique
Ġsoci aux
ĠtÃ©lÃ© vision
Ġd yn
Ġrec ons
se ur
Ġvi ce
Ġprob lÃ¨mes
ĠB ien
fic ie
Ġord re
Ġf our
Ð ¸
ĠG re
Ġvendre di
ie use
ĠrÃ©v olution
Ġchac un
re ment
i p
Ġre ine
M ais
en tin
ĠnÃ©cess aire
Ġh om
end ra
un g
ĠrÃ© seaux
Ġa vez
ay er
ch a
uk rain
Ġroy aume
Ġcol on
Ġsoci ale
Ġsold ats
Ã© rer
Ġpar le
Ġtourn oi
Ġfa ci
Ġph Ã©n
ari o
Ġcomp lex
Ġneu f
olog ue
Ġl umi
tu g
ĠH ol
ende main
Ġs aint
p les
Ġcont ribu
ur r
Ġscien ces
a rer
2 2
e b
est er
Ġpro xim
n ov
Ġcapit aine
t rÃ©
Ġdist ribu
arch ite
Ġpsy ch
Ġdire ct
Ġappar aÃ®t
Ġtex te
Ġs ouv
al le
Ġre ce
Ġalle mande
Ġs an
Ġport ant
ĠdÃ©p u
envi ron
m atique
iv es
Ġpol on
ĠQ ue
ĠC erta
tel l
ĠdÃ©c ouverte
ĠrÃ©g ime
ĠmÃ© can
u Ã©
on nÃ©
ing ton
Ġsoci al
Ã´ ne
2 4
Ġex Ã©cu
Ġper du
Ġconf i
en sion
Ġa it
Ġqu in
ta ble
g i
Ã©d er
ĠPremi er
Ġproxim itÃ©
2 3
Ġartis tes
d o
l Ã¨me
Ġeur os
Ĥ ¬
Ã©r ant
acc ord
Ġenreg ist
ag nÃ©
it Ã©e
ve ill
Ġpr on
Ġmo bil
Ġl endemain
Ġ199 3
a il
Ġra sse
Ġch rÃ©
ĠS m
z a
ĠJ oseph
ĠI talie
ĠU niversitÃ©
Ġcrois s
Ġstra tÃ©g
Ġmondi al
Ġpuis que
Ġlongue ur
Ġra dio
ĠJ u
Ġinst all
Ġsa v
Ġjou Ã©
esp ace
ĠrÃ© serv
Ġnature lle
Ġins tru
ou e
Ġchar gÃ©
7 0
ĠD on
Ġdi min
od ie
Ġsc ol
Ġmot s
Ġn our
ĠSec onde
Ġren for
ĠB al
ĠA g
Ġpermet tre
Ġp al
Ġv os
Ġven ir
Ġn aissance
ais sent
Ġp ot
in er
Ġv allÃ©e
Ġr Ãª
Ġcommer ce
on te
Ġpar lement
Ã©d Ã©ration
ĠA ss
ĠO h
Ġlun di
e reur
ati s
ĠreprÃ©sent ant
Ġactu ellement
Ġsu it
Ġmort s
Ġch ant
b lis
ol s
Ġc itÃ©
Ġpours uit
r s
Ġm assi
ĠP rÃ©
Ġp ierre
am i
Ġ ukrain
ĠÃ© limin
Ġex ist
eur os
ĠS c
Ġs il
Ġn uclÃ©
om Ã©
enti elle
Ġmont agne
Ġmalad ie
Ġp ense
Ġr ur
âĢ ¦
Ġprob lÃ¨me
ĠP ologne
ĠS ainte
ĠR Ã©
og ne
ric itÃ©
A N
k o
y a
Ġoc cident
Ġpersonn ages
Ġaur a
Ġlut te
Ġcerta ine
Ġconcern ant
f ort
Ġclub s
Ġg ro
Ġd o
Ġch ante
ci er
Ġrespons able
Ġg rec
Ġph ase
Ġas tÃ©roÃ¯
Ġmunicip alitÃ©
uss es
ĠP i
Ġra t
o Ã®
ven ir
Ġsit ue
19 9
ĠfrÃ© qu
Ġl yc
ĠrÃ© alise
Ġdist ance
c tu
Ġs Ã©ri
onn er
Ġb omb
Ġcour t
Ġci el
Ġre vient
A C
Ġcandid at
8 0
ĠmÃ© tÃ©
ĠS im
Ġam is
Ġchange ment
in et
Ġe aux
Ġfra pp
r un
or n
Ġb ran
ĠS y
ĠÃ©tab li
d ie
Ġsyn dic
2 1
Ġfait s
Ġmais ons
Ġn orm
Ġimp os
rÃ© g
ĠeuropÃ© en
univers itÃ©
A llemagne
ative ment
Ġter r
aly se
ĠdÃ©cla re
ĠD an
Ġsta de
ol it
Ġmo teur
Ġnouv el
Ġs ovi
ĠM ay
a el
Ġsouh ait
Ġci vi
Ġm ad
Ã©r itÃ©
Ġinf Ã©ri
ĠE r
ĠrÃ©g iment
cess us
Ġchap elle
ĠÃ© cole
Ã© ros
Ġa j
Ġhistor iques
Ġdis pose
a ill
at ur
m ul
et Ã©
ut ri
ĠdÃ© li
Ġatt end
e ct
Ġlarge ment
Ġla isse
Ġtour nÃ©e
Ġpein tre
ti an
ĠB u
Ġinform ations
cu le
f ier
Ġmeille ure
Ġf en
Ãª tres
Ã¨ tes
A R
ĠD om
Ġfon ctions
ĠrÃ©alis Ã©e
Ġ7 0
Ġvicti mes
Ġs ait
Ġpeti tes
ow n
Ġchans ons
ĠmÃ© t
Ġcommun i
Ġrapp el
Ġarch ite
Ġv in
ĠphÃ©n om
Ġb e
ĠrÃ© alitÃ©
un esse
ra t
ĠS uisse
Ġre li
ass ociation
Ġm u
Ġpro cessus
ĠC ong
Ġmilli ards
Ġt ran
ĠC ent
az ine
ĠG o
Ġprofessionn el
Ġ198 8
Ġcon cep
Ġh yd
ĠrÃ¨ g
Ġch a
g Ã©s
Ġ198 9
utilis ation
Ġcath olique
Ġpuiss ance
Ġp alais
Ġcour ant
man uel
Ġcol lection
r ons
Ġsus p
alis me
oir s
Ġju ge
Ġa p
Ġ195 0
ue il
Ġrel ation
Ġfa veur
Ġhau teur
tex te
cad Ã©mie
ti Ã¨me
Ġv ir
Ġcon temp
Ġutilis Ã©e
ĠB as
Ġpersonn el
ĠTh omas
ĠmÃ©da ille
Ġlet tres
Ġtable au
ĠF l
cre di
w it
ĠL uc
Ġretr ouver
ĠS ar
u a
ch ar
Ġagric oles
un is
Ġb assin
Ġlumi Ã¨re
Ġv ite
ran ger
r en
Ġa mp
Ġsomm et
Ġjeu di
Ġm ic
Ġrejoin dre
Ġf estival
Ġinter prÃ©
ien nes
Ġla tin
Ġrest er
Ġprojet s
Ġ4 5
ĠÃ©v olu
Ġil lus
E R
o Ã¹
Ġin ves
op Ã©ration
Ġcou leur
Ġsp ati
Ġrepr end
j i
it ants
ur y
Ġcoup le
rit ure
ov a
ens itÃ©
Ġdev rait
ous se
th e
Ġm ine
Ġindivi du
Ġt end
ĠCl ub
Ġar rondissement
ac teur
Ġn u
8 4
ag nes
ĠS tra
Ġim mÃ©di
Ġ194 4
Ġdur Ã©e
Q u
ĠL and
Ġsy mp
Ġaff ec
n el
ou p
l ing
Ġrep ro
Ġpour tant
f ici
Ġins pi
Ġ194 0
ĠrÃ©guli Ã¨rement
oph ie
Ġvie ux
me di
Ġolymp iques
oit ation
b al
Ġclassi que
or g
ĠL yon
ĠC al
Ġfor Ãªt
Ġqu es
Ġti ent
tis me
Ġj ui
Ġfran c
Ġch ron
ibli oth
mi r
Ġtrava iller
Ġconn aÃ®t
j a
us te
ent raÃ®
am our
ĠMar tin
Ġsoi ent
ĠSoci Ã©tÃ©
ĠCh ic
ĠK e
Ġremp ortÃ©
che ment
Ġclim atique
Ġm orte
Ġcons ta
Ġfam illes
mo ine
Ġv olu
ĠM Ã©tÃ©
sid ent
ĠY ou
ch Ã©s
g uer
as c
Ġpour quoi
ĠT ou
un d
ĠE st
ĠI V
Ġ197 5
ic a
ex ist
it a
ĠcatÃ©g orie
ru p
Ġt al
Ġdes ti
ĠS ou
Ġloc aux
Ġtra itÃ©
Ġques tions
ali for
Ġdivers es
ind ustri
ĠM Ã©
our t
Ġ( Â«
Ã©ta ient
omm age
ĠvÃ©rit able
ĠXV III
Ġscul p
vi d
ab ri
Ġnom s
Ġ194 5
Ġactiv itÃ©
ar di
Ġtra itement
ĠB on
Ġsupp lÃ©ment
Ã©t end
l aire
ĠPremi Ã¨re
ĠO ui
Ġ198 6
import ance
o tion
Ġs Åĵur
un al
Ġjourn aliste
Ġs ommes
ĠC et
Ġcap acitÃ©
Ġcri tiques
Ġpermet tent
b on
Ġsour ces
app ar
ĠQu and
et t
Ġfran ch
ĠD ou
ĠP endant
Ġann uel
ĠÃī tat
ĠdÃ©f aite
Ġple ine
I talie
Ð µ
ĠH am
Ġvrai ment
Ġfil les
f ric
Ġrecher ches
Ġsais ons
Ġfav or
ĠW h
Ã©m ission
ĠarrÃª tÃ©
Ġs omme
Ġnom mÃ©e
Ġparticip ation
ĠMÃ©tÃ© o
B as
Ġhab itu
Ġactu elle
e use
E spagne
ĠV en
ĠdÃ© mar
Ġpopul ations
Ġmod erne
Ġop Ã©ration
Ġoff re
Ġoffici ellement
Ġpa pe
Ġpl ais
Ġcompos Ã©e
sse mblÃ©e
at re
Ġmar di
Ġfor Ãªts
Ġc m
ĠPri x
Ġp ouss
Ġmad ame
ĠB ur
ĠT oul
Ġfam ili
Ġdom in
ĠrÃ©sul tat
Ġretra ite
si er
Ġpau vre
os ph
Ġviv re
Ġdi am
Ġexp ri
Ġindi que
re use
l ong
t t
Ġapp are
f ord
Ġob tenu
Ġstatu t
ĠdÃ©cid Ã©
Ġliber tÃ©
Ġde l
Ġid entif
Ġlanc Ã©
Ġnive aux
ĠrÃ© d
Ġsa medi
Ġte lles
Ġfor mes
Ġin tro
Ġc uis
ran ge
Ġun itÃ©
Ġ \
An gleterre
ac tivitÃ©
Ġmouve ments
ĠB an
iss ait
ĠthÃ© orie
Ã© dition
ri es
m et
ot t
Ġt Ã´t
Ġcircons cription
ĠAng el
Ġ x
Ġt op
Ġfr Ã¨res
ic ations
Ġappel Ã©e
A F
Ġm ille
ĠÃ© n
iv al
i Ã©s
Ġsi mil
Ou est
Ġrem ont
r in
qui Ã¨me
ĠAn gleterre
ĠG l
ĠcÃ´ te
Ã© lection
mÃ© li
el li
de z
ĠE s
Ġp aix
to ine
in di
ke y
3 5
ĠJ uli
ati fs
t ur
Ġc Ã©lÃ©
Ġc os
man n
D es
Ġj a
ub e
ra c
Ġscientif iques
ĠrÃ©par ti
Ġconstitu e
Ġmer credi
ĠJ ames
Ġprof onde
ĠVic tor
S aint
Ġpol ici
on ge
Ġm our
ĠM ax
Ġj ardin
Ã§ ons
ĠmÃ©di as
Ġnavi re
2 6
ie z
il Ãł
ĠdÃ© v
Ġnature l
Ġ3 00
Ġma ch
ĠcrÃ© e
ĠA frique
ĠA ir
ĠPar lement
ĠUn ion
m ond
Ġm asse
ĠEn fin
ĠdÃ©but s
Ġpro ven
U kraine
ag o
Ġmo di
Ġmoy ens
Ġlib Ã©ra
Ġsimp lement
Ġlo ge
n o
in formation
ĠindÃ©p end
g g
ang Ã©
Ġs ites
ĠV I
Ġfron tiÃ¨re
Ġcon duit
Ġcou pe
ver se
Ġgra v
Ġcarac tÃ¨re
ĠÃ© d
ĠChamp ionn
Ġb re
lace ment
te ments
Ġ198 2
di ction
Ġprof ond
Ġconf lit
Ġcan adi
m ant
Ġa mÃ©li
ĠÃ© mis
Ġfond Ã©e
ĠW al
Ġtech niques
Ġstu dio
ĠMos cou
Ġla isser
ĠrÃ© ussi
Ġs core
Ġcal cul
n aire
ĠGeor ges
Ġesti me
Ġpri m
ĠÃ©vÃ© nements
Ġconse iller
ĠtÃ©lÃ© vis
Ġdi z
Ġv an
S a
Ġf u
ĠBer lin
ĠL or
ĠNo tre
Ġ9 0
2 7
ĠT oute
Ġno te
u il
Ġfond Ã©
i at
Ġty p
ĠXV I
Ġcent ral
w ay
Ġr ugby
Ġpoi ds
Ġser t
Ġloc alitÃ©
ense ignement
ĠNation al
ĠO li
Ġ198 5
Ġport es
ĠP ol
ĠW or
Ġti tu
2 9
Ġaff aires
Ġapp ro
Ġsuiv antes
ĠmÃ©dec in
intÃ© rÃªt
an niques
ĠÃ©ta pe
I S
Ġfut ur
Ġcontr Ã´
Ġfus ion
" .
Ġv ente
Ġau teurs
ĠPar mi
Ġterrit oires
Ġd avantage
ĠN ap
ĠprÃ©c ise
Ġproc Ã¨s
Ã©t ro
Ġbure au
ĠR ec
Ġcou leurs
er se
enti ne
Ġco Ã»
Ġar mes
Ġoc Ã©an
Ġtomb e
ill aume
l og
Ġl ois
Ġcar tes
Ġa ction
Ġv oire
Ġc umul
ĠS ant
Ġquit ter
ĠrÃ©pond it
ĠÃ©lÃ¨ ves
p el
Ġfer me
Ã¡ n
ĠÃ©tudi ants
ĠE h
Ġmor ce
Ġuti lise
ĠA li
Ġtr ouvent
ĠÃ©le vÃ©
Ġinf lu
! ...
m on
qu ie
Ġje unesse
ĠdÃ©p end
ĠM aur
b lement
Ġmon ument
ob ile
ĠL o
and es
par avant
Ġprog ressi
Ġcontemp or
ĠTh Ã©
Ġpris onn
Ġjapon ais
Ġ198 7
Ġgouver neur
ti ennent
Ġ Å
Ġrec omm
ĠsupÃ©ri eure
Ġenti Ã¨rement
c tes
ĠT i
Ġab b
ĠmÃ©tÃ© or
I s
Ġcom itÃ©
Ġc op
Ġsui vre
ĠV ille
Ã©d ie
ĠNic olas
ud g
Ġven ait
p it
ĠF re
Ġsau v
Ġp Ã¢
Ġv ais
ĠE spagne
Ġconsid Ã©ra
r us
Ġs ouver
Ã©s ie
ĠD is
Ġcomm ission
tic les
S ur
ĠR ol
ĠQu el
Ġsing le
ti g
Ġpass ant
ass er
n ant
Ġaut oris
ĠÃ©le c
Ġvo te
ĠGeor ge
ĠdÃ©pu tÃ©s
ri ques
Ġmin im
Ġrev ue
Ġa ir
ĠB our
Ġpres sion
Ġsuff is
Ġ198 4
Ġparc ours
Ġ17 8
Ġlesqu els
Ġmaj or
a illes
Ġg ui
Ġdom icile
ĠM at
ograph iques
ĠdÃ©c or
ĠW il
c omm
enf ant
ĠdÃ©c is
S i
ill y
Ġ198 3
Ġvain que
Ġa chet
ĠT rois
Ġat ti
Ġpro ches
Ġcar b
Ġ3 3
Ġter mes
Ġsorti r
ur Ã©e
ĠP ort
R E
ens es
ĠM et
ĠfranÃ§ais es
Ġn ul
ari tion
tes se
Ġsigni fie
ar que
alis Ã©e
Ġloc ale
Ġf id
ĠrÃ©p onse
h ors
ur ation
ĠP or
ĠV ill
ĠâĪ Ĵ
Ġch inois
ĠR h
ã ĥ
ri re
Ġ196 8
ĠÃ©c oles
Ġb ron
Ġren ouv
ch ent
ĠrÃ© forme
Ġci me
ĠB o
Ġpra ti
ĠastÃ©roÃ¯ de
aire ment
Ġt on
ĠL ou
ran ce
am me
ĠcaractÃ©ris tiques
erm an
a vec
ti ens
ĠW est
Ġparticip er
Ã© rop
rÃ© d
b i
Ġmag azine
o iles
ĠW ar
Ġpatri moine
ĠrÃ©ser ve
Ġm Ãªmes
Ġfab ric
Ġl ic
Ġ ouverte
ĠÃ® les
Ġf all
ĠD ani
iss ue
Ġa im
ill Ã©e
Ġroy ale
d ou
j our
am ment
aul t
l ation
mi ques
ĠrÃ¨ gne
Ġme illeurs
in v
ĠT or
ab eth
Ġessenti ellement
Ġconc ert
ĠP at
Ġgl ob
Ġdi v
Ġlim ite
ĠÃ©lec tr
ĠT er
or es
Ġpor ter
u tion
l l
Ġl ie
onn Ã©e
ap tis
Ġfond s
Ġ: .
I N
as tique
Ġdis cip
Ġpublic s
Ġmod Ã¨les
Ġ198 1
Ġmand at
ĠB i
tÃ©ri eure
z o
Ġcin quiÃ¨me
A frique
ĠO s
Ġdeven ue
Ġplac es
ad er
n y
Ġm Ã¢
ĠP eu
Ġ4 00
lÃ¨ ve
ĠthÃ© or
en di
ĠM o
ul ation
Ġ3 6
Ġrelig ieux
ĠprÃ©sent Ã©
Ġsp ort
Ġpar all
Ġcivi le
Ġpar is
Ġcon texte
ĠB os
Ġprincip ales
Ġ3 4
Ġt or
Ġv Ã©g
ĠV ol
in tÃ©g
onc er
Ġco de
tra ction
Ġcherche urs
Ã©le ct
Ġch ale
ĠbÃ©nÃ© fici
Ġin aug
Ġanim aux
ras tru
Ñ Ģ
Åĵ urs
Ġlang ues
Ġs oleil
Ġall ait
Ġunique ment
Ġvis age
ĠA ra
Ġa ire
ĠN on
Ġ% ,
Ġconstru ite
Ġpied s
ĠmÃ©m oire
ĠimmÃ©di ate
A vec
os ant
ĠU S
ord s
Ġfor mÃ©
e ction
k h
ĠAl bert
ar rÃª
ĠB rÃ©sil
Ġfor tement
g in
ovi d
Ġphot os
Ġconc er
Ð ½
Ġurb aine
Ġs h
Ġv ou
Ġg Ã©n
ĠEn tre
ĠsiÃ¨ cles
op he
it re
Ġj uri
Ġpuis qu
i Ã©e
k et
Ġass ure
Ġpublic ation
Ġremplac Ã©
Ġmarch and
Ġb udg
ĠG rou
ĠAl l
Ġprin cipe
ĠComm ission
Ġeff ic
v it
.. ..
ath Ã©m
Ġdesc end
d y
Ġconn aiss
ĠÃ©pis odes
Ġt ente
reu ves
ĠD Ã¨s
ten ue
Ġloc al
Ġclass Ã©
ĠH er
Ġmus ici
te lle
Ġqu anti
di ci
Ġcommun ication
Ġbr Ã»
Ġimport ants
Ġobjet s
ĠrÃ©c omp
Ġdoc teur
Ġress our
ĠR Ã©g
ĠcaractÃ©ris Ã©e
L ouis
Ġprop res
ĠdÃ©sig ner
Ã¨ lement
titu tion
Ġ197 2
2 8
ĠV o
Ġtr ente
Ġv on
ĠL os
Ġtrans for
Ġparta ge
Ġc ru
ĠrÃ©alis er
u me
ĠÃ©v olue
alifor nie
Ġb ate
Ġcompr endre
ĠC ont
ĠprÃ© p
Ġdou ze
est ation
Ġeffet s
Ġparticip Ã©
Ġp ois
or a
ĠrÃ© vÃ©
Ã¯ v
tel lig
7 5
oy er
tis sement
Ġpubli Ã©e
Ġh os
g ues
di um
Ġex cep
ĠrÃ©p ublic
Ġim ages
Ġcro y
Ġdis s
Ġ197 4
Ġsovi Ã©tique
ch estre
Ġmauv ais
Ġlyc Ã©e
ĠMac ron
Ġrais ons
Ġspecta cle
Ġsuper ficie
acc Ã¨s
Ġ193 0
Ã© ducation
ĠFranc is
est Ã©
ĠÃ©lect or
Ġmon uments
Ġvolont Ã©
ti r
Ġatte indre
Ġintitu lÃ©
as i
Ġutilis Ã©s
Ġpein ture
ustra li
ĠdÃ©c ouvre
Ġconv ain
ĠÂ» )
Ġ197 3
g ar
Ġconc ours
ĠC a
ven u
Ġprin temps
Ġfa Ã§
ĠP ra
envi ronnement
ĠT ar
Ġ197 9
ĠnÃ©g oci
Ġpat ron
ri a
Ġb il
ĠÃª tes
v an
Ġv acc
Ġf roid
Ġperm an
ĠF Ã©dÃ©ration
Ġregrou pe
ĠU kraine
ĠRich ard
ĠS tu
ler ie
Ġtota le
Ġpas sion
Ãī glise
Ġf ol
ten us
Ġdisc ours
igh t
f er
s ki
ĠH ong
Ġfor mer
ĠN i
Ġri ches
ĠX III
Ġtrouv Ã©
ĠB ri
av es
y e
ph e
for mes
ath er
Ġcollab oration
Ġ15 0
m oi
Ġpl antes
av ais
industri e
Ġra y
Ġconn aissance
Ġsuiv ants
ĠMar se
ort ant
Ġfin it
Ġconc ent
Ġrev anche
ĠlittÃ©ra ture
exist ence
at oires
Ġbat tu
qu Ã©es
ab sence
ay ant
Ġlab el
. ,
2 000
Ġsecond es
Ġr uis
ist an
Ġob tenir
Ġespagn ol
j or
p ro
Ġm athÃ©m
Ġf onde
ĠdÃ© truit
lÃ© gu
ĠtÃ©m oign
Ġau teur
Ġ197 6
expl oitation
Ġmarqu Ã©e
ut enant
Ġ197 8
Ġciv il
Ġcontin ent
ĠÃ® le
Ġs ent
am in
ĠWor ld
oc at
tionn el
pe au
ĠdÃ©c Ã¨s
l ut
ac te
Ġproc Ã©d
Ġj et
Ġvo Ã¯v
4 5
Ġpar vient
Ġnavi res
Ġc ouv
ĠdÃ©rou le
ĠprÃ©v u
Ġrepr ise
d ent
aut om
ĠÃ©qui p
ĠCom ment
ant erie
Ġmar che
Ġtrans p
iblioth Ã¨que
Ġd at
all on
tru ction
Ġcandid ats
Ġrat ta
Ġv ert
entre r
m ation
Ġg uit
Ġentre prise
Ġdipl om
h er
al ys
Ġor b
Ġconc urr
Ġen ne
Ġt onnes
Ġcime tiÃ¨re
Ġconn aÃ®tre
Ġ197 7
Ġcommand ant
ĠtÃ©lÃ© ph
ĠR i
Ġcath Ã©d
ri ent
au c
o si
ass ade
tionn elle
ĠvÃ©hic ules
ra ire
Ġv ent
Ġvicti me
del Ãł
g Ã©n
ĠC ovid
it t
Ġch ute
ĠBern ard
Ġb asse
ĠF estival
ĠpropriÃ©ta ire
de mment
Ġenreg istre
C I
Ġcon tient
Ã©rÃ© s
Ġorganis Ã©
Ġobserv Ã©e
ĠvoÃ¯v odie
Ġb ourg
Ġac cident
Ġa ide
ĠMal grÃ©
i ze
Ġcons truire
ve ux
ĠM ex
li ers
ge ois
im age
Ġpossi bilitÃ©
Ġp eur
Ġf Ãªte
Ã©ta blis
Ġsyst Ã¨mes
Ġdemand a
yp oth
ĠintÃ© ress
ĠC amp
ĠBr un
A t
ĠAn ne
Ã³ n
Ġa xe
Ġprop or
Ġaffir me
ĠdÃ©velopp Ã©
and er
ari at
Ġri che
Ã©c onomie
Ġcommun au
Ġpouv ant
ic o
Ã© qui
Ġbron ze
ra y
m s
u els
Ġcir cu
Ġn oire
re y
di a
ĠÃ©v iter
si de
ĠC at
ĠXV II
ĠrÃ©alis ateur
Ġs cience
Ġf leurs
ĠAu g
ĠP S
Ġm it
Ġdispon ible
ch t
Ġent end
Ġdou ce
b l
Ġm ol
am en
ĠprÃ©sid entielle
Ġconstitu Ã©
Ġchois i
Ġconsomm ation
in q
Ã©r ences
Ġsign al
ĠEm manuel
ĠRoy al
ar tiste
U S
l aires
ax e
Ġvict oires
Ġar riÃ¨re
Ġ196 7
ĠJac k
lic ations
Ġatta que
Ġcar t
ĠÃ¢ ge
un itÃ©
Ġv ra
ta ient
ex c
Ġf ant
g rand
ar ticle
ĠdÃ© te
Ġpro duire
Ġprof it
he im
ĠnÃ© er
ĠdÃ©pl ace
Ġorigin aire
P h
Ġm ent
Ġf aute
Ġr usses
ĠmÃ© n
Ġju dici
Ġconc erne
Ġimp li
Ġdiffus Ã©e
u ff
Ġs ensi
Ġad vers
Ġindi quÃ©
Ġrend u
h iver
Ġrec ru
Ġris ques
" ,
y st
ĠB lac
Ġ3 2
Mar ie
b a
Ġpe int
Ġenvi ronnement
Ġa ctions
Ġd est
ĠB ru
tri e
ti Ã¨res
âĢ ļ
ĠdÃ©b ute
ĠTr ans
utri che
ĠO p
Ġquoti dien
es prit
te in
ĠdÃ©velopp e
ĠÃ© mission
iter ran
Ġg lace
Ġvill ages
ar iste
ac tions
Ġar g
Ġtrib unal
h eur
rÃ© al
ot y
Ġconf Ã©rence
ĠA pp
C es
op Ã©ra
Ġcont act
ĠCh ambre
Ġlesqu elles
Ġchampionn ats
Ġsouv enir
h ou
ĠD ra
Ġdisposi tif
g Ã©rie
ient Ã´t
rop olit
Ġcit oy
Ġblan che
Ġpro long
Ġaj oute
ĠR Ã©volution
ric k
ĠdÃ©m ont
w ard
ol o
ĠH aute
Ġres se
Ġseul s
Ġartis tique
ĠsÃ©ri es
Ġâ Ĥ¬
ar o
m itÃ©
ĠrÃ©f ug
Ġp an
Ġcou ps
omm Ã©e
ĠÃ©pis ode
ĠLe ur
an moins
le ctions
Ġcon ver
ir ent
nation al
Ġmar quÃ©
Ġb ra
Ġra c
ĠJ o
lis te
ĠcÃ©lÃ© b
ĠM oyen
ĠnÃ© anmoins
Ġper form
Ġid Ã©es
Ġar ticles
Ġfait e
ĠdÃ©velopp er
Ġtex tes
ĠAlex andre
Ġp en
ouver tes
Ġimp Ã©ri
os ent
ĠcollÃ¨ ge
Ġt ours
ha us
ĠphÃ©nom Ã¨ne
Ġh ommage
Ġdiam Ã¨tre
Ġex trÃªme
ĠW all
19 8
al a
Ġdemand er
r omp
Ġl ien
Ġfran cs
Ã¨ gre
Ġouv rage
Ġau paravant
ĠB or
Ġ194 2
ĠsÃ» r
Ġv ac
ĠdÃ©c ret
ĠAm Ã©rique
k in
Ġ19 20
ĠCel ui
difi ce
ĠB ay
Ġac qu
app ro
ĠToute fois
ĠMarse ille
ma jor
Ġparois se
p in
ĠM el
Ġfav oris
Ġ ul
az z
al titude
ĠS eu
Ġexpl oit
b as
ĠprotÃ©g er
Ġre jet
Ġh ui
ĠV ers
av enir
Ġ193 9
Ġaccue illi
ĠG au
ograph e
Ġchan teur
Ã´ mes
atta que
Å Ĥ
ĠC ity
ĠS av
ĠfrÃ© quent
Ġac teurs
lu ent
Ġapp elle
ĠamÃ©ric ains
ĠCerta ins
us ta
ĠdÃ© t
Ġm ig
Ġapp rÃ©
Ġbl oc
Ġpil ote
ĠC alifornie
ĠGu illaume
anc Ã©
ĠmÃ©th ode
Ġdi oc
Ġ194 3
Ġcel lu
ĠÃ©tu die
ĠnuclÃ© aire
ĠAn ton
Ġcommuni quÃ©
gl om
Ġd a
ĠR og
m m
Ġin qui
Ġdi men
Ġh or
Ġrencont res
G C
Ä ĩ
ing s
Ġmunicip al
Ġdev int
Ġvoi es
Ġent our
Ġreconn aissance
d om
Ġcommande ment
A ss
ĠA ut
oc key
Ġas si
ĠA lle
ĠQ ui
n et
ĠÃ© lus
ĠG ro
Ġdisp ute
vie w
Ð ²
Ġde hors
ĠdÃ©b at
Ġappar tient
Ġloge ments
Ġpol y
ĠB Ã©
ĠF ou
Ġoccu pe
Ġd ensitÃ©
ĠdÃ© ch
ay a
z on
ĠÃ© ditions
ĠB ourg
Ġfait es
ĠcathÃ©d rale
Ġc ardin
wit ter
alis er
A T
ĠMich ael
b us
Ġan g
Ġtu Ã©
s Ã©
b urg
emp ereur
ĠlÃ©gisl atives
z z
Ġb rig
id ae
orde aux
ĠmaÃ® tres
P lus
o tes
Ġm urs
ĠC O
oin t
f t
b b
o ol
it z
ĠC onc
Ġten u
ĠÃ©lect rique
ĠT u
Ġmas cul
Ġv aste
Ġcomplex e
Ġreven ir
an nÃ©es
Ġ4 8
s bourg
er v
C l
ĠT emp
ĠrÃ©pond re
S e
Ġr yth
di enne
9 0
Ġri ve
Ġcontin uer
Ġdiffus ion
pÃ© dition
Ġtrouv ait
con te
Ġoffici el
Ġpr it
ces se
Ġinter mÃ©di
^ {
g Ã©es
ĠmÃ© tro
c ent
ar y
Ġviv ant
Ġun itÃ©s
ci a
ist ant
Ã¨ vre
ĠG ui
qu a
Ġreconn u
Ġmic ro
Ġen vis
Ġg ri
enti tÃ©
Ġty pes
inf luence
ĠcÃ©rÃ© m
b an
ra ins
Ġar mÃ©es
Ġmilli ers
Ġim ag
Ġbien s
Ġaff aire
Ġexc lus
c y
Ġ3 7
I E
Ġimport antes
ri ers
ĠS il
ter ie
Ġsou p
Ġhum aine
ĠP et
join t
Ġcroiss ance
Ġre lie
Ġactu el
Ġfab ri
d in
al lÃ©
Ġal tern
ĠAngel es
Ġressour ces
Ġob jectif
Ġconfi ance
ĠMont rÃ©al
ĠgÃ©nÃ©ra tion
Ġ196 9
3 6
Ġan ne
au re
Ġdifficul tÃ©s
Ġg agner
r lande
An d
t Ã¨res
Ġapp li
ex pÃ©ri
ign ant
ali ers
s c
en ait
Ġ3 8
posi tions
or Ã©e
Ġ194 1
Ġdeme ure
ĠM aj
Ġpr ises
s ons
ĠD urant
ni er
ĠdÃ©c ouvrir
or y
g yp
Ġ196 6
Ã ±
ce mment
hÃ´ tel
ĠrÃ¨g les
pol ation
ri cole
ĠopÃ©ra tions
Ġ196 5
ĠSu per
ĠDani el
Å ¡
Ġpriv il
A g
Ġqu art
Ġr ares
Ġcomp osition
ĠW ash
c om
oris Ã©e
Ġt oit
Ġin ten
Ġinc onn
Ġterrit ori
Ġcher cher
ĠAnd rÃ©
ĠdÃ© mission
ĠT ous
Ġprot est
Ġf leu
ouve z
min a
ro vi
Ġsig nÃ©
ie uses
ar ts
li p
ĠA ff
Ġti ers
ĠPr in
Ġv oc
ĠA c
Ġdom aines
ĠMar ine
Ġinf rastru
Ġsoci aliste
Ġfond ateur
ĠrÃ©gion al
y r
ĠA ustralie
ĠR a
Ãª cher
Ġro ck
Ġbas Ã©
ĠÃ©conom iques
F A
P endant
w a
Ġst ock
Ġclim atiques
Ġid Ã©
Ġt endance
Ġst and
Ġvoit ures
ĠPlus ieurs
at o
Ġcomp ter
ĠE ur
ĠrÃ©s istance
Ġchev aux
ĠM as
ĠCl aude
ĠR am
Ã§ ait
Ġth Ã¨me
Ġregrou p
ĠN eu
ĠLe ague
ĠÃ© l
Ġsu p
Ġital ienne
Ġpar oles
Ġg raph
Ġloc ales
Ġh on
n aires
Ġcon ne
am Ã©ric
Ġth er
Ġfin al
ier ge
ĠdiffÃ©r ence
ĠXI V
6 5
Ġb leu
ĠdÃ©di Ã©
Ã©rop ort
Ġcon dition
Ġcomm en
ĠÃ©ch app
J ac
Ġprom otion
ig u
Ġra conte
Ġrapp elle
ĠdÃ©partement al
3 3
cep ti
Ġpens Ã©e
Ġm ix
Ġn aÃ®t
qu in
ĠF ace
Ġr ent
Ġ196 2
Ġ7 5
Ġmilli on
ar mes
ĠB ordeaux
hÃ´ pital
ag ers
Ġac ces
inst all
ĠU A
ta ge
ĠÃ©trang Ã¨res
ĠC Ã´
ang es
app r
Ġdemand Ã©
Ġd ange
ra m
Ġoffici elle
en is
ĠC N
Ġg agne
Ġqu elle
Ø §
Ġp iste
Ġp Ã©tro
Ġpour raient
Ġcon ception
Ġdes ser
Ġpar fait
Ġrepr is
ĠdÃ©pl ac
Ġsucces si
Ġr ues
Ġvainque ur
ĠS ol
Ġra l
onom e
vo ie
Ġvoul ait
Ġg uer
Ġesti mÃ©
Ġsujet s
ĠprÃ© t
Ġtra fic
Ġv ien
Ġ195 8
ĠrÃ©parti tion
ric ulture
6 4
Ġprodu cteur
Ġrel ativement
Ġve ille
ĠR ay
Ġser aient
ĠÃ©le ction
Ġref use
ĠprÃ©sid ence
eng age
Ġgal ax
alog ue
Ġpolon ais
ouver ts
hÃ´ ne
ĠToul ouse
app u
Ġag ricole
Ġplac Ã©
w ood
Ġ196 4
ast roph
M S
Ġutilis er
ĠrÃ© duire
ouve au
Ġsc ru
ĠreprÃ©sent ants
ĠdÃ© l
Ġrec ue
ĠprÃ©sent s
Ġiniti alement
ather ine
U E
Ã©ta is
ir s
ta bles
ĠV inc
Ġancien nes
Ġquin ze
Ġs olution
se e
ĠM ur
u elles
il Ã©
ĠprÃ©sent er
Ġplate au
D ame
Ġt a
Ġpar am
Ġ196 3
ĠCol le
ĠÃ© m
Ġacc Ã¨s
Ġesp ace
ĠÃ© lÃ©ment
Ġsa tis
Ã© lev
Ġs Ã©n
ar n
Ġenvoy Ã©
ar re
Ġpl ans
ĠT om
lan ge
in ique
Ġv ar
Ġpro duis
ĠP ou
r ome
Ġcab inet
Ġconcep t
lus ion
ĠMar oc
ĠWash ington
g ation
Ġen vers
ĠÃī cole
Ġb anc
Ã©tu des
ĠN av
Ġrecomm and
Ġfond ation
U R
ĠS ans
u ter
ass Ã©
Ġplan Ã¨te
Ġrest a
ĠmÃ©t ropolit
3 7
l ot
y rÃ©
ta in
opp osition
ĠmÃ©dec ine
di ens
Ġou est
ĠvÃ©hic ule
C omme
h an
h t
ĠL oire
ĠB ul
ĠsociÃ©tÃ© s
Ġphilos ophie
ĠF ab
ĠT ri
Ġhum ains
Ġ179 3
Ġservi r
Ġcondam nÃ©
Ġs oins
ĠF lor
Ġorganis ation
ĠMad rid
ĠfÃ©min in
rÃ©d Ã©ric
Ġb ientÃ´t
Ġper te
ĠÃ©v Ãªque
Ġrest ent
Ġp av
Ġe au
Ġl ire
Ġcro ix
esp Ã¨ce
an y
el a
Ã´ les
cu pÃ©
ĠcÃ©rÃ©m onie
Ġm ass
ex position
Ġche fs
Ġf oi
Ġdiri gÃ©
Ġm ou
Ġsoci ales
Ġcour onne
ĠPor tug
qu ait
Ġch anger
le m
ĠP ic
Ġattrib u
Ġt oi
di os
crip tions
B C
Ġp ous
Ġb aisse
ĠP au
ĠreprÃ©sent ations
iti me
ec ture
Ġad ul
ĠfÃ©dÃ©ra l
Ġb u
o o
Ġp reuve
ĠD iv
Ġra p
Ġmin ute
ĠSe ine
ĠcomplÃ¨ tement
Ġa fric
Ġen v
ĠdÃ© riv
Ġ194 6
land aise
Ġprofessionn els
Ġpe au
ĠF ond
âĢ ĵ
ag Ã©e
Ġfeu illes
ĠimmÃ©diate ment
5 5
man ie
Ġutilis ant
Ġid Ã©e
Ġmus ul
ĠBar b
Ġdans e
Ġdis que
emp loi
Ġpoin te
In stitut
en quÃªte
Ġres pect
ind Ã©p
Ġs in
Ġsur pr
ill a
Ġp age
Ġsa tell
Ġle cture
Ġouv re
ou reux
al u
Ġ3 9
lan tique
ĠSta de
ĠhÃ´ tel
Ġa te
Ġm Ã¨ne
ĠdÃ©si gne
Ġsigni fic
Ġen tier
ers on
Ġar chÃ©
Ġchale ur
Ġac teur
Ġfra is
au f
ĠA th
Ġche m
Ġconsid Ã¨re
ri mer
Ġco Ã»t
Ġde vi
Ġs Ã©p
ent ure
in ves
an es
Ġcon g
ĠCon f
a ve
Ġen ch
Ġdi ver
ĠB rit
c itÃ©
i Ã¨res
{ \
Ġp Ãªche
is Ã©e
us age
Ġp ic
Ġau quel
Ġcomp li
Ġvo ilÃł
olog ies
Ġt o
Ġb ul
at er
ĠG ir
ort ent
Ġal g
Ġfin ance
ins tal
Ã©r ite
Ġ194 8
Ġrelig ion
Ġchante use
it ent
Ġv esti
Ġtota lement
or tÃ©e
Ġsouh aite
Ġrenouv el
. Â»
19 7
Ġ194 7
ĠJean ne
Ġ195 6
Ġha usse
ĠP an
ond es
ĠHen ry
Ġa ider
end ie
ces sion
Ġprogressi vement
is h
Ġpr Ãªtre
ĠÃ©mis sions
ĠlÃ©g Ã¨rement
m osph
i che
di er
Ġrepr endre
I C
ĠrÃ© cemment
ĠV ir
Ġmo difi
ĠIn de
ec k
Ġsoi rÃ©e
l ieu
te au
us t
ĠAn toine
ĠspÃ©ci aliste
dess ous
Ġscru tin
M ich
is tÃ©
Ġno bles
Ġcomb ats
Ġouv rages
in iti
Ġt ur
ĠM ol
ob jectif
ĠspÃ©ci fique
Ġprofessionn elle
Ġrestaur ation
Ġd ite
os a
Fran Ã§ois
Ġrece voir
Ġgra tu
4 8
P aul
ĠN am
Ġvien nent
4 1
ri en
Ġou i
Ġno y
po le
Ġsal les
Ġfoot bal
g ner
Ġpubli ques
Ġappar tenant
hab itants
Ġt Ã¢
Ġsur veill
Ġo ise
mand s
Ġcent aines
- -
au gment
Ġfin i
ĠrÃ©v Ã¨le
ĠcomplÃ¨ te
Ġsouver ain
ol te
Ġar ts
Ġper for
Ġja une
Ġfleu ve
glom Ã©ration
O S
E x
end ue
ĠÃ©tablis sements
instal le
Ġcompos iteur
Ġtitu laire
Jac ques
ot o
Ġca f
Ġorganis Ã©e
Ġpar ole
ĠrÃ©p u
Ġsta tis
Ġbr uit
Ġdirige ants
er ies
Ġsu isse
Ġvale urs
ĠBre tagne
Ġm yth
Ġconse ill
Ġten ir
Ġorb ite
Ġre le
Ġser v
Ġchamp ions
Ġrur ale
Ġdest ru
im m
Ġretour ne
Ġinfrastru ctures
ra is
Ġcl air
Ġpo w
Ġpap ier
4 7
Ġbes oins
Ġmen ace
ĠconsÃ©qu ence
B re
Ġtra ite
Ġord res
ĠmaÃ® tr
Ġocc asion
u f
Ġc ui
Ġpart out
Ġrou tes
Ġproc ure
ensi ve
j an
ra Ã«l
ment ation
Ġbe aux
Ġra cont
Ġat h
Ġlie utenant
Ġven u
it ch
ĠB ill
j u
av is
20 20
Ġassoci ations
ĠSu Ã¨de
h istor
qu ante
Ġh ockey
Ġmar ine
Ġtrav erse
Ġavi ons
ĠG Ã©
Ġpr ennent
ĠCor Ã©e
3 9
ĠM ath
Ġcap able
Ġb us
tis tes
ĠCom itÃ©
ĠrÃ©un ion
Ġ4 9
ĠX II
Ġaur aient
hi p
Ġ196 1
Al ors
Ġvou lu
Ġd anger
ĠV ienne
Ġfer rovi
Ġ191 4
ĠBlac k
ĠA mer
ĠCh aque
ĠCol omb
ĠprÃ©cÃ©d ente
Ġdistribu tion
U niversitÃ©
i an
Ġc ous
Ġf oss
ite urs
ĠprÃ©cÃ©d ent
ĠcatÃ©g orisÃ©e
Ġruis seau
Z Ã©
ch Ã©es
os Ã©s
Åĵ il
Ġgar anti
Ġren dez
Ġcircul ation
Ġmon ast
Ġ193 6
ĠM un
Ã© ni
Ġli Ã©
ĠÃ Ĥ
Ġv Ã©ritÃ©
li ge
Ġvis ion
ĠM aison
ĠP ont
Ġcons iste
Ġcl o
Ġrepr it
Ġcul te
Ġlaiss Ã©
Ġdyn as
Ġfor c
ĠÃ©v ent
Ġcardin al
is ode
Ġconten u
ĠsÃ© jour
l ait
Ġen c
Ġmulti p
de m
Ġh ect
ĠL ab
Ġvis ant
Ġcat astroph
ar me
Ġmag as
Ġw e
Ġlab or
O rient
ĠC er
Ġch aud
on nÃ©s
at te
Ġmis sions
Ġviol ence
ser ver
Ġli Ã©s
Ġconsid Ã©rÃ©e
v ence
Ġa per
Ġob jec
ĠGu y
Ġf aud
Ġin ond
ĠdÃ©c len
ex tÃ©rieur
ĠrÃ©alis ation
ĠPh il
Ġcommun ale
om mÃ©
ĠN ations
Ġconf ront
Ġsil ence
Ġa ch
ĠH ug
ven ue
Ġfer a
ĠrÃ©uss it
in Ã©e
ĠL Ã©
ĠL Ã©on
ul tÃ©
E mpire
Ġp anne
Ġconc erts
ĠSt ar
Ġbudg et
A P
Ġb ass
ĠS w
od y
Ġco ord
ĠreprÃ©sent ation
Ġpor tÃ©e
ĠÃ©n or
l Ã©s
Ġc re
ad ap
acc omp
Ġgr ille
Ġl ou
au tes
6 8
Ġpr Ãª
Ġ6 00
Ġtrava illÃ©
Ġassoci ation
Ġremar qu
Ġin gÃ©n
ĠJ Ã©r
Ġall ant
Ġsus cepti
gyp te
M al
Ġp Ã©d
ant h
ique ment
al ie
ĠAn dre
ĠdÃ© vo
Ġpr Ãªt
aff aire
d en
Ġatt endre
Ġretra it
in n
Ġpos t
ĠrÃ©c it
Ġmaj eure
rup tion
Ġc ens
Ã©t ranger
A ssemblÃ©e
Ġarriv Ã©e
Ġinc lin
Ġe Ã»t
Ġsu gg
Ã©lÃ¨ ve
ad o
ĠeuropÃ© ens
ĠmatÃ©ri el
Ġara be
g entine
Ġculture l
Ġaccue ille
3 1
s en
Ġp el
av ance
Ġdispar u
3 4
che c
Ġra re
Ġrespec tivement
ag u
Ġlanc er
Ġa Ã®
Ġac tif
Ġsal ari
ĠdÃ©fin ie
Ġfai bles
ĠexpÃ©ri ence
Ġpar aÃ®t
Ġperform ance
ĠM onde
ĠP Ã©
Ġmo des
ĠCar l
Ġp are
Ġv eux
Ġsc Ã¨nes
ĠE mpire
Ġsoulig ne
Ġsur prise
Ġparall Ã¨le
m Ãªmes
il ier
Ġint Ã¨gre
A lex
Ġs tri
ĠocÃ©an ique
C et
Ð º
ol ie
Ġg mina
h ib
Ġs ch
Ġpuis se
ĠrÃ©p ublique
aff aires
m ie
Ġv aut
anc Ã©e
Ġt uer
Ġv ig
Ġexpl o
A L
re ts
tr on
Ġdoc uments
urg ence
Ġs or
ĠÃ©v olution
Ġb ru
Ġass assin
Ġpow iat
f ense
Ġre j
ĠA vant
c osse
Ġcomp ose
Ã© tant
Ġcommun al
ĠLors que
am Ã©n
ĠÃ©c rite
Ġ5 5
Ġstatu e
ĠrÃ© cupÃ©
ob serv
Ã©c riture
3 8
h or
ĠC rÃ©
ĠM onsieur
ol Ã©
se ud
ĠD oc
N C
Ġen tiÃ¨re
Ch ar
h o
l ines
ĠO b
Ã©p reuve
Ġmaj eur
T he
es sion
ĠM Ã©d
Ġinst ant
ĠMon te
ĠfaÃ§ ade
or ph
Ġh Ã©ros
ex Ã©cu
ĠâĢ ¦
ag og
Ġbas Ã©e
A s
us ion
Ġdonn ant
ĠrÃ© di
mb lement
Ġcomp agn
Ġpriv Ã©
3 2
ĠsiÃ¨ ges
Ġcomm iss
i ve
ite d
Ġcons Ã©cu
Ġcent ra
am Ã©li
Ġdis ait
la di
Ġprogram mes
Ġpl a
os itÃ©
Ġaugment ation
Ġf un
Ġg agn
ĠÃ© vid
ĠF e
Ġser re
prÃ© sident
Ġjudici aire
ti me
Ġfootbal leur
4 4
ci ens
ĠLa urent
indÃ©p endance
Ã¨ dent
co pe
ĠdÃ© gra
Ġter rains
Ġposs Ã©d
is p
ig er
Ġent rÃ©e
Ġpriv Ã©e
Ġsi mul
ang le
ĠeuropÃ© ennes
ĠindÃ©p endant
ĠL in
ĠdÃ© ser
ĠmÃ© ta
Ġ17 7
ĠaÃ©ri ennes
Ã º
ol iques
Ġann onc
exp ression
P S
Ġl our
Ġsec ret
Ġexp osÃ©e
Ġalbum s
ol ine
ĠGr en
Ġmusic ale
Ġdu re
Ġfaci lement
Ġb ibliothÃ¨que
Ġ195 9
ĠlittÃ©ra ire
nov ation
archite cte
s ter
enn is
Ġunivers itaire
t tes
Ġ8 00
ve y
ĠmÃ© tal
ĠRe g
ĠComp agnie
tu e
ĠL ong
4 9
6 7
Ġpersonn alitÃ©s
Ġper dre
ĠÃ©p ous
Ġrom aine
Ġroy al
Ġcircu it
Ġt ab
ĠA cadÃ©mie
inf anterie
Ã©tablis sement
ĠD r
Ġmont rer
Ġmen Ã©e
Ġpra tiques
ĠdÃ© mÃ©n
ĠT witter
m at
ĠF ont
ati e
ĠColle ge
Ġa mÃ©n
ch n
Ġmont rÃ©
Ġcri min
er nes
ĠdÃ©fini tivement
se igneur
nivers aire
m ath
Ġcon duite
Ġh y
Ġconsac rÃ©
er te
Ġra dic
Ġindi c
til lerie
i ant
Ġd or
ĠPar k
ĠdÃ©c Ã©dÃ©
alis Ã©s
tra ge
eff ec
Ġlaiss ant
ĠĠ ĠĠ
ĠJ Ã©s
Ġcons cience
Ġinf luence
Ġgra ve
Ġtourn age
' Â«
c el
ĠS Ã©
ĠP eter
ĠFran k
Ġvolu me
Ġdioc Ã¨se
ar b
Ġb io
Ġdis position
ĠChris tian
Ġbil an
en e
Ġcour te
Ġdipl Ã´me
ar r
il a
ĠM es
Ġch auff
Ġress ort
Ġorgan ise
A b
w an
Ñ ģ
İ le
and a
Ġcro ire
Ġch oc
Ġcy cle
omm ages
ZÃ© lande
ĠJ oe
ar rÃªt
in age
ĠL im
ĠnÃ©cess aires
Ġespagn ole
Ġajou tÃ©
ĠM y
ĠH an
Ġtr Ã´ne
Ġren se
ĠAr t
Ġproch ain
ĠSim on
Ġv ul
f red
al li
Ġ6 5
Ġcan al
ĠconÃ§ u
Ġa ustrali
ĠrÃ© action
Ġcomp let
Ġar bres
Ã© les
ĠB ol
Ġconser ve
ĠS port
Ġpo se
Ġsal on
Ġlance ment
Ġimpos sible
ĠMaur ice
ĠT ok
tif ici
Ġpati ents
ol Ã©on
ĠF rÃ©dÃ©ric
ell ent
Ġrespons ables
Ġbran che
Ġmajor itaire
6 3
I A
ill ant
Ġsupp ort
Ġbrit anniques
ĠentraÃ® neur
comm un
Ġpro vis
Ġh iver
Ġver re
h yd
Ġen dÃ©
ag riculture
Ġcommun iste
Ġtra ins
Ġsix iÃ¨me
ĠconsÃ©qu ences
B A
Ġ195 5
Ġsur nom
app lication
ag a
Ġab ou
ĠComm un
Ġsur vi
Ġpubli Ã©s
Ð »
ĠÃ©c ologique
Ġclass es
ĠH all
Ġcours es
Ġnum Ã©rique
lÃ© ans
Ġli Ã©e
ĠMad ame
Ġmess age
y o
ou re
Ġsec ours
Ġmassi f
Ġgro ss
ã Ĥ
Ġentre r
Ã©lect ricitÃ©
ĠC elle
ĠG abri
Ġ194 9
Ġremplac er
k ov
Ã¨ vres
ux emb
Ġ193 8
ysi que
man ces
Ġreven u
6 9
C L
c ie
l av
c op
r Ã¨
s a
Ġj amb
Ġpo Ã¨te
N ous
rÃª ts
Ġiss u
C ar
ch ait
Ġb aptis
Ã¢ t
Ġmet tant
Ġfra g
ĠrÃ©sid ence
Ġhect ares
or ient
Ġplais ir
ĠM oh
Ġac quis
ĠrÃ©d action
Bre tagne
g en
ill age
Ġa i
th ur
Ġappr end
ra d
ro t
Ġal Ã©
Ġfr uits
Ġartis te
ĠGr Ã¨ce
Ġquanti tÃ©
ĠsÃ© qu
Ġ195 7
or ies
ul a
Ġk g
Ġarriv Ã©
ĠAu jourd
Ġcli ents
Ġinst allÃ©
Ġcitoy ens
is Ã©es
En tre
Ã©p isode
Ġscol aire
D urant
ĠÃ©c ou
ta tions
Ġtechn ologie
Ġeffectu e
8 5
Ġcont rib
Ġolymp ique
l ov
ti le
Ġt ax
arch ie
ĠÃ©trang ers
Ġfabric ation
or ge
ĠJ ules
Ã©ch app
Ġtent ative
Ġtransf ert
Ġmaxim um
ĠP en
ĠG as
Ġmat ern
Ġf isc
Ġjus tif
ĠrÃ©gion ale
ly mp
Ġrespons abilitÃ©
ĠrÃª ve
r ine
Ġl ourd
ĠK ing
Ġas se
Ġ195 2
ĠMex ique
r ise
en reg
Ġm ys
res ser
ai es
Ġchac une
Ġdynas tie
ĠL ang
ak e
ĠQuel ques
ar riÃ¨re
ill ot
Ġcomporte ment
Ġb ac
ĠS ab
Ġsenti ment
ĠR od
Ġes c
Ġbou che
Ġfonction nement
Ġmarqu is
Ġl y
ĠM ah
ait es
Ġar b
Ġchange ments
Ġiss us
n elle
ul sion
ĠMar i
Ġmen ac
ĠRe d
Ġassoci Ã©
ĠprÃ©v oit
Ġv Ã©ri
ĠP o
ĠD ar
lis abeth
abb Ã©
m ans
Ã¨ che
ĠAl ain
Ġlog ici
Ã© mi
Ġten ue
ĠÃ©ch ange
Ġdiffus Ã©
ĠÃ©lev Ã©e
fi eld
Ġnom me
ex ception
ĠOli vier
ap tiste
Ġsau f
Ġchiff re
S es
g nÃ©
au tant
Ġver sions
Ġperfor mances
R e
Ġcom Ã©
ĠJ on
ex emp
Ġon ze
uc k
Ġquar tiers
Ġsembl ait
ti m
Ġpr enant
Ġsou tenir
an alyse
er ait
me ub
E N
Ġ195 4
Ġdos sier
let te
5 9
ĠÃ©t ro
ĠÃ©t oiles
Ġsu Ã©d
Ġdou b
d us
Ġent rant
Ġrelig ieuse
D Ã¨s
h om
Ġt ap
Ġconn us
Ġbless Ã©s
ĠCong rÃ¨s
6 2
ur ie
Ġche veux
4 3
Ġ os
Ġc av
ĠH u
ente ment
ĠsupplÃ©ment aires
mi ra
Ġar tifici
oph one
Ã©qui p
expÃ©ri ence
Ġret ard
. )
ĠD er
ĠJ ui
Ã©ra p
Ġjus que
Ġense igne
Ġeffectu Ã©s
Ġcheval ier
ai me
ĠJ an
pr Ã¨te
lis es
Ã©c riv
Ġorigin ale
Ġbless Ã©
ĠD ie
Ġ195 3
Ġ193 7
Ġoffici er
f ond
Ġm oul
Ġmont ant
ĠintÃ© rÃªt
Ġchiff res
i ale
ch auff
Ġmo indre
Ġ4 7
Ġprisonn iers
archite cture
gn an
Ġdoi g
Ġf oule
Ġch ance
ĠF ri
Ġam en
A d
qu it
Ã©c ria
Ġappel Ã©s
ĠÃĤ ge
ĠM u
Ġtrans ition
Ġphot o
Ġ ign
Ġc ord
6 1
f iques
l Ã©es
ĠBar c
um in
Ġeffic ace
Ġco eur
Ġvari Ã©tÃ©
Ġpens er
Ġdocument aire
is tique
ĠS tre
Ġpol lu
ĠSch ool
a vez
Ġangl aise
tellig ence
ĠM ic
Ġpro position
og le
ĠSm ith
Ġs Ã©v
Ġb le
ĠN Ã©
Ġmil ieux
Ġp ay
Ġre mis
ĠD ub
Ġtransport s
en z
or p
Ġinternation ales
Ġ1 20
Ġ4 2
Ġtour ne
lev ard
A ustralie
C O
an itÃ©
Ġempl oi
Ġdyn am
ĠrÃ© duit
ĠmÃ© l
oty pe
Ġwe ek
Ġ19 18
onn ais
ose x
ĠprÃ©par ation
Ġl ing
Ġtemp le
Ä į
Ġpar u
Ġpoursui vre
ĠC y
ĠT ru
ĠrÃ©f lex
adi o
M A
s k
Ä ģ
Ġm am
Ġar t
Ġmont Ã©e
Ġdonn Ã©e
ĠdÃ©mocra tique
Ġfl am
Ġcollab or
Ġg la
Ġpouvoir s
Ġplu ie
mand ie
Ġfond ament
ĠrÃ©f Ã©r
ĠscÃ©n ario
Ġfen Ãªtre
G e
en ue
ĠS ous
Ġdoc tor
g al
ĠL ille
ĠC ra
Ġent endu
olu tions
dou ard
R S
c ol
Ġh umi
ĠU nivers
ĠdÃ©f endre
Ġp Ã©r
ou b
us h
Ġaux qu
ĠdÃ©f end
Ġinc ar
Ġemp run
Ġther mique
Ġv Ã©cu
ĠJ osÃ©
oc cu
ĠmÃ© lange
ĠpropriÃ©ta ires
4 6
is Ã©s
ĠV e
Ġtermin Ã©
Ġmal heure
Ã©an moins
Ġsol aire
re ction
il m
Ġn az
Ġcom Ã©die
re urs
ĠM ass
Ġport ent
autom ne
Ġn av
ĠC os
ag ent
tif ic
Ġpropos Ã©
Ġis lam
yrÃ© nÃ©es
4 2
Ġp ayer
ta ine
Ġpi ano
Ġdispon ibles
ĠÃ©vo que
ĠmÃ©tropolit aine
Ġm Ãª
Ġtemp or
Ġconse ils
Ġaccomp agnÃ©
ĠfÃ©min ine
Ġproch aine
T h
Ã© tiques
tra it
ĠÃ©criv ain
ĠPortug al
en i
Ġse mi
ĠD un
Ġcomp lÃ©
av aient
Ġfor ment
Ġsou tient
Ġcent res
Ġp and
er ce
Ġcont rain
Ġvoyage urs
Ġpar f
lo w
Ġli aison
Ġal titude
ak a
p Ã¨re
Ġb ris
Ġpour ra
ĠT re
ir urg
Ġsub st
ci ation
oles c
tri que
Ġsyn th
ĠL iv
ĠG er
ĠG old
Ġbar on
Ġmonast Ã¨re
Ġobjec tifs
ĠR ock
ĠinfÃ©ri eur
Ġv entes
ois eau
ir itu
Ã©lÃ¨ ne
ĠstratÃ©g ie
ĠtÃ©lÃ©vis Ã©e
Ġcouv rant
ĠS Ã©n
Ġh i
ĠN antes
Ġvie ille
Ġcri ti
Ġv endu
Ġpro tÃ©
Ã©v Ã©
ari os
Ġ195 1
Ġg end
ill ard
Ġli Ã©es
ri Ã¨res
ĠdÃ©si gn
Ġhum ain
Ġmulti ples
ĠÃ©qu ival
s ch
ar ra
le ts
ĠMar ia
ĠNor v
Å «
ou Ã©
as es
Ġg lis
ĠT ch
ĠV ierge
ole t
Ġutilis Ã©es
a vier
ĠdÃ© lic
enreg istre
Ġg amme
Ġin vent
ĠdÃ©c lin
Ġesp aces
ĠexpÃ©ri ment
Ġb oÃ®
Ġnation ales
Ġdifficul tÃ©
ĠP lan
ĠStra sbourg
p ire
Ġlib Ã©ration
Ġaccep te
Ã £
Ġl iens
Ã©ri r
Ġinter ne
Ġlang age
ĠÃ©vÃ© nement
ĠL Ã©g
ch amp
ĠM Ãªme
Ġb onnes
Ġ7 00
Ġm ens
Ġconf ond
ĠrÃ¨ gle
Ġdispar ition
Ġplate forme
a us
ab and
Ġjapon aise
ĠM iss
ĠR et
Ġdom es
Ġgar Ã§on
ĠMil an
ĠAff aires
Ġoffici ers
or tÃ©s
Ġv ague
Ġter ri
Ġinter view
ĠAn ti
Ġsau ver
ĠÃ¢ gÃ©
Ġenregist rÃ©
ĠAss ociation
igue ur
ĠTur quie
Ġbon heur
ĠprÃ©f ecture
Ġco opÃ©ration
ili bre
Ġgard er
ĠBarc elon
Ġg oÃ»t
ill ons
b out
ĠÃ© lab
ĠP C
se urs
ĠE sp
Ġexemp laires
Ã©ch elle
ĠRol and
Ġd ommages
ĠGo ogle
Ġtra duit
ov ie
Ġrapp ro
Ġ5 7
ĠMar y
Ġfor tif
ten ait
ten sion
9 9
Ġle v
Ġno tes
Ġdipl Ã´
s ant
Ġcomp lÃ©ment
Ġti r
gn on
ĠInter national
Ġdes serv
Ġac trice
ĠMar k
H en
Ñ Ĥ
Ġqu asi
au ts
ul er
Ġ16 0
el la
Ġac te
ĠDÃ© fense
Ġprofonde ur
Ġth Ã¨se
Ġ193 4
ĠRen Ã©
on f
Ġ193 3
Ġ erre
Ġp seud
Ġv igueur
Ġpl at
tin s
ĠsÃ© cher
Ġrom ans
Ġfort une
ĠChic ago
Mich el
qu ette
or ne
Ġlong ues
Ġsta tions
ak h
5 7
G N
de ux
Ġfl otte
ĠChampionn at
ĠAr n
lic itÃ©
Ġfac il
Ġminist res
ĠB elle
Ġsub s
Ġcommerci al
Ġnoir s
ĠprÃ©cis Ã©ment
Ġ orth
ĠprÃ©sent ant
Ġtrava illeurs
eff et
abb aye
ĠnÃ©er landais
g rÃ©s
Ġr Ã´les
ĠmÃ© tier
E P
w in
Ġsucc Ã¨de
ĠendÃ© mique
Ġim age
Ġprim aire
en ez
un ion
mi di
Ġcomb in
Ġfaci le
Ġm ac
ĠC D
ĠN et
lis me
Ġam our
ĠlÃ©g ende
Ġess ais
Ġparam Ã¨tres
ĠC lar
esp oir
Am Ã©rique
r itÃ©
ar te
ĠT unis
Ġquit tÃ©
Ġent er
Ġ193 5
m ise
ouv rage
Il s
Ġpl ant
Ġfa me
pi ration
bli r
Ġsecond aire
ĠscÃ©n arios
ĠVinc ent
Ġf leur
ĠMar s
Ġvis ible
ic an
par ole
ann once
ur ance
di es
att end
Ġdat ant
ag ence
for mÃ©
em ark
9 5
Ġces se
Ġmont agnes
cul aire
Ġtomb er
I T
r ants
Ġb ons
ĠIn stitut
Ġreven us
ĠMarc el
ĠrÃ© ta
imp ose
Ġorganis ations
Ã© difice
Ġnature ls
tern et
Ġtent er
Ġconfir me
Ġc aval
ĠC atherine
Ġprin cesse
Ġmal adi
ag Ã©s
ĠreprÃ©sent ent
en v
olog ues
Ġcan on
ĠentraÃ® ne
Ġchron ique
N e
et a
ĠD am
Ġmont er
Ġallemand s
Ġfourn ir
ypoth Ã¨se
Ġferrovi aire
ve au
Ġj oie
ĠprÃ©sent ent
Ġpor ta
Ġmain tenir
Ġinstitu tions
ĠD ire
utilis er
z i
or ce
Ġan alys
ÃŃ a
Ġfall ait
ĠG h
onc le
Ġbate au
it Ã´t
Ġdistin gue
Ġspor tif
Ġinspi rÃ©
il d
ĠdÃ© lÃ©gu
ĠfÃ©d Ã©ration
Ġfen Ãªtres
ĠE li
Ġcommenc er
Ġabs olue
5 6
l age
ou ff
u ellement
ĠB ab
ac trice
ĠT V
ĠdÃ©par tements
ĠR es
Ġcal end
Ġeng agÃ©
Ġcuis ine
Ġpand Ã©mie
j on
ĠrÃ©p and
Ġmanifest ations
Ġ19 19
Ġapp arition
ang l
omÃ© trie
A D
Ù Ħ
Ã» te
Ġdisp ers
ĠEr n
d ont
Ġsou ter
Ġad joint
ell ation
Ġsimil aire
ĩ a
Ġv ise
Ġcommunau tÃ©s
L E
c cident
Ġr entrÃ©e
ine ment
Ġdev oir
Ã© mique
Ġb lo
vi ce
ĠG Ã©r
5 8
Ġc rit
ĠF ort
Ġeff orts
Ġautom obile
l as
re au
Ġf ic
A M
pe ur
ĠBarcelon e
Ġend roit
A cadÃ©mie
h ol
ĠB lan
Ġsp iritu
Ġmis es
Ġdonn ent
Ġ192 9
ĠGen Ã¨ve
ĠAlle mands
Ġen cou
Ġch irurg
Ġti ss
Ġcol oni
ĠMus Ã©e
5 1
D eux
Ġd ame
Ã¨s es
uss itÃ´t
Ġmaxim ale
Ġchem ins
Ġc ouverture
Ġsecond aires
Ġatta ques
ĠtempÃ©ra tures
ĠR T
Ġs oix
Ġprom u
Ġretrouv Ã©
w n
y er
Ã¨ ler
ĠL is
ĠdÃ©sig nÃ©
ĠmÃ©tÃ©or ologique
z er
ĠH ub
Ġcin quante
Ġmauv aise
Ġre lÃ¨ve
Ġinter dit
Ġsitu Ã©s
g el
Ġmin es
ĠÃ©crit s
Ġman us
ĠRog er
a o
ĠC amb
at traction
Ġav is
os Ã©es
Ġjourn alistes
Ġus age
Ã© si
Ġb ais
Ġ $
ĠrÃ©g lement
Ġcon ven
ĠPour quoi
ĠDan emark
Ġr up
Ġcaf Ã©
Ġmaladi es
Ġinflu enc
ĠintermÃ©di aires
z y
ĠB erg
ier res
Ġoccu pÃ©
ti ls
Ġmo teurs
Ġsitu Ã©es
Ġc ris
Ġh ame
Ġcont enant
Ġvi de
oris ation
Ġdiri gÃ©e
ĠRo che
ĠMus ic
P uis
ĠA ux
ĠB ir
Ġex haus
Ġac ad
ch ester
ĠP aci
ad el
Ġrem onte
Ġdiz aines
ĠJÃ©s us
c Ã©e
d ans
ĠprÃ©v ue
Ġspecta teurs
qu ier
Ġle ader
ch on
ĠrÃ© el
r est
or f
Ġav ocat
Ġex position
Ġport rait
Ġmorce aux
5 4
Ġmeille ures
Ġcircons t
tan tin
ak i
Ġinternation aux
Ġconfir mÃ©
m ettre
ĠÃ© mo
Ġan c
Ġ25 0
ĠrÃ©guli Ã¨re
ĠDiv ision
Ġc oin
Ġdu o
Ã©v Ãªque
ĠUn ited
Par mi
Ġcollec tif
Ġdestru ction
Ġt ch
Ġcomm is
Ġcarb one
P ro
Ġmont rent
ĠdÃ©clar ation
Ġorigin al
h ommes
r Ã¨te
Ġp rai
ol is
ĠJui fs
res sionn
Ġg ris
Ġcol Ã¨re
avi on
ais ons
Ġdi vin
ĠH el
Ġpor tug
fic es
ĠSt an
Ġjourn aux
Ġ191 7
ĠaÃ©ri enne
ch en
Ġense ign
ĠÃ©tablis sement
au di
Ġb rÃ©sil
Ġac tifs
ĠpÃ©ri odes
ladi mir
Ġchar gÃ©e
ĠmÃ©th odes
Ġabb aye
appu yant
Ġrou ges
Ġtrou bles
ĠdÃ©te c
as a
ĠdÃ©b ar
Ãªte ments
Ã© lu
ĠCh ap
ex trÃªme
Ġmen er
Ġsymb ole
Ġsatis f
as tÃ©roÃ¯
Ġass urÃ©
ĠIn f
ĠFor ce
in al
Ġch Åĵur
co ol
form ations
Ġf Ã»t
Ġsupp ri
Ġdesti nÃ©
ĠGabri el
Ã´ ts
Ġc ouvert
Ġch Ã¢
ĠR u
Ġab rite
Ġw eb
Ġsurveill ance
ĠL ac
ĠJ ourn
ob le
ĠDis ney
5 2
en tique
ĠT op
tra tion
Ġrom ain
B ien
Ġc ur
ĠT F
ĠLi Ã¨ge
Ġaccomp ag
ie v
Ġsou mis
Ġp ouvez
ti lle
Ġdit es
ale m
Ġryth me
in oise
us ine
Ġpl ante
ĠÃ©ta ge
ach at
Ġquar ante
Ġtri om
Ġprocure ur
ati n
lÃ©g ation
Ġmusici ens
Ġn ations
Ġp ages
Ġin Ã©d
E l
Ġla it
tu aire
Ġent endre
Ġviol ences
Ġparticuli Ã¨re
Ġcorrespond ant
Ġadministra tive
ĠÃ©ner gÃ©
ĠPat rick
ĠmathÃ©m atiques
ĠN ouveau
tru ite
Ġreg ret
Ġban que
Ġinscrit s
Ġprivil Ã©g
Ġs pr
ve ille
ĠF i
Ġ193 2
Ġis ra
ĠmatÃ©ri aux
ĠnÃ©cess itÃ©
Ġcolon el
z an
ĠA w
ĠN orth
ist oires
Ġtour ner
ĠrÃ©p ert
Ġmusic al
Ġac tes
Ar ta
Ġvoul oir
qu ille
ĠE tats
Ġh Ã©tÃ©
ĠmÃ©di Ã©v
ĠCro ix
ĠextrÃªme ment
Ġsou tenu
ras se
l at
Ġfort es
ĠChic ot
ĠRec ords
mi d
Ġan niversaire
an isme
Ġ19 00
ĠÃ©ta pes
Ġpouv aient
Ġmai rie
Ġlim ites
ĠdÃ©si r
ĠPe tit
pr Ãªme
Ġan alyse
Ġno ter
Ġsc and
gl ais
Ġmet tent
Ġform at
Ġn ette
ĠF ern
Ġou bli
Ġbeau tÃ©
Ġconser vÃ©
our ne
ĠG ri
ĠJ im
Ġ ]
Ġt ac
Ġpos tes
ĠtÃ©m oi
s tÃ©
Ġp ut
is tait
Ġass urer
Ġmal ade
Ġfr om
acc ueil
Ġrem ise
Ġlic ence
Ġp es
ro its
Ġexc ent
Ġspor tive
Ġvir us
Ġd an
Ġbar rage
Ġ }
ct ur
ĠmÃ©dec ins
Ġf aux
Ġpeu ples
Ġinter romp
yl v
Ġpopul aires
Ġemploy Ã©s
h y
in tes
Ġ4 4
ĠCam er
Ġpolon aise
Ġag ents
Ġdessin Ã©e
Ġdiz aine
ui r
Ã©ri ques
ob tenir
Ġguer res
Ġmanus crit
Ġcon duis
Ġprovis oire
oi ci
onn ant
Ġstru ctures
Ġoccident ale
Ġmour ir
onn ier
Ġcomp tes
Ġpers pec
Ġarriv er
Ġlanc Ã©e
Ġheure ux
mb ler
ĠK n
Ġ5 4
Ġaff ront
Ġapp lication
aut oritÃ©
Ġremp orter
ĠÃ©p reuves
Ġmen Ã©
Ġclass Ã©e
C om
M ari
Ġdu quel
Ġb ot
ĠS ing
onn a
ĠK i
Ġrec ours
Ġ% .
hui le
Ġrapport s
ĠdÃ©ta ils
en nies
Ġp ur
Ã©ch al
Ġukrain ien
ĠA dam
ĠrÃ© duction
Ã©b Ã©c
Ġpropos er
Ġcellu les
Ġp ierres
re lle
Ġde viennent
ĠL ar
ĠR ap
ĠÃ©c lip
ĠBrun o
Ġpropor tion
Ã£ o
Arta gnan
Ġpolici ers
ĠdÃ©c ennies
Ġchois ir
Ġd ig
au jourd
ĠprÃ©sid ente
Ġvisite urs
ci ce
Ġpau vres
on iques
ow s
A utriche
is si
Ġch ien
if e
Ġag rÃ©
Ġconstitu ent
Ġcro ise
ĠNor mandie
w ick
om es
ve u
ĠA z
di r
ad is
anc el
Ġreconn ue
ouv Ã©
Ġac tive
Ġstand ard
Ġcalend rier
ĠS un
ĠF orm
mi le
ali tion
Ġorient ale
Ġsymp t
r ans
Ã© en
ĠJ ones
Ġne ige
Ġ17 0
Ġaut onome
oph ones
quis ition
bo ok
Ġp Ã©
Ġa che
Ġfran co
Ġ% )
amÃ©n agement
Ġb Ã©
Ġsol id
ĠQu ant
Ġblanc s
5 3
Ġs ainte
g os
Ġm ang
Ġh Ã©ri
Ġproven ant
en ci
ac cep
ĠdÃ©termin er
X V
ĠC re
Ġmon te
Ġconstitu Ã©e
Ġbou le
ĠrÃ© pÃ©
ĠR adio
ond s
Ġgr Ã¨ve
Ġfron tiÃ¨res
ĠÃ©lÃ¨ ve
ĠSÃ©n at
Ġ Ï
ĠM od
ĠN Ã©anmoins
Ġcha uss
ĠvÃ©g Ã©ta
Ġ [
ĠA f
Ã§ u
Ġretour ner
of t
Ġenv ah
E tat
ro b
Ġpar ent
ass urer
Ġvac ances
Ġp ure
ĠW i
Ġconcurr ence
C erta
Ġf re
Ġt rÃ©s
ĠB ig
Ġh ol
Ġ4 3
G ar
k en
m ine
Ġcom tesse
Ġcal me
Ġcommenc ent
E s
ĠC ri
ĠcompÃ©ti tions
est es
ĠB ob
ĠAn n
ĠMay otte
ĠLou ise
ĠF oot
ord inaire
ĠlÃ©g ales
ĠP a
Ġch angÃ©
ĠT ex
ĠH o
Ġ4 1
cont re
ĠAm Ã©ric
Ġdestin Ã©e
ĠprocÃ©d ure
Ġa ime
Ġb ro
ĠB at
ĠÂ» ).
ĠAl b
Ġlabor atoire
ra tions
Ġre pose
ĠrÃ© chauff
fic ations
Ġparlement aire
Ġoise aux
Ġdoctor at
8 8
Ġg este
Ġquel qu
ĠVo tre
vi demment
Ġ192 4
ĠNo Ã«l
Ġappare ils
at tention
lÃ¨ te
Ġform ule
Ġautre fois
Ġconser ver
Ġeffectu Ã©
ur ait
ĠP ap
Ġcont ro
Ġgar dien
ĠR ac
Ġrest Ã©
ĠintÃ© rÃªts
Ġiss ue
ĠA ri
Ġatte inte
ĠCons titution
Ġclassi ques
ĠSant a
telle ctu
d d
Ġtra Ã®
Ġutilis ateurs
Ġ192 8
Ġveu lent
Ġcontinu a
Ġmorce au
Ġs ombre
Ã©ta ire
ox y
Ġobserv ations
oule z
A ra
E C
Ġc ents
Ġt ennis
ĠS tÃ©
off ici
ĠprÃ©p arer
ob i
Ġfac teurs
Ġrelig ieuses
Ġtra ces
du its
Ġrapp orte
Ġmod ernes
Ġnature lles
ĠChampionn ats
ar tillerie
Ġm agn
Ġcon vi
ĠprÃ© s
Ġmach ine
mosph Ã¨re
ĠprÃ©sent Ã©e
Ġord in
Ġc ouvre
Ġbou levard
Ġ191 0
ĠpropriÃ©tÃ© s
Ġsu prÃªme
fin ale
Ġfourn it
Ġch im
Ġcompr enant
Ġfl ot
ĠFin lande
8 9
Ġc ancer
tri ch
Ġas c
F F
ard ins
Ã©d o
g ies
Ġh an
itÃ© es
Ã©rÃ© es
Ġmod ern
ĠNap olÃ©on
7 7
on ale
om o
Ġj uni
erm ain
if ication
Ġconseill ers
b ach
ĠÃ© mer
Ġspati ale
Ġtou che
ĠÃ©c rire
Ġdistin gu
Ġchap itre
ĠPl ay
Ã© ten
Ġf ur
ĠM en
at ures
ĠB rig
Ġin tellectu
ĠH a
ĠH ill
ĠFrancis co
Ġn ata
Ġra di
ĠreprÃ©sent Ã©
Ġviv ent
Ġintitu lÃ©e
i ro
Ġs ul
ĠÃ© loi
ĠamÃ©ric aines
Ġsep tiÃ¨me
raire ment
Ġt ue
ac u
ĠR Ã©s
Ġpersonn alitÃ©
app are
Ġp Ã¨ler
er o
ĠO ff
Ãī cole
Ġconc lut
Ġsuc re
m art
Ġp in
Ġ193 1
Ġinstall ations
om an
Ġpass agers
Ġs anc
Ġn ot
Ġpuiss ant
Ġfinanci Ã¨re
ĠsÃ©cher esse
ĠB ois
Ġh as
ge ant
int ro
lo re
Ġcatastroph e
Ġb aie
ic s
ĠÂ» ),
im a
Ġcli ent
Ġsucces seur
Ġchan tier
ĠH aut
Ã©r on
Ġann on
Ġsour ire
ĠprÃ© nom
Ġprop ag
ĠNorv Ã¨ge
Ġpl aine
ĠE ug
ĠF ar
ĠN GC
Ġar gent
Ġcont ac
Ġchamp s
Ġciv ils
si le
Ġven ue
Ġindivi dus
Ġinves tis
ĠJourn al
Ġl Ã¢
Ġsou d
In de
Ġvois ins
p our
Ġc u
ai d
rop ri
Ġposi tions
Ġaccus Ã©
et y
Ġne f
ĠsÃ©lection nÃ©
Ġcong rÃ¨s
ĠG il
ig ner
ob e
ÃŃ n
Ġadministra tif
I D
n ous
ic es
Ġprovin ci
g nÃ©e
an iste
Ġm onn
ussi ons
Ġdev aient
Ġsembl ent
Ġf ans
eu ve
Ġcl airement
Ġsol o
Ġ192 5
ĠIs raÃ«l
an ni
ĠL uxemb
tu me
ox e
Ġfinance ment
ĠB le
ĠD Ã©c
Ġmo b
Ġremp lace
Ġconstitu tion
ĠdÃ©ta illÃ©e
Ġir rÃ©
Ġant Ã©ri
Ġbrig ade
Ġj ur
cal ier
Ġtest s
ĠCÃ´ te
Ġc lÃ©
Ġti rer
Ġven ant
Ġis ol
Ġinclin aison
Ġ192 6
Ġrem et
Ã©ten ces
ĠS k
in k
Ġv Ãªtements
ro i
Ġdis cu
ĠZ e
Ġprovo que
ĠinfÃ©ri eure
Ġparfait ement
ou ch
Ġcomp Ã©tences
Ġconf Ã©rences
Ġjuri dique
astÃ©roÃ¯ des
Ġm anger
Ġf ar
ĠB ert
Ġh erb
Ġconf ie
Ġutilis ent
Ġmag nÃ©
hÃ© lie
Ġferm et
tr uis
ĠAl pes
Ġposs ession
Ġavi on
Ġpot entiel
w ell
ĠS and
ag glomÃ©ration
ĠT ib
ĠspÃ©ci ale
Ġv as
Ġbas ket
tÃ©ri eures
Ġcontraire ment
ĠHong rie
Ġa x
ĠÃ ¨
ĠÃ ĩa
Ġe m
Ġex ac
Ġ6 4
Ġexpli quÃ©
Ġdestin ation
v itÃ©
Ġm os
Ġau trich
ĠpÃ©ri hÃ©lie
off re
Ġsort ant
Ġp ert
Ġtu Ã©s
Ġvoi ent
rÃ© h
ĠV II
Ġgal erie
Ġling uis
Ġc ouvent
in ion
ĠW ind
Ġinc endi
In see
v et
ou ge
Ġas tr
ĠAs ie
ĠOp en
Ġf ati
app elle
Ġ191 2
Ġtrop ic
Ġcanadi en
Ġqu Ã©bÃ©c
ot on
ĠmÃ© d
Ã©nÃ© ral
Ġcul tures
Ġbat tant
Ġrup ture
9 8
el in
Ġch amb
Ġten ant
Ġclim ats
ress Ã©
Ġexpli quer
ĠP alais
ĠV oy
Ġrem ettre
Ġ187 0
Ce pendant
Ġsuffis amment
ĠreprÃ©sent er
Ġdeven ant
Ġrecense ments
assade ur
ĠN ov
ĠCh Ã¢teau
ex er
Ġrep os
Ġ192 2
Ġs o
ĠM ans
Ġcon vers
Ġpro lon
ul Ã©
id a
id entif
Ġinstru ment
iterran Ã©e
L uc
il er
Ġb elles
ac re
lÃ© ch
Ġtour isme
T A
li r
la h
ĠrÃ©s olution
ĠThÃ© Ã¢tre
z aine
ag issait
ĠV ladimir
Ġchois it
Ġabs olu
f e
om pe
ĠD j
7 8
Ġt un
Ġil lÃ©g
ĠI mp
ĠnÃ© o
ĠlÃ©g Ã¨re
or at
ra se
Ġp Ã©nÃ©
Ã¨ vement
Ġapp roche
Ġbless ure
Ġmur m
Ġg re
Ġg enti
Ġth Ã¨mes
fi ant
ĠE v
Ġcol onie
Ġrend ent
Ġoblig atoire
ĠLe e
Ġnom ination
erm ont
Ġlut ter
Ġacces sible
ff e
Ġremp lacement
Ġprodu ite
initi ative
P L
ĠÃī glise
Ġtrou pe
Ġculture lle
Ġvois in
Ġcam Ã©ra
anim ation
Ġl u
le z
ul aires
Ġdi c
Ġprincip es
Ġaff ron
Ġhon or
ard o
Ġ5 2
tiv itÃ©s
Ġven us
Ġqualif iÃ©
ĠCons tantin
Ġtraditionn elle
Ġconcent ration
Ġadvers aire
av a
av re
Ġbas es
trÃ© mitÃ©
Ġ #
it te
ac o
Ġra m
Ġreconn aÃ®tre
Ġa iles
Ġtravers Ã©e
Ġhum aines
Ġpot enti
Ġintro duit
Ġpeint ures
Ġalg Ã©ri
ĠGÃ©r ard
Ã¨ ques
ag i
ab e
Ġcer cle
ĠIn ternet
Ġmag ist
ag ir
Ã¢ me
are t
Ġpo Ã©sie
Ġbat tre
ĠChrist ophe
Ġnour riture
G u
di ques
ss age
Ġma illot
AF P
n d
r iss
Ġs Åĵurs
Ġb ri
ĠS he
ĠLa ur
Ã® t
Ġdou leur
Ġdonn a
Ġfranch ise
ar in
Ġt ub
ĠF land
ut h
Ġex ig
Ġdess us
Ġp omp
or gie
imp orte
ĠWilliam s
Ġtyp ologie
ĠD ur
ĠfÃ©dÃ©ra le
ĠJu an
ai gne
Ġpossi bles
ĠTok yo
Ġ4 6
Ġ192 7
h uit
Ġf ile
Ã¨ nement
Ġre lev
ĠN ik
ĠCar oline
Ġess ay
Ġf ro
ĠO t
Ã©r y
Ġser be
Ġsimp les
Ġsex e
Ġspati al
ĠGrou pe
Ġh ong
Ġgra ves
ĠdÃ©fense ur
ĠdÃ©place ment
Ġrej oign
S A
Ġen vie
tÃ© rÃ©
ĠF ra
Ġaffir mÃ©
ĠLuxemb ourg
is mes
Ġg agnÃ©
ci le
ĠO lymp
Ġvais seau
ĠapprÃ© ci
9 7
A ux
E L
Ġpays age
Ġprom en
Ã¼ r
z iÃ¨me
al ors
Ġapp lications
ori al
Ġlim itÃ©e
Ã³ w
Ġsucces sion
Ġexcent ricitÃ©
T V
ĠT y
ins ule
Ġent ra
Ġen ce
Mar tin
Ġdirec te
Ġstatis tiques
8 7
t ante
Ġconc lu
Ġsui vent
Ġri re
19 0
Ġsol ide
ĠrÃ©alis Ã©s
Al gÃ©rie
ĠconsÃ©qu ent
or chestre
ouv oir
im ag
Ġper pÃ©
Ġmom ents
ĠÃ©ch elle
Ġdimin ution
ĠN ice
Ġro se
Ġab ord
pec ts
Ġrencont rer
Ġparc our
Ġdirige ant
j ug
v ue
ĠdÃ©fin ition
ĠÃ©lect riques
Ġautom atique
entraÃ® neur
Ġde bout
ent end
ĠD up
Ġqualif ie
Ġparten aires
ĠnÃ©goci ations
i Ã©es
res sions
um Ã©
imp act
s is
ĠR em
Ġcent aine
Ġtal ent
ĠVir gin
Ġl ux
Ġv ents
ĠL ui
ĠC assin
ab il
Ġ5 1
Ġinc lus
rid ge
u alitÃ©
Ġcul tiv
c ade
Ġes prit
Ġat tention
ĠPour tant
Ġbi ais
Ġprovin ces
ĠtÃ©lÃ©ph one
Plus ieurs
Ã©rie urs
Ġmer c
Ġ192 1
oun d
Ġferm Ã©
Ġa ussitÃ´t
Ġsus c
ĠcatÃ©g ories
N Ã©
ĠV ie
ĠK y
F C
aur ait
aÃ¯ d
ĠGre en
Ġdiscip line
ĠÃ©clip tique
T out
ou reuse
Ġapp ris
Ġdis ant
Ġcri me
Ġdesserv ie
h al
Ġl igue
Ġg o
ĠR y
Ġtourn ant
ĠÃ©ner gie
ĠRÃ©g ion
D u
l itÃ©
ou che
Ġti rs
Ġag ent
Ġqualif ication
Ġhui tiÃ¨me
a ments
Ġs olutions
as tr
ĠM ain
ĠPro vence
Ġsuff rages
ĠdÃ©ch ets
8 6
Ġcamp agnes
un k
ur ch
ĠS erb
ĠI b
du cteur
ili ers
Ġphot ograph
ĠrÃ©comp ens
c ap
Ġm ul
us tin
Ġre vi
ĠB oy
ĠGr Ã¢ce
Ġtraditionn el
ĠsupplÃ©ment aire
Hen ri
Ġd Ã®
Ġving taine
Ġadop tÃ©
Ġdirect rice
inv asion
d itÃ©
l itude
un a
Ġen voie
ais es
Ġjou ent
ĠAl fred
aiss ait
l ure
Ġcomm Ã©m
Ġrec ettes
Ġcap ac
Ġhau tes
ĠrÃ©pu tation
ĠÃ© dit
ĠT im
Ġra men
Ġti re
Ġhabit at
Ġnobles se
Ġpert urb
ĠS oleil
ĠR oi
rai res
Ġfavor able
Ġtour nÃ©
agn os
Ġenvi rons
Ġess ai
Ġdevi endra
de ur
um er
ĠU l
app arition
Ġsy stÃ©
cid ents
ĠâĢ Ŀ
Ġtechn ologies
Ġpil otes
Ġbour geois
ĠFl ori
Ġmach ines
Ġfu ite
ar on
ĠL une
eu t
Ġvi ande
Ġvoy ant
Ġbomb arde
ai der
Ġnation aux
ĠSou th
Ġar me
Ġver tu
ĠRe ich
Ġparten aire
Ġpas sent
Ġalli Ã©s
ĠindÃ©pend ante
B aptiste
Ġsur mont
Ãª chÃ©
Ġra v
Ġfra ppe
ĠS pe
li quer
cien ces
aiss ant
Ġgr en
Ġ191 1
Ġfig ures
M e
o que
Ġ ua
ĠC op
ĠP Ã©r
ĠH or
ton e
Ġfl or
Ġreti rer
Ġfermet ure
Ġn oc
ĠprÃ©sent es
f ils
ĠM az
Ġtrans formation
Ġrencont rÃ©
Ġtelle ment
7 2
Ġpl ainte
che z
ĠW at
Ġparticip ants
Ã©b as
Ġ192 3
ess es
Ġconserv ateur
Ġemploy Ã©
Ġsav ait
9 6
w s
Ġpass Ã©e
ĠZ el
lie ue
Ġpa ie
ĠLor raine
9 2
Ġ Ø
Ġtou chÃ©
Ġcont ent
lis ation
gn y
Ġ191 3
actu elle
ĠVen ise
ĠH y
Ġra ce
Ġquar ts
ĠÃ©t oile
Ġrel ais
Ã©criv ain
Ġno tion
anc y
Ġpartis ans
er i
ci o
ĠT Ã©lÃ©
fi Ã©
ĠrÃ©v Ã©lÃ©
Ġinv itÃ©
Ġminim um
ĠimpÃ©ri ale
Ġinond ations
Ġcapac itÃ©s
Ġin hum
id entitÃ©
Ġenne mis
Ġj azz
ĠH ans
Ġrec ueil
Ġmilli ard
Ġenf ance
Ġfort s
Ġfac ultÃ©
eu m
Ġsub it
C A
Î ±
à ¸
Ġp y
Ġet h
ĠP yrÃ©nÃ©es
Ġfeu ille
inst aller
Ġl is
ĠG ard
Ġvois ine
ĠvÃ©g Ã©t
Ġprai ries
Ġmal ades
Ġparticip ent
Ġrenfor cer
ag nies
Ã©s ar
ĠK ir
J oseph
h Ã©r
ou dre
ĠD en
ĠÃ©tudi er
Ġconserv ation
Ġinstru ments
ĠmaÃ®tr ise
Ġde grÃ©
Ġs el
as tiques
Ġne ur
Ġlong s
gra tion
Ġcath oliques
ĠGÃ© orgie
Ġp oule
ĠA ssemblÃ©e
ĠK iev
Ġmon seigneur
Ġre par
ĠÃ©lectr onique
ĠprÃ©t end
Ġs oin
si ers
ex iste
Ġmin i
Ġprog rÃ¨s
Ġ *
ĠA ussi
Ġimp lant
8 2
R I
g Ã¨ne
u ge
Ġremp la
ĠdÃ©p asse
Ġsuiv ie
Ġesti mÃ©es
Ġesti mÃ©s
Ġlo gement
Ġimm ense
Ġmob ile
Ġm Ã©ri
ran te
ĠT ay
Ã©c ran
Ġmat ches
Ġfaud ra
Ġch inoise
ĠR on
ois es
ĠCh amb
ĠdÃ©c ouv
Ġro b
Ġaugment er
Ġfix e
ĠrÃ©public ain
ĠMÃ©d iterranÃ©e
es pÃ©
Ġmar itime
ĠdÃ©c rite
Ġconn ues
Ġpo dium
ĠBl anc
actu el
Ġresse mbl
Ass ociation
ĠStÃ© ph
7 6
ĠV ar
omb e
Ġquat or
Ġretr ouvent
Ġguit are
Ġsalari Ã©s
m ait
ant on
ai gn
19 50
oph ysique
ĠrÃ©v olte
Ġdimen sion
ou er
Ġt ort
us alem
Ġprof iter
Ġtable aux
Ġemb ar
Ġj ardins
ĠT al
Ġex pÃ©dition
Ġdra peau
chev Ãªque
Ġpois sons
it an
Ġm ira
Ġv ag
ĠK ur
oth ique
ĠCassin i
Ġs ph
qu Ãªtes
ĠdiffÃ©r ent
Ġarch ives
n am
on ciation
Ġb rou
Ġh Ã©b
ar th
ĠR D
Ã©n ie
Ġconsac re
it ale
ad y
Ġmo ines
ĠrÃ©c lam
Ġconstruit s
Ġrefus Ã©
Ġhom osex
ĠSy rie
Ġnorm ale
es c
nÃ© ra
ĠgÃ©nÃ©ra ux
Ġdiffic iles
Ġc ass
Ġf lu
ĠM me
ĠJ am
Ġform ations
Ġst y
ĠdÃ©cis ions
Ġs mart
Ġf Ãªtes
ra g
Ġco alition
Ġsp orts
ĠrÃ©c ol
Ġsign ature
install ation
Ġre mer
Ġins c
Ġconnaiss ances
ĠaÃ® nÃ©
en h
ĠlÃ©g er
Ġseu les
ĠpÃ©tro le
Ġadul tes
? ...
k ins
Ġr omp
ĠÃ©g yp
ĠRe al
hum anitÃ©
c is
h el
à ¤
al s
Ġad mis
ĠrÃ©fug iÃ©s
A vant
Ù Ĭ
os h
Ġcyc liste
ĠDoc teur
Ġterri ble
Ġisra Ã©li
9 4
ĠI GN
ĠÃ©c ar
ĠÃ©tudi Ã©
ĠJus qu
m atiques
ĠcÃ´ tes
inter vention
Ġdess ins
Ġmeur tre
Ġsomme il
Ġm eu
Ġb y
Ġmar ques
Ġpos er
ĠAn glais
Ġfinanci er
ĠDon ald
ĠPou tine
M ont
or ges
oc ation
Ġphot ographie
oÃ® t
ĠP ers
O M
in qui
Ġt ardi
ins crit
ib ilitÃ©
Or lÃ©ans
guer ite
Ġp uits
ĠM id
ĠM ess
Ġaband onnÃ©
ĠPaci fique
Ġfro ide
ĠQu atre
Ġimm ob
ĠchrÃ© tien
I rlande
j us
Ġ ur
ĠÃ©g lises
Ġsec teurs
app ui
isse ments
Ġun ies
Ġr entrer
Ġdi agnos
Ġtr omp
Ġcomp agnies
ĠFran z
enn ie
Ġlar mes
Ġro be
Ġaugment e
ĠchrÃ© tiens
Ã©bas tien
7 1
u lier
Ġdu e
ĠB ell
Ġmar ins
tÃ©ri eurs
ĠpÃ©n insule
Ġquoti dienne
L oire
Ġ om
ĠV is
Ġou tils
ĠsÃ© ance
ĠexpÃ©ri ences
Ġaccueilli r
ĠAmer ican
Ġmys tÃ©ri
ĠR ub
Ġcol lections
enti ssage
Ġimport ance
m age
ti les
ois elle
Ġresta urant
Ã ¸
on a
Ġc rain
ti ss
th i
Ġappar aissent
ata ire
dic ap
Ġ rois
un t
ĠC ab
Ġtra ce
ĠAw ards
in vent
or iste
ĠÃ©le cteurs
Ġvoi le
ĠVictor ia
enregistre ment
9 1
Ġd ames
Ġen j
est res
li Ã¨re
ĠD um
op le
Ġtra duction
Ã©m ocra
Ġman che
ĠL y
ĠL Ãł
ĠM oi
illi r
aff ir
ĠEn suite
Ġfl ux
Ġbr ut
Ġbr ill
en sible
Ġpl ong
lu es
Ġgra de
ĠspÃ©ci alisÃ©e
Ġvoy ait
ĠÃī douard
Ġcan ons
Ġhistor iens
ĠÃ© videmment
ĠM ore
ĠR hÃ´ne
Ġparticu les
Ġregard er
Ġban lieue
8 3
Ġs ki
Ġv oulez
ad op
Ġinter vient
ĠBourg ogne
ĠMun ich
Ġsympt Ã´mes
â Ĥ¬
it o
ro ss
alis Ã©es
Ġprof il
Ġ191 5
ĠChamp ions
ĠrÃ©par tis
gh an
ĠÃ©nergÃ© tique
h r
Ġ oncle
Ġde main
ĠÃ Ĺ
Ġf eux
ĠL ion
Ġpass a
ĠgÃ© ographique
Ġarriv ent
ĠrÃ©serv Ã©
ĠWall onie
Ġvul nÃ©ra
A z
f eu
ĠR io
ign an
Ġdess ous
Ġhyd ro
Ġb o
Ġar gu
Ġrep as
ĠmÃ©can ique
ĠF ront
ĠT ourn
Ġcar rÃ©
Ġmati Ã¨res
ĠvidÃ© os
Ġvoi ci
cl aves
entraÃ® nement
Ġcon quÃªte
Ġ13 0
ori z
ĠCo ver
Ġremarqu able
ĠTru mp
Ġcrit Ã¨res
Ã©m a
Ġend roits
m ou
Ġreconn aÃ®t
Ġouv riers
Ġfid Ã¨les
arrÃª ter
ĠStre et
at or
ĠB a
on nÃ©es
Ġt oile
Ġass is
Ġconsac rÃ©e
ĠL uis
as tre
ĠC i
Ġren ommÃ©e
Ġper tes
Ġpays ages
Ġplac Ã©e
ĠRen aissance
ĠCerta ines
O T
ĠP atri
Ġav ance
Ġsa vez
Ã©c art
Ġhas ard
au ph
Ġpour ront
Ġcon vo
ĠcaractÃ©ris tique
ĠdÃ©di Ã©e
Ġamp litude
Ġjui ve
Ġexhaus tif
ĠF u
mi er
Ġcou rage
ĠÃ©p au
Ġ190 5
ĠdÃ©li v
Ã©vÃ© nement
7 9
an k
ant aine
Ġv ues
ans ion
ier ry
ĠlibÃ©ra l
di vers
ct oire
Ġlour de
ĠL et
ĠB oul
ĠG usta
la ve
Ġindustri elle
Ġmanifest ation
Ġspr int
Ġsmart ph
7 3
e v
Ġs ab
si bles
Ġson d
Ġcou che
Ġmain tien
18 66
ĠsÃ©par ation
ĠÃ©lector ale
Ġam oureux
Ġab ond
Ġdisp utÃ©
ĠTou tes
8 1
Ġpro je
Ġr ub
Ġimp ri
Ġp ain
ĠchrÃ© tienne
ĠAnton io
Ġsuccessi vement
i vement
ĠD o
ĠD em
tin t
ari a
Ġcandid ature
enf ants
Ġconsul tables
ĠRou manie
augment ation
V D
p ent
ĠS ix
um a
ĠCor ine
Mar ne
ĠcÃ©lÃ¨ bres
Ġtransf Ã©rÃ©
Ġcontrib ue
lÃ¨ vement
Ġacc Ã©lÃ©
Ġlim iter
ĠH Ã©lÃ¨ne
Ã©v iter
Ġvol can
Ġsomm aire
ĠRay mond
Ġju gÃ©
Ġinter prÃ¨te
Ġatt endant
Ġaugment Ã©
roph Ã©e
in ge
Ġv ins
Ã©d Ã©e
Ġorig ines
ĠÃ¢ me
Ġgu Ã¨re
ĠMaj estÃ©
ĠRa oul
ĠFace book
ĠJÃ©r usalem
Ġt Ãªtes
Ġam ie
Ġri g
Ġrapp roche
ĠAr ts
Ġinst allÃ©e
Ġ190 6
Ġopp osition
uff is
que mment
mp e
Ġad olesc
n is
Ġa igu
Ġv oud
Ġre de
Ġmil itants
Ġsub i
ĠH ab
Ġjou ant
oh n
Ġindustri el
on al
ĠH al
ven tions
Ġunivers itÃ©s
dom ad
ro w
ĠscÃ©n ariste
Am Ã©ric
Ġfun Ã©ra
Ġpar lÃ©
Ġh istoires
Ġpri eur
Se ine
ĠrÃ©cupÃ© rer
or tait
ĠH ay
ĠspÃ©ci al
Ġtravers Ã©
Ġplu vi
ĠTr Ã¨s
F in
m Ã¨re
n ait
Ġt ox
Ġbata illon
Ð¸ Ñ
h u
p a
ĠC inq
ĠO ne
Ġfor ter
ĠAl gÃ©rie
b ol
ĠN at
18 20
ĠFin alement
Ġadap tÃ©
XV III
y me
Ġm ous
Ġun i
Ġj ette
Ġcon vention
ĠÃī c
Ġfais aient
Ġvacc in
7 4
C E
ĠC li
igne urs
t ar
ĠdÃ©c er
Ġinter d
Ġmagn itude
Ġvers ant
ĠÃ©p reuve
ĠÃ©nor me
O p
ou tes
Ġpl omb
ing Ã©n
ĠSav oie
Ġsoix ante
Ġcirconst ances
ã ģ
Ġc ible
Ġt Ã©les
emp lacement
ĠdÃ©f i
Ġtent Ã©
c us
ĠD or
onn et
ĠK er
Ġvol s
Ġ191 6
Ġparten ariat
Ġcertaine ment
ĠFond ation
, .
or tation
Ġen cad
ĠrÃ© cup
Ġcar di
Ġcap ital
ĠdÃ©f aut
Ġassoci Ã©s
Ġurb an
ĠgÃ©n ie
Ġmascul in
mer ie
ĠCong o
ĠFoot ball
Ġn atur
ol l
ass assin
Ġbi ophysique
Ġvolu mes
Ġsatell ite
i tions
x ion
ĠI r
Ġat tent
Ġeng age
Ġdange reux
E m
Ġa ires
ens is
Ġten ait
oun g
ĠÃ©l ue
ra k
Ġav er
Ġra ch
av enture
ĠJohn son
aw a
Ġremar quer
sh ire
Ġgalax ies
c inq
et ta
Ġex ige
Ġ5 3
Ġmag ni
Ġren vers
Ġgar Ã§ons
Ġextra polation
Cl aude
m or
Å Ħ
Ġs ti
Ġb andes
ins tant
ĠAl li
Ġsex uelle
O ise
un s
ĠF our
ĠdiffÃ©r ente
imp ression
Ġprob able
In tÃ©rieur
ĠPas cal
Ġterr estre
om orph
ĠK ong
ĠPar c
Ġinter polation
uit es
Ġpublic ations
Ġva peur
ĠcinÃ©m at
Ġreli ant
Ġhyd rog
Ġaffec tÃ©
Ġprofond Ã©ment
ĠTex as
Ġp reuves
Ġj al
Ġj ury
ĠÃ©ta ges
ĠK o
Ġtrans mission
Ġsan itaire
CL C
ĠdÃ© cident
ing ham
ign ent
ĠrÃ©gion ales
Ġdou x
Ġassoci Ã©e
olf e
Ġaliment aire
Ġdoub lÃ©
Ġc enti
ĠA mb
Ġou til
ata ires
Ġcontra int
Ġbar re
ĠbÃ©nÃ© ficie
Ġcon duire
ĠV III
ĠAr thur
ĠprÃ©c ision
An ne
Ġcommiss aire
Ġra rement
ĠPhili pp
Ġsyndic at
ĠBrit anniques
Ġhan dicap
Ġp ousse
ĠM ons
ul t
Ġor igine
Ġseu il
ON U
Ġocc as
ĠOu tre
f r
Ġb oute
ĠI X
all en
histor ien
A pp
ĠF al
ph ab
ĠmÃ¢ le
a Ã©roport
r ue
Ġutilis ation
Ġhau ts
ĠprÃ©f et
Ġbac tÃ©ri
Ġhame au
ain ts
ĠprÃ© serv
ĠH igh
ĠdÃ©c ro
Ġbi jou
Ġ190 8
Ġperspec tive
ĠA S
Ġpl age
Ġpanne aux
appare il
Ġt ari
Ġg all
Ġre mb
Ã©g alitÃ©
Ġrec on
ath an
Ġchar bon
ĠspÃ©ci alisÃ©
Ġlib res
Ġbat terie
Ġgros se
f a
ĠL ud
ve urs
Ġti rÃ©
Ġdev raient
Ġdom ination
Ġdra matique
Ġaccue ill
Ð¾ Ð²
G M
v ing
us er
Ã©l ite
Ġ190 1
ĠMan chester
ĠintÃ©g rÃ©
9 3
Ġra ss
Ġprof ite
lar g
And rÃ©
O L
b or
d rome
Î ¿
Ġde grÃ©s
ag en
vi a
Ġex am
Ġapp orte
An g
Ġsig nes
Ġparta ger
Ġattrib uÃ©
ĠWh ite
Ġsimil aires
ĠNap les
Ġconne c
ĠrÃ©chauff ement
ĠrÃ© ellement
uis e
Ġcons ol
Al pes
v ait
Ġab rÃ©
omb res
ĠCor n
ĠLo ve
ĠpÃ©d agog
e p
el i
all Ã¨lement
Ġgrec que
Ġvar ie
ĠColomb ie
Ġp on
ĠÃ© pr
de au
Ġcomp ens
Ġab at
Ã©b ut
Ġbure aux
ĠPrÃ© sident
Ġs able
Ġqu ad
as on
Ġmo tifs
Ġapp orter
ver gne
ĠspÃ©ci fiques
Ġ >
re l
ĠÃ© par
Ġsur n
Ġou b
ĠdÃ©c ennie
Ġrest ait
Ġmari Ã©
Ġrecons truction
Ġa chev
ĠdÃ©c ouvertes
Ġ5 6
Ġimp ressionn
Ġemp Ãªcher
alu ation
Ġcaval erie
ĠSerb ie
x i
iss es
Ġtravaill ent
Ġmix te
Char les
h in
Ġg erman
ĠAr ch
enn y
Ġcal c
Ġbul le
ĠL am
Ġque ue
Ġinter net
h ard
Ġa ient
Ġn er
ab s
Ġtr iste
ill Ã©s
Ġ188 0
la me
Ġcer veau
Ġbran ches
b ie
ĠC up
Ġtran quille
Ġc yl
ĠÃ© mi
Ġpro vient
Ġcomp Ã©t
ni Ã¨re
ris tian
Ġsold at
Ġtre ize
ĠPra gue
ta le
ol uer
ĠA k
Ġcou reur
Ġexist ent
Ġcanadi enne
ĠAug uste
hou si
Ġf asc
ĠIn stitu
Ġvoy ages
ĠLors qu
ĠIn d
ĠÃ©tab lie
Ġcr ist
pel lier
ĠboÃ® te
or gan
ra its
Ġconf l
Ġfra Ã®
Ġ190 7
ĠFranÃ§ois e
Ġfamili ale
Ġ _{
ĠS l
Ġparti ellement
ĠdÃ©b it
ĠAu c
ĠdÃ©partement ale
Ġmunicip ales
ĠcoÃ» te
Ġul tra
divers itÃ©
us que
ĠC Ã©sar
ĠB ud
ĠD E
ul l
Ġpr Ãªte
Ġim meub
ĠChar l
ĠvÃ© lo
Ġnor mes
Ġrasse mbl
Ġh ar
app roche
Ġfem elle
ĠdÃ©m ons
ĠgÃ© rer
ĠT am
Ġne z
Ġes pÃ©
Ġpublic itÃ©
ĠCon vention
ĠmaÃ®tres se
ĠG od
ĠW ood
ĠIn s
ĠAr gentine
ann a
ĠComp any
Ġdimen sions
Ġexclus ivement
ĠN ick
Ġparti cul
Ġra chet
Ġfin ir
ĠsÃ© lections
Ġ190 9
ĠfrÃ© quemment
Ġus ine
Qu and
ĠgÃ©nÃ©ra les
Ġproc Ã©dÃ©
ĠhÃ´ pital
ĠstratÃ©g ique
G E
me ur
si Ã¨re
Ã¢ ts
ĠU r
Ã©c l
rig ht
ĠsÃ©n ateur
ar chi
os te
Ġapp ortÃ©
Ġanim al
Ġpati ent
Ġsyndic ats
ĠDom inique
ĠApp le
) }
M E
il Ã©e
ĠE uro
Ġex positions
Ġinter ro
da e
hab it
Ġdivis ions
Ġcontribu Ã©
as hi
ĠdÃ©b ats
Ġst ar
ĠdÃ©pl oy
Ġphilos oph
Ġmine urs
ĠrÃ©fÃ©r end
oi vent
for mer
Ġcompr om
Ġferm Ã©e
Ġf ins
ci des
ĠB ad
ĠR ose
end roit
ĠprÃ© dÃ©
pl us
Ġman ip
Ġprodu cteurs
ĠdÃ©p Ã´t
Ġrest era
inc lin
ĠdÃ©fin it
ĠÃ©conom ie
Ġfinanci Ã¨res
Ġadap tation
actu alitÃ©
ĠFlor ence
k ing
m un
er al
ĠN iger
Ġsuff it
ĠrÃ©un it
ĠdÃ©mocra tie
Ġappare il
ĠBan que
P as
ti te
man e
ow er
Ġparticuli ers
Ġurb ain
ĠSoci ety
Ġcam ar
Ġfu ture
Ã©quip age
ĠM ou
ĠE N
Ġan tique
Ġca uses
ĠprÃ©cis Ã©
ĠGal les
Ġprisonn ier
Ġate liers
Ġdynam ique
j o
Ġdes ign
Ġpar quet
Ġh Ã©
Ġo re
Ġbl ind
Ġtot alitÃ©
Ġru ines
Ġr entre
Ġcou reurs
Ãī tienne
Ġver tic
D enis
Ġmar Ã©chal
id en
Ġrec ens
Ġcli p
An toine
Ġposi tif
Ġrasse mble
ĠdÃ©t our
g or
li a
Ġpl aque
ĠE ric
iss iles
Ġph are
Ġphysi ques
Ġsac ri
din and
Ġmusul mans
O R
ti es
Ġren voy
ĠMont pellier
Ġlog ique
exemp le
Ġdis ques
olog iste
ĠJac ob
ĠSte ph
u z
our i
ist ent
ĠdÃ©c ol
Ġaff ich
Ġ186 0
Ġjui fs
ĠFri ed
ĠB ah
Ġh al
Ġfond ateurs
ganis ation
Ġlarge ur
Ġstu dios
Ġmarch Ã©s
ĠamÃ©li orer
M P
Ġc iter
ĠA st
ĠdÃ©f aites
Ġpor tait
Ġcri mes
Ġcompagn on
Ġ20 50
end o
lÃ© si
Ġpays ans
Ġar bre
im s
du ctions
Ġapp uy
Ġcol onnes
Ġind isp
Ġaccep tÃ©
. ).
a che
ĠS antÃ©
ĠM ade
ĠrÃ© Ã©lu
ĠB es
Ġav anc
Ġblan ches
D on
ti cul
Ġb Ã©b
ĠCh i
Ġfil iale
ĠTe le
Ġcommerci ale
Ġcous in
ĠLÃ©g ion
ou gh
ti ge
ie f
Ġrel ative
Ġpriv Ã©s
At lantique
Ġench aÃ®
ĠhÃ©tÃ© rog
ĠÃ© chec
ĠL ub
ĠL amb
ul Ã©e
ĠK en
Ġrencont rent
Ġsouvenir s
t us
u mes
ap h
Ġad resse
Ġinc endie
lo ge
Ġdiri ger
Ġmess ages
Ġbour se
ĠTi mes
le ine
Ġn ett
as p
Lors que
Ġvend us
Ġgalax ie
t z
Ġd ents
in verse
am ille
inter prÃ©
ĠMan uel
Ġsan ctions
Ġn age
ĠM ik
ĠrÃ© duite
tu elle
Ġver te
ĠrÃ©f lÃ©ch
u an
Ġv Ãª
ser ve
Ġgen res
ym n
ĠSc ott
Ġproven ance
Ġp istes
ĠrÃ©alis Ã©es
Ġdivers itÃ©
ĠÃ©cl ai
Ġbate aux
As ie
Ġtch Ã¨que
ĠI rlande
Ġno ble
Ġmont rant
Ã©rit age
Ġbel ges
Ã¶ n
ĠcollÃ¨ gues
Ġvesti ges
z abeth
ĠL as
ĠM ot
Ġin tÃ©rieur
Ġtra m
ĠEn ter
mar in
Ġbou dd
hab itude
Ġforc Ã©ment
m us
ĠA vi
ĠI m
ĠMon di
Ġsculp ture
Ġinaug urÃ©
H er
Ġla tine
Ġob s
Ġz Ã©ro
me aux
at ar
ille ment
Ġcl er
cri re
ĠVers ailles
ĠmÃ©d iterran
Ġd ieu
an ique
or ant
Ġt ribu
Ġrest es
Ġdonn ait
ĠgÃ© ant
Ġreti re
Ġcart ographiques
Ġjamb es
ent ures
Ġf an
ĠL ouv
ĠAn th
ĠprÃ©sent ation
Ġforter esse
I P
ĠS NC
Ġch ancel
Ġtou cher
Ġimp act
ĠD al
ise mbl
um Ã©e
ori zon
Ġfl amb
Ġtent atives
ĠA ur
ĠA utriche
ab i
ins titu
Ġdis si
ĠÃ©c oss
Ġfid Ã¨le
Ġhos pit
M er
V al
Ġp Ã´le
our ce
si ve
Ġmin Ã©ra
Ġsau ve
Ġposs Ã¨dent
ĠSer vice
Ġmusici en
osi tions
Ġcommen Ã§a
O C
S ous
Ãī cosse
Ġconn ait
ĠIn di
Ã©ro Ã¯
Ġfinanci ers
Ġ u
ĠrÃ© ac
Ġo pÃ©
lu ant
Ġfonction n
Ġten sions
ĠIs land
Ġbal le
Ã¶ r
ĠdÃ©mar che
ĠrÃ©flex ion
} \
ic al
Ġtr ent
Ġph arm
ĠpÃ©ri ph
Ġbless ures
ĠrÃ©ser ves
ĠP ed
onn age
ĠdiffÃ©r ences
eff ic
Ġence inte
v Ã©g
ar rondissement
Ġmar oc
ĠRe p
G ermain
al cool
Ġg rÃ©
Ġacc ro
ess entiel
Ġukrain ienne
ĠÃ©tabli r
ĠvÃ©gÃ©ta tion
c or
n oc
ĠG ame
Ġar c
ex pÃ©dition
cri min
ĠÃ©tab lit
ĠHar ry
Ġarchite ctur
Ġboudd h
I R
Ġl Ã¨vres
Ġb allon
ĠA v
Ġex tÃ©rieur
Ġcomp atri
ure au
ĠmÃ©dic aments
Ġenne mi
Ġquator ze
f ace
Ġl une
ĠB us
Ġ11 0
Ġchampion ne
Ph ili
Ġate lier
Ġnoy au
D i
ĠP op
Ġexp osÃ©
Ã©qu ilibre
Ġend omm
ĠsuÃ©d ois
M C
ve iller
mp h
ter ies
orb ite
m estre
un n
Ġh Ã©s
Ġpo Ã¨me
Ch rist
Ġdra me
Ġdur able
ĠmÃ©dic al
Ġsanc tuaire
ĠD ata
ĠJ ane
Ġtra cÃ©
ĠchaÃ® nes
Ġexer ce
ĠrÃ¨g lement
Ġfol k
ĠGau lle
ab elle
ĠG arde
oc Ã©an
Ġdoc tr
Ġcontinu ent
Ġpl af
ux ell
ĠJ ud
ĠLe b
ĠV it
Åĵ ud
Ġdev ra
ĠBro wn
Ġant h
ĠfrÃ©qu ence
ul s
Ġvra ie
ou pe
Ġm ons
Ãª ques
acc us
Ġid entique
Ġhum an
Ġ190 3
Ġpoursui vi
il ien
Ãª ne
ins tru
Ġcomp il
ĠFran ces
Ġpo Ã¨mes
Ġcompos Ã©s
Ġesti mÃ©e
Ġmagas in
g s
se pt
ĠM is
Ġpour suite
ĠsÃ© isme
Ġ187 1
Ġparis ienne
ĠC ode
ig a
Ġpr Ãªtres
Ġar chi
hÃ© sion
inst ar
ĠC ulture
ĠD ol
ĠdÃ©velopp Ã©e
Ġappar tenait
Ġprom et
aff ront
bo ard
Ġdivis Ã©
ĠC eux
Ġch at
Ġh onneur
Ġ8 5
Ġcamp s
Ġ190 2
ĠÃ¢ gÃ©e
Ġallemand es
ĠdÃ©mocra te
T S
r onn
ai le
Ġse igneurs
Ġh u
ales tin
Ġten sion
Ġtrouv a
Ġ189 0
ĠCons erv
ĠingÃ©n ieur
Ġbio diversitÃ©
c omp
v ants
Ð ´
Ġqu alitÃ©s
ro ir
Ġin se
Ġcol line
ĠrÃ©volution naire
ur rent
al uer
Ġtra h
Ġmar quer
Ġ6 8
aur Ã©
Ġconstru cteur
ĠJus tice
ĠfrÃ©qu ente
ĠRh in
E d
on ction
ĠF ac
Ġav enue
En fin
ĠMar guerite
in tention
ĠdÃ©b arque
Ã©li x
ĠcoÃ» ts
ĠrÃ©fÃ©rend um
T P
Ù ħ
le ct
iti Ã©
ĠprÃ©p are
r ar
Ġf ich
Ġqu as
ĠM ach
vi Ã¨me
ten ance
Ġconn ais
M an
Ġa qu
ĠS au
ĠD re
ĠI t
Ġpeu pl
Ġfor mÃ©e
ph a
ĠÃ©ch anges
Ġuti le
ĠA ub
ĠrÃ© elle
ĠgÃ©nÃ©ra tions
ĠreÃ§ ut
Ġsouff le
Ġsac rÃ©
ĠdÃ©g Ã¢ts
observ ation
d al
and s
ace ae
qui de
Ġpopul aritÃ©
Ġinform ation
Ġnette ment
Ġfin ances
ris on
let tes
Ġcompar aison
Ġdo tÃ©
b ar
Ġf oyer
ter a
Ġdisp uter
Ġparis ien
tre r
ĠH ow
ct rice
Ġ5 8
Ġab rit
Ġtrans mis
ign on
ĠlÃ©g end
Ġemp ris
ĠprÃ©cÃ©d ents
Ġremar que
ĠmÃ©n ages
ĠCamer oun
h Ã©s
h arm
á ĥ
Ġa Ã©roport
Ġg lac
ĠM au
ĠSt ock
Ġveu ve
intÃ© resse
Ġmonn aie
j ac
Ġ el
ĠrÃ© novation
ĠLe on
lis tes
emp ire
Ġinf ir
ali mentation
Ġprom ouvoir
ĠtÃ©moi gne
me urs
ĠS ul
ci enne
ĠF ord
Ġgar n
Ġproc lam
Ġ190 4
ĠCent er
oup age
Ġclo cher
Ġmultip li
ĠF r
ĠTh ierry
Ġtermin er
Ġchasse urs
Ġmajoritaire ment
b el
ce voir
ĠB ow
Ġr oul
ĠG and
ĠG all
ĠV in
ist Ã¨re
av ons
Ġtemp Ãªte
ĠSal on
H omme
Ġvill a
Ġsig ner
Ġf au
ches se
Ar t
Ġspecta cles
Ġterritori ale
j amin
Ġp oit
ĠC ond
ag as
Ġal ent
ĠW ill
ĠdÃ©p enses
ĠrÃ©comp ense
G P
f our
ĠCh elon
ĠCh ez
Ġprodu ctions
Ġouv rir
ĠPrin ce
rÃ¨ tement
z u
Ã ¦
Ġen s
Ġau di
Ġm issiles
si f
ten ues
ĠKar l
Ġdesti nÃ©s
Ġregroup ant
d ar
ro l
ĠT an
Ġra cc
ĠCh ili
Ġfig urent
ly wood
ĠdÃ©n om
Ġred Ã©c
UR SS
ĠChelon us
Ñ ĥ
Ġc ub
Ġau dio
Ġar rÃªt
Ġam ateur
Ġexp erts
ĠAu tre
Ġform ant
Ġnor vÃ©g
un ique
ĠG or
ĠMar g
Ġpubli er
riv ant
ann y
ĠÃ©qui pÃ©
char ge
Ã©lev ait
ĠtrÃ©s or
m ad
ing er
ing ue
Ġent rÃ©
onom ique
ulti me
ensi f
ĠÃ©trang Ã¨re
Ġconten us
Ġpolici er
Ġcord es
Ġhi Ã©r
c omme
m Ã¨tres
ĠS erg
Ġin tÃ©rieure
Ġmo tif
par tement
Ġmon op
Ġpersonn elle
Ġfrapp Ã©
ĠFont aine
Ġv int
Ġe cc
Ġtra its
enti r
Ġinv itÃ©s
Ġpollu tion
Ġchamb res
F I
F M
ti a
id itÃ©
eff ond
ette ur
ĠCe ci
Ġent ame
Ġ14 0
Ġadvers aires
ch o
id Ã©mie
Ġgro tte
E r
T C
Ġa f
as me
Ġre ct
ĠF red
im mi
Ġph ases
ĠÃ©p oux
Ġcap ture
Ġlim it
Ġpriv Ã©es
Ġaccomp agne
Ġconsta te
Ġfoss iles
Ġcentra les
Ġcontro vers
O ccident
Ġdu chÃ©
ĠrÃ© ception
Ġmo tiv
ĠprÃ©cÃ©d entes
Ġscol aires
ĠJuli en
Ġem men
domad aire
Q uel
m as
Ġle ver
ĠM ai
aut or
Ġcer tif
ov anni
ĠnÃ©cess ite
ĠmÃ©da illes
Ġmas que
Ġsuscepti bles
Mal grÃ©
Ġp ath
Ġqu ai
ĠH aw
Ġth erm
ign y
Ġall ons
ĠconsidÃ©rÃ© s
ti se
ar merie
ĠÃ© ti
ĠH i
Ã¯ n
Ġpass ait
fi ce
yn am
Ġeng agement
ĠSte ve
ĠÃ©volu ant
Ġmagas ins
Ġdispers Ã©
Ġportug ais
C on
om ie
ĠC ast
ĠCh urch
Ġdisp u
Ġlim itÃ©
Ġauxqu els
Ġdemand es
ĠdÃ©ta il
Ġvolont aires
Alex andre
g arde
li m
end er
Ġpr ud
ĠrÃ©g i
ĠAn s
ĠlÃ©g umes
ĠthÃ© Ã¢
ĠÃ©tudi ant
ĠAlex ander
ĠFou quet
Ġpav illon
Ġerre ur
ĠÃ İle
mb erg
Ġrec ette
Ġli quide
Ġfou illes
Ġconvain cre
Ġstock age
ĠTunis ie
ĠtÃ©les cope
Ġconfl its
A ut
w ig
ĠL an
ĠrÃ© formes
ĠLe g
Ġtr on
Ġal b
Ġvi ole
Ġatt endu
Ġprofesse urs
Ġcherche ur
Ġmol Ã©cu
Ġconvers ation
ĠsystÃ© matique
ĠM ul
ĠD C
Ġav al
av ocat
ex trÃ©mitÃ©
Ġaff luent
ĠCan nes
Ġextra ordinaire
Ġphilos ophe
Ġsymp ath
ĠV ars
che cs
Ġtrans par
ĠSp ace
Ġoccup Ã©e
ĠindÃ©pend ants
ĠV iv
ĠÃī gypte
ĠÃ©lev Ã©s
Ġ ran
Ġg othique
Ã©c rit
Ġins uffis
Ġlar ges
port s
Ġcombat tre
exÃ©cu tion
b ase
Ġdes cription
ĠC le
ĠdÃ© truire
ĠN ancy
Ġcompr ennent
Ġcompr enait
ĠPr usse
Ġpont s
Ġtransfor mer
Ġgla ci
z Ã©
ĠB ach
Ġprom is
Ġpein tres
Ġdisc ussions
ĠBos ton
Ġenvis age
Ġfame ux
end rait
ĠdÃ©p ass
Ġchar s
ĠspÃ©ci alistes
ĠCl ermont
ĠentraÃ® nÃ©
Ġinform atique
I V
Ġc urÃ©
ĠÃ© duc
Ġpro s
ĠT rib
Ġ6 6
Ġoff rir
Ġexc ell
Ġ189 8
ĠMer c
Ġcolon ies
Ġcontempor ain
d t
entre pr
ry p
Ġfac teur
Ġdistin ction
ĠhÃ©tÃ©rog Ã¨nes
R hÃ´ne
Ġc oi
Ġb ox
ĠdÃ© lÃ©gation
ins truction
Ġph rase
Ġcommerci ales
Ġir landais
ĠÃ©d itÃ©
Ġf ir
ch age
Ġce ci
Ã©l or
ĠdÃ©gra d
ĠB ran
Ġmar bre
Ġam ateurs
Ġatta chÃ©
Ġsculp teur
quit aine
l oy
Ġn Åĵud
ac quisition
enne mi
Ġunivers itaires
Ġplac er
Ġdisposi tions
Ġse ize
Ġal lÃ©
du ites
Ġ18 30
Ġcro it
ĠBen oÃ®t
ĠWal ter
m al
s ous
Ġc itÃ©s
Ġt urb
ot ter
tr y
ven us
Ġad mi
uss Ã©e
Ġgu Ã©r
ĠPÃ© kin
ĠRac ing
ĠmÃ©ri di
Ġp ist
ch ette
ag Ã©es
Ġh arc
Ã©n or
ĠdÃ©b utÃ©
Ġas pects
exp lique
Ġrespec ter
ĠsÃ©ri eux
or ig
ĠS ciences
am er
ĠrÃ©p li
Ġpermet tra
Ġlit tor
C an
Ġun ion
ĠÃ© ducation
ch el
Ġg out
ĠM oul
am itiÃ©
ĠV end
ist ocra
Ġlit tÃ©
Ġnata le
ĠTay lor
h on
v ol
ou ra
ĠC omb
lÃ© matique
Ã©ta blir
Ġcou ches
ĠAr mÃ©e
Ġconstitu er
ĠNam ur
Ġb ille
ĠM it
Ġ6 2
ils on
Ġfr uit
b onne
il de
os ait
ĠG az
ĠJ ul
Ġne veu
lÃ¨ ge
Ġcant ons
ĠMus eum
Ġseigneur ie
Ġgui de
Ġsuscepti ble
and o
Ġex il
Ġchar ges
ony mes
Ġdistin guer
cl av
ĠS yd
Ġ5 9
Ġrep ouss
Ġas pect
Ġratta chÃ©e
b ri
Ġex pose
tis h
Ã©qu ival
Ġrang s
Ġmodi fications
ĠJack son
ĠCarl os
S C
Ä ±
ĠC E
Ġh arm
ob il
ĠTemp le
Ġanne x
ĠÃ©vid ence
Ġl umin
Ġun s
Ġb er
Ġch Ã´
ter ne
ad resse
ĠK im
ĠEn g
ĠÃī ric
Ġ7 2
Ġvi ve
Ġjoue use
ĠrÃ©pond u
Ġcorrespond ance
Ø§ ÙĦ
ĠCommun autÃ©
en os
ĠA ward
Ã® mes
Ġes cad
ate lier
avi rus
Ġport raits
Ġfonction ne
Ġunivers elle
Ġentour Ã©
Ġlogici el
Ï Ĥ
ĠL ag
ĠC ub
pr on
ĠdÃ©c oration
Ġvis ibles
bil itÃ©s
Ġprom o
ĠSam uel
ĠnuclÃ© aires
ĠForm ule
Ġ ouverture
Ã© ph
al on
ĠS ir
ĠP D
Ġin uti
ces seur
Ġviol on
Ġeffectu er
Ġprot oc
angl ais
P R
ra ux
ra ction
ĠD ay
Ġh eur
ain tes
Ġavant age
Ġaut oritÃ©
Ġappar aÃ®tre
ĠdÃ©n once
Ġsymb olique
ĠÃ©volu Ã©
ĠAmÃ©ric ains
Ġl entement
ĠrÃ© actions
Ġfor fait
ĠmÃ© trage
Ã©c ou
Ġrest ant
ĠBe y
Ġiss ues
Ġmodes te
Ġpoit rine
Ġre lÃ©gu
Ġcar re
cu les
Ġrenfor ce
I RE
k ina
Ġ å
Ġv ed
ĠG illes
Ġfor es
Ġpersonn els
ĠdÃ©fin ir
Ã©ch ange
Ġcollab ore
Ġfacil iter
Ġorth od
Ġp air
le ver
Ġpar aÃ®tre
ĠL ind
ĠdÃ© tention
ĠB un
ĠexÃ©cu tif
re m
ĠS pr
ci ent
ang ers
pl an
Ġ189 9
Ġquas iment
at ti
ĠK am
vis ions
Ġcour ts
Ġvo ter
ĠrÃ©c ente
Ġpuiss ante
Ġremplac Ã©e
ĠtÃ©m oin
Ġi ran
Ġcellu le
Ġaper Ã§
amÃ©li orer
as o
as pect
ĠC ru
ame d
Ġprofes sion
Ġoccident al
Ã©lev age
ĠtÃ¢ che
ĠdiplÃ´ mÃ©
Ġtrent aine
ri ces
ce au
ĠG a
ĠÃī tienne
Ġremp ortant
ĠEx p
ĠEur opÃ©
Ġexac tement
ĠFlori de
S P
T ube
U SS
Ġla Ã¯
ĠÃ© di
ĠB asse
Ġtra ditions
Ġob tenus
Ġvoy ez
Ġpseud onyme
ĠVars ovie
Ġd en
op er
ĠRou en
ingÃ©n ieur
p or
ill us
Ġreg arde
ĠRos a
Ġsimul tan
Ġindisp ens
F er
en berg
Ġf res
ĠV au
ĠCh er
ĠsupÃ©ri eures
ĠconsidÃ©ra blement
Ġenseign ants
Phili ppe
on ien
ĠS in
Ġsitu ations
ĠRe ims
iti nÃ©
Ġnum Ã©ros
ĠLib an
ĠdÃ©ser t
Ġs aut
Ġo tt
ap er
Ġser vant
Ã® tre
Ġab sent
ĠCou n
ota mment
ĠTe chn
ĠCas tel
ĠconsidÃ©ra ble
h is
om ique
Ġv all
Ġ1 000
ĠdÃ© mis
ĠS ophie
Ġch or
ĠÃ©v oluer
Ġred ou
ĠOu est
Ġcyl ind
A ug
ĠS yn
Ġcon join
Ġch iens
ĠF ed
ĠK al
Ġcol onne
Ġacc ent
Ġrest Ã©e
Ġvic om
Ġdoig ts
m it
Ġsec rets
Ġjour nÃ©es
Ġcor ruption
Åĵu vres
Ġlib Ã©rÃ©
inc endie
Ġclassi fication
Ġ184 8
Ġlux e
x ford
Ġc Ã¢
Ġla urÃ©
ĠV oici
id s
ĠJohn ny
Ġclass Ã©s
Ġara bles
ĠÃ©cl at
Ġrappel er
ĠdÃ©mÃ©n age
ĠBle us
m ations
an nes
Ġc oc
Ġj oin
oi ent
Ġav oc
op tÃ¨res
Ġalle z
Ġmanif este
Ġinstall Ã©s
Ge orges
ĠB all
ĠN u
ĠO l
ĠdÃ©c al
Ġmesure r
Ġnavi gation
Ġstatu es
Ġvra isembl
Ġsatell ites
Ġqu an
ĠÃ© b
ĠR ach
Ġra yon
ĠdÃ©p it
Ġconstru ctions
Ġvari able
Ġparta gÃ©
Ġfix Ã©
f ran
ou c
ac cident
ĠJ ord
ĠÃ©c ran
Ġ9 00
Ġrou es
ĠtÃ©m oins
ĠFer dinand
Ġrur al
ĠcontrÃ´ ler
ĠrÃ©pÃ© ti
} ,
er me
ĠA cc
Ã¼ n
Ġiniti al
ĠFland re
a jou
ĠP ass
Ġch au
mb ourg
ĠAn na
Ġbas il
Ġcomb att
Ġprog ression
ĠrÃ©uss ite
Ġpauvre tÃ©
Ġguit ariste
ĠCN RS
B S
ĠT ro
Ġim mi
mar ins
Ġsauv age
! Â»
G T
d Ã©mocra
mi ers
Ġpeu x
Ġpuis sent
ĠAn t
ĠÃ©quipe ments
ira c
Ġlance ur
Ġfour ni
Ġislam ique
p us
Ġm yst
ĠP oi
ĠF ig
ĠÃ©g al
enf ance
ĠGren oble
ont o
ĠS ac
Ġg el
at mosphÃ¨re
di ff
ĠG ab
Ġam ende
Ġaur ont
Ġara bes
i j
ĠR oss
entre tien
Ġat ten
Ġnaturelle ment
ĠSar ah
ĠYou Tube
ster dam
C al
or gue
ĠC H
ĠA le
Ġpubli Ã©es
Ġper f
Ġcan ic
Ġcoup able
Ġorganis mes
Ġplac Ã©s
Ġtravaill ant
ĠSyd ney
ur n
ĠR ennes
ui es
ĠG on
Ġrec ul
Ġ9 5
ĠsÃ© min
Ġindustri els
Ġray ons
G B
Ġd ent
ĠB ak
ĠT ony
ĠH erm
ĠK az
Ġgran di
Ġ188 9
Ġneu tra
ĠmÃ©dic ale
R A
m Ã¨tre
Ġt ro
ĠP ier
ĠN ob
ĠV os
Ġcons tante
Ġat tra
out ent
Ġfl anc
Ġempl ois
ĠdÃ©rou lent
ĠaÃ©ri en
ĠVen ez
Ġremont er
Ġenter rÃ©
en ch
ĠS C
ĠM ed
ĠB ard
os yst
Ġnom mÃ©s
Ġ6 7
Ġinc ont
Ġexemp les
Ġobserv Ã©
ĠarrÃª ter
Ġmention nÃ©
Ġsupport ers
li x
Ġtra iter
Ġob lige
Ġbas que
Ġmen aces
Ġeffec tivement
ĠPro f
Ġarchite cte
Ġinconn u
Ã© demment
et nam
ĠB ureau
Ġmo ine
Ġad ress
ĠprÃ©c Ã©demment
ĠEd ward
Ġbaptis Ã©
Ġecc lÃ©si
Ã İle
Ġl oy
ĠM agn
ĠP ad
Ġpro positions
vi o
imp oser
ĠTr in
Ġaccep ter
ĠBro ok
Ġparois si
ĠBert rand
Ġabsolu ment
Ġpluvi omÃ©trie
z ig
Ã© th
Ġb all
ol n
ĠA p
Ġth Ã©rap
Ġesp oirs
Ġpat ern
Ġgard es
Ġspor tifs
sta gram
Ġtransfor mÃ©
ĠÃ¨ re
A ls
J us
ard es
Ġentre tien
tin ent
Ġcommand es
Ġsouff re
D E
h ar
ĠL ord
ĠP in
mb les
ĠmÃ© tiers
ĠY ves
Ġâ Ĩ
Ġcomplex es
Ġpois son
Ġporta il
l ys
v ise
ĠP oint
Ġdis ent
Ġgouver nements
inter mÃ©di
Ġcontempor aine
ĠbÃ©nÃ©fici er
ĠÃ©lector al
ĠData base
I B
g r
Ġs Ã©d
Ġb rass
Ġ7 6
Ġab onnÃ©s
Ġcor rec
Ġaccord s
ĠlÃ©gisl ation
ĠchÃ´ mage
g as
Ġre voir
Ġre tenu
ĠR est
Ġinter commun
Ġinc lut
Ġhistor ien
formÃ© ment
si Ã¨ge
Ġar ra
Ġrep orta
Ġpo che
ton es
Ġinc ap
ĠBos nie
aband on
re uses
Ġf ier
Ġsu ites
Ġpr Ãªts
ĠH ouse
ĠpÃ¢ le
occu per
h ypothÃ¨se
ĠS icile
mb er
Ġman ches
Ġfavoris er
a oÃ»t
c ast
o che
ĠprÃ© al
ĠrÃ©c its
Ġqualif ications
own s
Ġlourd s
Ġartifici elle
ĠVirgin ie
x y
Ġ Ä
in telligence
ĠC ant
mp er
av ie
Ġrest ri
ĠrÃ©s oudre
ĠEx pl
Ġaband onne
f orts
on avirus
ro ise
ig nÃ©es
Ã©g ard
ĠY oung
ĠreprÃ©sent Ã©e
acc al
aff iche
Ġref uge
Ġgl oire
Ġmess ieurs
Ġresse mble
Ġf uir
ta ires
Ġr endant
Ġtra it
ni k
Ġconf iÃ©
asse mblÃ©e
Ġmor ale
pit aux
Ġar r
Ġab us
Ġinc orp
Ġmen a
Ġcontribu tion
U N
ĠN AS
Ġmon archie
Ġpol Ã©mique
iss ante
Ġca che
ern ant
aÃ¯ s
inf lation
Ġproduis ent
ĠNav y
Ð ¹
Ã© enne
Ġv Ã©nÃ©
tu mes
ĠR ugby
Ġex amen
Ġfor cÃ©
Ã©ta pe
Ġjus tement
Ġqualif ier
Ġ189 6
Ag ence
Ġscand ale
w er
ĠS ib
Ġcon grÃ©
oc t
op inion
titu des
Ġper Ã§
inter diction
ou i
ĠC u
Ġob Ã©
Ġli ve
aÃ¯ que
quet tes
ĠGrou p
ĠC Ã©
end s
Ãī tats
Ġsol lic
ĠChris tine
Ġb oire
ĠS qu
ĠB R
Ġr onde
ĠH it
Ġsal aire
Ġaliment aires
exer cice
l ay
ĠÃ© tern
ran o
ĠT ours
Ġtra itÃ©s
int endo
Ġphot ographe
ĠAlex and
roy able
Ġnor me
Ġ178 9
ĠtÃ©moign ages
orient ation
ĠquÃ©bÃ©c ois
f rac
v ad
in formations
ĠR el
ord in
du le
ob ert
ov o
Ġchi miques
ĠLib Ã©ration
ĠpossÃ©d ait
Ï ģ
Ġb or
Ġb oul
ĠM ir
Ġcon gÃ©
Ġo v
ĠK an
Ġsui cide
Ġappr endre
Ġprovo quÃ©
ĠsÃ©p are
rÃ©h ension
v u
en voy
ĠM ali
ĠprÃ© server
Ġ7 4
acc ent
Ġmet al
ĠÃ©t end
aÃ¯ wan
Ġbr uxell
ĠSer ge
Ġriches se
Ġmodifi Ã©
l anc
Ġre vers
Ġav enture
Ã©d iteur
Ãī gypte
ĠrÃ©d acteur
Ġchim ie
ĠCharl otte
D F
I v
t rois
Ù Ĩ
ĠÃ© met
Ġro che
if t
Ġpres s
enc er
yc l
ĠÅĵu fs
Ġappro xim
effic acitÃ©
Ġl istes
qu Ã©rir
Ġt Ã©l
ĠB ut
ĠF el
Ġtra jet
ell y
Ġmaj eures
Ar gentine
Ġajou ter
rass er
R C
ĠD enis
ĠR N
Ġtour istique
Ġco ach
ghan istan
Ġp Ã¢te
Ġtour istes
Ġconf ig
ĠSe igneur
Ġconsomm ateurs
ĠVo ilÃł
ĠprÃª tÃ©
ti ble
ĠS el
ĠS axe
ĠI ran
ĠR iv
pr its
ĠÃī lisabeth
ĠprÃ©c au
Ġcarac tÃ¨res
ĠCol lÃ¨ge
Ġmunicip ale
Ġmeur tri
ĠMc C
orta tions
ova quie
ĠAra mis
adap tation
Ġmoul in
w ald
Ġp aire
ĠC it
ĠS ky
ĠA y
ĠD uc
Ġh ypoth
Ã©v ille
aisse ur
Ġtraditionn els
Ġprovo quer
Ġsugg Ã¨re
S E
T e
Ġs tre
ĠÃ© ri
ĠS ah
Ġch Ã¨re
av el
ĠÃ©v Ãªques
Ġchi mique
ĠRom ains
adop tion
Ġn oires
ĠJe ff
ros se
ĠdÃ©j e
ĠrÃ©sid ences
ĠCam ille
ĠmÃ©can isme
ĠmÃ¢ les
qu itÃ©
at al
ĠP ie
Ġtrans form
Ġsusp ension
ĠTor onto
ĠSport s
as sent
ĠB lo
ouve ment
ĠIn stagram
onom es
Ġord inaire
Ġanti cip
ĠphÃ©nom Ã¨nes
Ã¨ nent
ence inte
Ġju ges
ĠDe v
Ġrapp ortÃ©
Ġdispar aÃ®tre
Ġcalcul er
atte indre
ĠsÃ©qu ence
Ġtun nel
Ġcrain te
Ġalent ours
ĠCh irac
Ġ3 50
Ġexp lic
Ġmen Ã©es
Ġorganis Ã©s
ovi c
Ġ189 3
Ġexist ence
aÃ¯d jan
Ġlimit roph
intermÃ©di aire
ĠT o
ier t
Ġid entitÃ©
erb aÃ¯djan
ĠmÃ©tÃ©or ologiques
Ġvoc ation
intro duction
u ite
ol ition
ĠE c
ouv ant
ĠN intendo
ni a
Ġoffici els
Ġ188 5
Ġtent ent
hÃ© tique
o dique
Ġh oriz
ĠH istoire
Ġal la
ul ar
ĠLe w
op a
Ġbase ball
ĠBen jamin
Ġcha peau
Ġarg ile
T E
Ġs is
ur rection
Ġf ine
Ġdu t
ĠK os
Ġdis crimin
st an
Ġcomb us
I L
ou in
ĠrÃ© tro
ul te
ins pire
av er
Ġimp ression
od ore
Ġaut o
Ġ9 9
Ġfonction naires
Ġculture lles
Ġretra ites
Ġsan ction
Ġachet Ã©
Ġachet er
Ġmurm ura
h os
Ġm Ã©rite
Ġt rophÃ©e
us sion
de ment
ati ne
ass es
Ġvo Ã»
gl as
Ġbr usque
Ġnavi g
Ġalli ance
Ġrempla Ã§ant
F P
Ġa idÃ©
Ġf oul
ĠS Ã©bastien
ĠA mi
ĠR ic
ist ants
ver sion
uel a
off ensive
Ġmobil isation
ĠErn est
te aux
ri k
Ġpl onge
Ġr h
Ġcont est
Ġju gement
Ġcad res
Ġdesc ente
Ġcontempor ains
Ġinten se
ylv anie
re b
un er
Ġj oy
ag on
ĠrÃ© cep
ĠrÃ© side
ins on
po ol
ĠÃī mile
raph ique
Ġpi ra
ĠCan adi
Ġ189 5
Ġsigni fiant
Ġadop te
Ġang lo
Ġjuni or
omorph es
Ġoub lier
c orÃ©
Ġ ic
ur Ã©s
Ġh aine
ul teurs
ut s
ĠLa w
ici en
Ġrest re
avi ation
ĠCont rairement
Ġrac ines
Ġencou ra
Ġpropag ande
ĠSNC F
Ġbille ts
Ġcombatt ants
Ġc ib
onne ments
Ġ6 3
Ġesp oir
ĠthÃ© ologie
Ġ189 2
ĠRuss es
va il
organis er
Ġsenti ments
Ġcyc l
Ġexpri mÃ©s
Ġsolid aritÃ©
n s
u ta
ol ith
ĠB BC
ĠT ol
Ã©l ab
Ġtrou ble
ĠMic ros
thi op
A insi
Ġ @
Ġc le
ro ix
ĠS um
ĠN BA
Ġcomp tant
Ġconstitu tionnel
sionn aire
Ġ186 7
Ġ179 0
ĠSte f
ĠBl ue
ĠtÃ©moign age
Ġsurnom mÃ©
b ox
ill o
ĠO c
emp Ãªcher
Ġmus iques
Ġpri mi
ĠlÃ©g iti
Ġautre ment
Ġ179 2
Ġperd ue
Ġadministra tivement
Ġrivi Ã¨res
accal aurÃ©
Ġ rand
Ã© ens
ĠL ife
Ġsou l
Ġent rÃ©es
ĠdÃ©partement ales
ĠprÃ©f Ã¨re
Ġiniti ale
Ġcit oyen
ĠMet z
Ġhong rois
M D
o a
en eur
ĠD onc
ĠT s
Ã´ tel
Ġfem elles
Ġgouver n
Ġsimp li
ovi Äĩ
Ġ189 7
Ġsex uel
Ġautom ne
Ġpla ques
ĠDie go
ĠS P
tu eux
Ġinc luant
ĠHe in
Ġban ques
ĠÃ©criv ains
Ġmarchand ises
ĠBlan che
Î ¹
Ġd oul
Ġp onc
Ġg onf
ĠP enn
Ġ6 1
Ġman oir
Ġprogram mation
Ġcaus Ã©s
Ġdan ois
ĠWind ows
ĠI tal
tu el
ĠG ouver
Ġmil it
Ġcollec te
ĠhÃ´ te
Ġmour ut
intÃ©g ration
Ġble ue
Ã© chec
Ġdes qu
Ġin tellig
ĠD VD
par ti
In ter
Ġdisc ussion
ĠprotÃ©g Ã©
Ġacqu iert
ĠcinÃ©mat ographique
Ġd rain
au tique
ĠP Ã¨re
ĠR ad
Ġes claves
ĠdÃ©p ression
Ġcin Ã©
Ġdeven us
Ġactu alitÃ©
Ġannonc Ã©e
P C
ĠM am
ac tifs
ĠT el
ille ur
Ġmari Ã©e
Ġpsy chi
Ġpron oncÃ©
Ġpous ser
ĠÃ©pau les
Ġpl aines
ĠG rÃ©g
ĠÃ©t range
Ġhabitu ellement
N ord
b ury
ch est
Ġj eter
Ġse ctions
Ġpl uies
ĠE ast
ĠR ab
Ġra f
ass aut
Ġcour ants
opp ose
oute z
Ġpass ages
Ġbi ologique
Ġadminist ration
ĠRo ch
Ġdivis Ã©e
Ġsent ait
occu pe
Ġdomes tique
E sp
Ġ iv
Ġa id
Ġpar ut
eu f
ĠÂ ±
Ġ18 50
Ã©nÃ© gal
cul aires
Î ½
Ġp ne
ci f
ĠB et
op old
Ġmar ge
ĠcrÃ© dit
Ġpropos ent
ĠtÃ©l Ã©s
N ic
ou k
ĠP u
ĠAr d
Ã©cur itÃ©
Ġvolont aire
Ġmodi fier
Ġperman ente
Ã ¥
â Ī
en o
qu ets
ri enne
ĠP res
ĠLe urs
lÃ¨ tes
Ġnation alitÃ©
Ġextra it
Ġconcer nÃ©s
ĠEli zabeth
Ġdic ta
h l
i eld
Ġm ex
or Ã©s
ĠS ire
Ġch air
Ġal tÃ©rÃ©
ĠcrÃ© ant
An jou
ĠSch w
expl o
Ġfamili al
Ġcre us
Ġfic tion
ou a
ĠC in
ĠC lÃ©
Ġb is
Ġcon d
ĠR ien
ĠW agner
Ã©ra it
Ġinter vention
Ġtour nÃ©es
Ġcap ables
Ġdiplom atique
hol m
ĠdÃ® ner
Ġcoi ff
ĠlittÃ© raires
Ġ ouverts
Ġa si
Ġle va
ĠS A
Ġg aul
ĠK ab
ob lig
Ġcul min
Ġcamp us
Ġcad et
Ġmer veille
ĠÃ©ch anti
Ġscul pt
ĠÃ©ner gies
ĠsÃ» re
Ġrecons titu
Ġconvain cu
Ġ er
Ġser vent
rou pe
Ġcou l
Ã©m is
Ġgrand it
ĠdÃ©p ens
Ġatt est
ĠAm az
Ġsomm ets
Ġpratique ment
ĠRom an
Ġpron onc
ĠSm all
ĠdÃ©mission ne
Ġtur c
es calier
Ġp oign
Ġa us
Ġcl Ã©s
Ġaff ili
Ġsta bilitÃ©
Ġcarb urant
tain ment
Ġd ign
Ġd ieux
ĠM ong
Ġdi alogue
ĠU N
Ġbr un
tionn els
Ġara ignÃ©es
Ġfourn isse
Ġparlement aires
ĠinterprÃ© tÃ©
I ran
Ġ ouvertes
ti tre
Ġm ante
al les
ĠBr est
Ġarchite cture
ĠTemp s
Ġrense ignement
ĠInstitu te
b lit
Ġdu el
ĠC ur
Ġcar rÃ©s
Ġexp ression
Ġrap ides
Ġparticul aritÃ©
ti mes
it anie
Ġf e
ĠA ires
Ġpro ph
Ġfin ancer
Ġvi vement
... )
Ġlog is
ĠMi ke
Ġpou dre
Certa ins
ĠStÃ©ph ane
Em manuel
Ġf irent
ĠÃ© difice
si g
ĠM and
ĠG ib
ĠH ard
nes s
ĠCan al
Ġ187 6
Ġ188 1
ĠarrÃª tÃ©s
ĠTe am
Ġmi di
ĠGil bert
ĠPÃ©r ou
accalaurÃ© at
m ens
Ø ±
ou m
is ant
ĠdÃ©c Ã¨de
ĠdÃ©p osÃ©
Ġtravers er
Ġpat rou
ĠCro atie
Ġarg entin
Ġdoctr ine
Ġmex ic
ĠL ot
Ġculture ls
Ġ188 2
Ġenvoy Ã©s
ĠvÃ©ri fier
ĠdÃ©nom ination
Ġs ensible
Ġpar venir
ĠS n
tÃ© n
Ġj Ã©s
ĠY e
Ġhabit ant
Ġappr ouvÃ©
Ġcircons criptions
Ġreb elles
Ġautoris Ã©
Gar onne
e y
Ġd ons
Ã© min
ĠC itÃ©
ĠdÃ© truite
Ġr ond
che ur
ĠCh Ã¢
ing en
ĠÃ©c ras
Ġcommun istes
Ġorganis Ã©es
Ġsex uelles
Ġrecord s
Ou tre
Ġgross es
Ġurban isÃ©es
g Ã¨nes
n on
Ġp isc
ar tistes
ĠÃ© li
Ġpar viennent
ĠM b
Ġdi ale
onn ance
ĠO N
Ġpos Ã©
Ġreg istre
af ric
Ġopp osÃ©
ĠcomplÃ©ment aire
Ġdiagnos tic
Ġv Ã©tÃ©
ĠL ut
tin a
Ġcomb ien
dem n
Ġcompagn ons
lÃ© tisme
ĠW olf
Ġcou cher
Ġca cher
Ġpermet tait
Ġreven di
anim al
Ġidentif iÃ©
Ġmodi fication
ĠBri an
ĠCat alog
B I
C he
b at
an ais
ĠC olu
mi Ã¨re
Ã©t ers
ĠWe b
Ġfi Ã¨vre
ĠHol lande
ĠdÃ©plac er
Ġvag ues
ĠEnter tainment
i us
Ġb ap
ĠF I
ut ent
Ġmar cher
ĠK ra
ĠÃª tres
Ġ7 7
uss y
Ġret omb
Ġvol ant
Ġsupp lÃ©
eng ager
Ġessenti el
Ġattrib ue
ĠCent ral
Ã©quival ent
u Ã©e
Ġen velopp
Ã¨ ges
ov ine
Ġz o
Ġdix iÃ¨me
Ġdispar aÃ®t
ĠKh an
Ġdiss olution
Ġlinguis tique
assassin at
Ġ q
ĠS S
Ġpl ay
ĠR ud
ĠH um
ati vitÃ©
Ġcol ons
ĠcrÃ© Ã©s
ĠrÃ©p Ã©tÃ©
ore l
Ġneu viÃ¨me
Ġtraditionn elles
ĠHol lywood
invent aire
A th
h Ã©ri
ra mi
ĠB au
ad ers
Ġmar ty
app ellation
tionn elles
Ġtermin ant
ĠAnd roid
ĠfrÃ©qu ents
ĠBu enos
Ġdoig t
ĠLiv re
c Ã©s
t ario
Ġd ates
ĠS ig
Ġcon jug
ĠE P
ĠW in
Ã©ta in
ĠdÃ©p asser
esp Ã¨ces
Ġeng agÃ©e
Ġregard ait
Ġdesti nÃ©es
m el
Ġ ib
Ġd ron
Ġau d
ĠB iden
pp er
ĠU ni
ang ulaire
Ġquar antaine
ĠGi ovanni
Ġcat alogue
Ġmagist ra
E uro
Ġp ire
ou f
ĠrÃ©un ions
Ġbu teur
ĠEug Ã¨ne
ĠbÃ©b Ã©
Ġens ole
ĠâĨ Ĵ
ĠMicros oft
ĠM ouvement
at trib
ĠrÃ© mun
ĠprÃ© voy
Ġcont ras
um ine
Ã©ra ble
Ġemp ereur
Ch aque
eng agement
Ġtermin Ã©e
atta quant
Ġmanifest ants
Ġaccus ations
inves tissement
ou ille
Ġv entre
ĠL inc
ĠD ick
Ġr itu
olog y
Ã¨ne ments
Ġtomb Ã©
Ġsurpr is
augment er
ĠbÃ© ton
ar chÃ©
Ġex tension
ni ti
Ġar m
ĠmÃ© c
st on
Ġchar gÃ©s
Ġcollec tivitÃ©s
Ġ184 0
Ġtrib une
Ġtal ents
hyd rog
Ġpaie ment
O li
Ġ ondes
Ġd ress
Ġc uri
Ġf lÃ¨
ĠA C
Ġav entures
ĠH ad
ĠCh Ã¢te
Ġ18 15
La urent
Ġinter rog
Ġactu els
Ġreti rÃ©
accomp agne
Ġtab ac
c z
en zo
og Ã¨ne
Ġces sÃ©
Ġappar tement
ĠÃ©t ranger
fi Ã©e
Ġgen oux
Ġus ines
Ġsurf aces
Ġinfluenc Ã©
Ġpomp iers
Ġd ose
ou rage
ĠS om
ĠD im
ĠJ our
ĠW ilson
Ġcl a
aÃ¯ a
Ġop tion
ĠMon aco
Ġlig nÃ©e
ĠPS G
Ġsul tan
ĠB y
ĠH auts
ĠW ol
Ġconf id
Ġpri oritÃ©
ĠBeau coup
Ġfranc ophone
i ance
en aire
si gn
ĠP ubli
Ġex pÃ©
Ġcons tell
ĠK u
Ġsoci alistes
Ġcontra ts
Ġsucc Ã©d
Ġsynth Ã¨se
ĠConserv atoire
E T
Ġdu chesse
Ġh eb
og es
ĠCh a
av Ã¨re
Ġcl inique
Ġ7 3
Ġmus Ã©es
ak istan
Ġreven dic
Ġindividu el
Ġrelie f
ĠHug o
sen al
Ġaccompag nÃ©e
rar ouge
Ã©ters bourg
T rois
in ts
ĠB oh
Ġcol lines
ĠgÃ©nÃ© tique
ĠAl s
ĠrÃ©p ression
lig a
Ġoff ensive
Ġid enti
Ã©l oi
Ġ188 6
Ġeng agÃ©s
Ġbord s
O s
c ts
w ork
ro se
ĠL ie
Ġin fin
esse ur
orti ves
Ġord onnÃ©
Ġlaiss a
ĠTou jours
ĠintermÃ©di aire
appr entissage
Ġaustrali en
h ad
ĠS o
pe z
Ġass iste
Ġfa ill
Ġautor oute
Ġplate formes
ĠNation ale
Ġpouss Ã©
b elli
ĠM iller
ĠV ati
Ġnota ire
ys te
off ice
Ġaffir mant
Ġsembl able
Ġsoulig nÃ©
ĠFried rich
J ohn
s ud
or o
om en
ol phe
Ġg ymn
ĠP oly
Ġex istait
Ã©c rire
Ġeff ort
Ġdom ine
anti ers
Ġtrib us
ĠMi di
Ġoblig Ã©
ĠÃ©lev Ã©es
ĠthÃ©or ies
Ġgross esse
Ġinse ctes
Ã Ł
Ġp un
il ton
ĠÃ©ta ts
Ġcl aire
ass oci
avi Ã¨re
ĠreÃ§ oivent
con que
ĠsÃ©lection neur
Ġcommerci aux
ĠXX I
Jus qu
' t
or al
ra les
ĠrÃ© cip
di ct
Ġin Ã©g
Ġmar ais
ĠtÃ©lÃ© f
ĠÃ¢ gÃ©es
Ġdesc endant
Ġcat al
Ġoccu per
ĠJÃ©r Ã´me
Ġincendi es
qu atre
et ti
Ġb ag
Ġh yp
ĠF lam
ĠprÃ© vention
ĠÃī g
ĠDe b
ix e
fic tion
Ġ187 8
Ġconsac rer
ĠSer ies
Ġcui vre
Ġprieur Ã©
i ales
l Ã¨s
ĠC ir
ĠJ un
ĠprÃ© venir
oc ie
tres s
Ġimp osÃ©
Ġob serve
Ġam ont
ines s
Ġoff ert
ĠCl aire
Ġtourn ois
amÃ©ric aine
ĠPed ro
Ġt endre
Ġv ot
ĠM ill
Ġpro sp
Ġcl an
Ġrend ue
Ġrepro duction
Ġgrav itÃ©
Ġatti re
offici er
Ġc Ã©ra
Ġch ristian
ĠB ata
ĠX avier
Ġpass es
Ġsupp ression
Ġparticip ant
ĠÃ©ch oue
Ġmention ne
interprÃ© tation
m und
ar l
et o
at ra
ĠJ i
Ġan tic
Ġes prits
ĠMar io
Ġ7 8
Ġremp ortÃ©e
ĠspÃ©ci alement
cad es
ĠChamp agne
Ġmobil es
Ġinconn ue
ur itÃ©
om a
Ġg am
Ġpr ouver
Ġmar ie
Ġmil les
Ġ6 9
Ġins cription
ow ski
Ġtrouv ant
hab itu
ĠdÃ©l ai
Ġassassin Ã©
Ġtriom phe
ĠLinc oln
ĠE ss
ĠF il
ĠÃī cosse
Ã©p ouse
Ġdro gue
ret te
Ġtrouv aient
Ġ187 4
Ġ188 8
Ġital iens
ĠLond on
.- -
Ġdimin uer
Ġsovi Ã©tiques
ĠnÃ©er landaise
Ġmatern elle
Ġcontrain tes
Ġpon tific
P Ã©tersbourg
V ers
h ai
ro v
Ġg Ã©rÃ©
ĠB ag
ĠN ot
ĠH ot
igne ments
ĠY am
Ã©li min
don Ã©sie
ĠWar ner
ĠAc ade
Ġmalheure ux
Ġmagni fique
H e
ĠÃ© lÃ©g
av ril
ric ts
ĠsÃ© di
Ġchant er
Ġhyd ra
ĠdÃ©lÃ©gu Ã©
ĠV all
ari tions
Ġass istÃ©
Ġeffec tifs
Ġbomb e
Ġhumi des
Ġde tte
ĠÃ© difi
ĠP el
Ġpr enait
Ġmarqu Ã©s
Ġsauv et
O b
ar bre
le vÃ©
ĠS ang
ĠA fin
ĠD avis
ĠN ar
ĠV el
Ġcomp ositions
ĠK on
ĠspÃ©ci ales
ĠCl assi
Ġ186 3
ĠrÃ©un is
Ġinhum Ã©
S tation
ĠC r
ch y
Ġb accalaurÃ©at
ĠdÃ©pl oie
ĠentraÃ® ner
Ġmig rants
f lix
Ġa lig
Ġpar lant
ĠM ort
ĠT ai
onn ent
Ġcomp tent
Ġar d
lin ois
Ġbar b
Ġdemand ant
Ġall ong
Ġconstruit es
Ġheure use
ĠÃ©limin atoires
arr Ãªte
Ð ¼
Ġpar lait
Ġb lÃ©
ĠB oe
Ġin nov
Ġpersonn elles
Ġth Ã©m
att ente
exp ri
Ġcompatri ote
en b
Ġb in
Ġb illet
Ġpl astique
ĠJ er
ĠH istor
Ġman ge
Ġass istant
ĠdÃ©f ic
ĠÃ©t endue
Ġfl ui
vision nement
Ġ187 5
ĠÃ©pis cop
Ġcos m
Ġdesser vi
ais ie
ĠD ix
Ġacc Ã©der
Ġrev ues
ĠCap it
ĠMoh amed
Ġsculpt ures
e arch
h orizon
ch ers
Ġg ig
Ġcon vient
ue ur
Ġti ennent
Ġ8 8
Ar mÃ©e
organis me
Ph one
ĠUnivers ity
te z
ĠH on
Ġcomp ta
Ãī ducation
Ġco ff
Ġbou c
Ġsub stitu
Ġarriv Ã©s
Mar c
Ġ187 2
Ġ188 4
hab itation
Ġriv al
Ġparf um
Ġcardi aque
Quel ques
n els
Ġla cs
Ġn aval
ag an
ĠT ak
ons es
Ġacc umul
ĠcrÃ© ateur
pec teur
Ġsal aires
Ġ188 7
Ġquin zaine
Ġdomes tiques
oct obre
E M
ĠS tr
at chev
Ġch aude
ĠB onn
ill Ã©es
ven ant
Ġtrans forme
Ġremp ortent
Ġsp ortives
ok a
Ar ts
Ġdesc endre
cha ussÃ©e
ĠDou glas
Ġgend armes
c Ã´
ĠdÃ© tenus
Ġcons tat
iss on
Ġvol er
Ġremar quÃ©
ĠNet flix
ĠrÃ©pert oire
Ġgarn ison
ĠColu mb
Ġp end
ĠP lace
Ãª nes
ĠprÃ© occup
ĠH amb
Ġnom mer
Ġar mÃ©
Ġcl in
Ġob sta
ok e
Ġfra u
Ġopp ose
Ġaccord Ã©
ĠhÃ´ pitaux
Ġsouverain etÃ©
Ġincar ne
fr Ã¨re
z en
en euve
Ġa ve
al o
ĠL ouvre
ne urs
Ġdi able
agn ol
ĠrÃ©gion aux
18 0
inc line
Ġ189 4
ĠindÃ©p endance
Ġmusic ales
ĠcÃ©rÃ© b
Ġnu ages
ĠbrÃ©sil ien
ĠVati can
s ol
Ġs pec
ĠL our
at ter
Ġch ang
onn u
Ġex tÃ©rieure
Ġcomp ati
Ġar chevÃªque
oris tes
Ġbon us
Ġ189 1
Ġ188 3
Ġsens ation
Ġaccomp agn
Ġadop tÃ©e
Ġindividu elles
Ġauxqu elles
Ġ Ø§ÙĦ
ou ement
ĠC lÃ©ment
Ġb Ã©g
ĠA sh
ĠrÃ© nov
Ġin tr
ĠF ant
Ġconn aissent
Ġrou tier
anci ens
urb anisme
ĠIs abelle
A li
Ġc ig
ĠS ub
Ġson ge
Ġcl andes
ess ai
ĠDi dier
ĠMain tenant
Ġtram way
A ri
Ġd r
Ġqu Ãªte
ta g
ĠP orte
ĠF ol
ins cription
Ġacc orde
Ġmont Ã©
Ġesp Ã¨re
lo ie
Ġmarqu ant
Ġvari ations
Ġregard a
ĠdÃ©pu tÃ©e
c as
n ois
an ou
il ib
Ã§ ants
Ã©v aluation
Ġfonction ner
Ġnorm al
Ġcanic ule
H istoire
O ff
h ier
om Ã¨tre
me d
ĠB Ã¢
ĠB art
Ġar mÃ©s
ĠCh en
Ġass urÃ©e
ĠprÃ©c ieux
Ġpropos Ã©e
Ġ186 1
Ġajou tant
Ġcircul aire
ĠChrist oph
ĠconÃ§ ue
Ġfaud rait
Ġamen Ã©
N o
y t
Ä «
Ġla tÃ©ra
te chn
Ġf Ãª
Ġt unis
os ants
ob Ã©
Ġman quer
Ġ9 2
Ġparc s
Ġ187 7
ĠSur vey
Ġfai m
M aur
Ġl an
Ġp riÃ¨re
Ġle cteur
vi Ã¨re
ver g
Ġvo Ã»te
ore ille
Ġess ayer
Ġsenti r
ĠKe vin
Ġg olfe
Ġcon tiennent
ĠEn vi
ph onse
Ġmin or
Ġfa usse
avi ons
Ġenf erm
Ġgar es
Ġmaj eurs
Ġartis tiques
Ġpa use
ĠdÃ©cid er
Ġpossi bilitÃ©s
Ġcaus Ã©
Ġadul te
abil itÃ©s
n ing
ĠÃ© rig
ĠS cience
ĠM ak
Ġpro di
Ġpr est
Ã§ aient
bre r
Ġindi quent
Ġdist ricts
ĠBe aux
Ġpel oton
adel ph
Als ace
l ante
m ur
Ġm Ã¨tre
Ġn arra
ĠD Ã©s
ul ations
Ġab sence
atri ces
Ġconsid Ã¨rent
Ġesti ment
ĠÃ©crit es
Ġfab rique
Ġcolon isation
Ġinaug urÃ©e
m oni
p oration
ĠÃ© te
ph y
Ġpers u
Ġvo tÃ©
Ġemp ire
ĠrÃ©c entes
Ġenvoy er
ami ral
Ġimpli quÃ©
ĠarchÃ© ologique
explo sion
ci al
Ġcompr ise
Ġlib Ã©rer
gu ay
ĠmatÃ©ri au
Ġamb assadeur
Ã©chapp er
Ġtriom ph
Ġalb Ã©do
ra h
ĠL oi
ĠD eu
ac Ã©e
ĠT w
Ġoff rant
Ġport s
ke ting
Ġfont aine
ĠdÃ©cid a
ĠdÃ©li b
ĠdÃ©v as
ĠÃ©chapp er
T ous
d or
ĠM oz
Ġcon ducteur
Ġmes se
ach t
Ġinv asion
Ġprot otype
ĠdÃ©fini tive
Ġach Ã¨te
Ġaffront er
ĠLion el
y ne
Ġd igne
ĠR iver
ĠN ature
onn iers
ĠH art
Ġnom bres
ĠÃ©g ale
Ġcou le
fin ales
Ġaff iche
Ġ186 6
Ġregard ant
ĠmÃ©dic ament
Ġcos tume
erse y
Ġache vÃ©
ĠhÃ©ri tier
Ġrejoign ent
v ation
ĠO k
th er
Ġconc lusion
Ġvie illes
Ġunivers el
ĠÃ¢ gÃ©s
Ġmunicip alitÃ©s
ĠÃ©tro ite
Ġbri Ã¨vement
ĠNAS A
Ġm Ã©s
Ġpro stitu
ĠJ os
ĠdÃ©c roche
tin es
Ġob server
Ġ8 1
Ġvis ites
aur ais
ĠVal ence
Par is
arc tique
Ġrestaur ants
Ġmascul ine
ĠtÃ¢ ches
ĠBill board
h ouse
ti mis
ĠC av
au mes
ĠD in
ĠI van
ĠF ir
ĠT ime
ĠT roy
ota ge
prÃ© sid
Ġtraditionn ellement
ĠYou gos
ĠMax im
Ġsch Ã©ma
Ġnoc tur
Ġinsc rite
Ä Ļ
Ġg ras
Ġh onte
Ġh ypothÃ¨se
Ġcomp arer
ĠK at
Ġob sc
Ġcin quant
Ġindi en
Ġord onne
Ġviv ait
Ġvari ables
Ġadap tÃ©e
ĠÃ©d iteur
Ġcroy ait
Ġindic ation
hel m
i um
si a
Ġcon for
Ġpr ussi
ĠRou ge
Ġretrouv Ã©s
Ġreb aptis
Ġmassi ve
N IE
Ġf asse
ĠM assi
am Ã©
ob a
ĠgÃ©nÃ©ra lis
tÃ©ri m
Ġpass Ã©s
Ġmoy ennes
inter ro
Ġtechn ologique
ĠRom ain
ĠÃ©limin Ã©
Ġcivil isation
amÃ©li oration
ĠRes earch
Ġattent ats
ĠLouv ain
C ont
P P
s wick
it res
Ã¨ ves
ĠB uck
Ġin tention
ĠR id
ĠG reg
ĠJ PL
ĠprÃ© d
ap arte
Ġfer ait
Ġconsid Ã©rer
Ġobserv atoire
Ġcandid ate
Ġtri o
Ġ186 2
ĠAb d
Ġmine ur
Ġconnaiss ait
Ġnav ale
Ġcriti quÃ©
Ġencou rage
Ġlittor al
ra bles
al th
ĠC ass
at on
Ġser ment
Ġcer tes
Ġw all
ĠdÃ©clar ations
ĠMan che
ĠRÃ©p ublic
Ġmarchand s
ĠPhil adelph
Ġl uc
Ġs aints
ra mment
as y
ĠS yl
pr is
ap our
lis s
Ġ202 5
Ġfut urs
An t
Ġop us
Ġdemand ent
Ġsort es
Ġsusp endu
Ġexcep tionnelle
Ġbattu e
Ġsup Ã©rieurs
m itt
Ġp ul
el lo
ĠT ig
Ġag ence
Ġcontinu Ã©
orb atchev
ĠLuc as
Ġcler gÃ©
B F
c ence
c ourt
is tÃ©ri
Ġch ances
ĠF N
Ġmont age
ĠprÃ©c on
ĠastÃ©roÃ¯ des
ĠBour bon
intÃ©g rer
ĠalÃ© a
Ġtap is
Ġcollec tive
Ġcomporte ments
Ġvacc ination
ĠmÃ©tro pole
belli on
1 00
} =
ne uf
ĠM ast
ĠK ent
ĠrÃ©g ulier
Ġcou ramment
Ġ8 2
Ġven aient
Ġappel Ã©es
Ġviol ent
Ġ186 5
Ġconcurr ents
Ġinvestis sements
O U
Ġla tÃ©
ans as
ĠC ad
Ġre ten
ĠP la
ĠJ up
og ue
Ġimp lique
ĠgÃ©nÃ© rique
tri ques
are l
Ġvie ill
Ġmal heur
ĠrÃ©f Ã©rences
ĠSh aron
gu Ã©
duis ant
Ġrappel Ã©
Ġcombin aison
Ġeth n
Ġanth rop
autor oute
Ġperf ection
p oint
v ra
ĠL iver
ĠM ig
ĠB ac
Ġ187 3
Ġ186 4
Ġajou ta
ĠintÃ©g rÃ©e
Ġjui f
Ġchancel ier
Ġcompil ation
C S
o tique
re lles
ar g
Ġv ign
ĠdÃ© tient
ĠB is
ĠB uc
Ġti b
Ġimp ose
Ġro ches
ĠÃ©v Ã¨nements
ili ation
Ġdisp osent
Ġorigin aires
Ġcontinu itÃ©
Ġabs orb
Ġalli Ã©
Ġcyc lisme
ĠingÃ©n ieurs
A vi
T oute
Ġt es
ass urance
Ġprin ces
aut onomie
Ġcap t
ĠAu vergne
Ġli qu
mar Ã¨s
Ġsort ent
NIE FF
ĠÃ© me
ĠI N
Ġinter nes
Ã¡ s
Ġrev int
ĠcaractÃ© rise
Ġnum Ã©riques
exp ansion
ĠlittÃ©ra lement
ĠBri tish
ĠConstantin ople
F ils
Ġl Ã©
ĠS Ã©nÃ©gal
ĠP y
Ġh ier
Ġsta ble
Ġconserv Ã©e
Ġglob ale
Ġfaute uil
ĠÃ©coss ais
b ourne
Ġd il
qu ants
et to
ĠB aviÃ¨re
ĠH un
Ġsorti es
ĠSt and
Ġfus ionn
Ġp Ã©ti
Ġc ite
Ġpar ts
ĠA R
ge oise
Ġar mÃ©n
Ġmo bilitÃ©
em m
Ġad mira
Ġnota bles
ĠY ann
ru guay
ĠSh ow
Ã¢te aux
ĠSe pt
Ġpens ent
Ġancienne ment
ĠLib er
Ġconfi Ã©e
Ġnorm alement
Ġfavor ables
Ġcop ie
Ġfrom age
ĠPlay Station
Ġcontac ts
ĠtÃ©lÃ©s pecta
ĠP uy
Ġpro viennent
op s
Ã¯ s
ler oi
Ġver ts
Ġreg ards
Ġgra ines
Ġdescend ants
Ġbloc s
institu t
d an
Ù Ī
en contre
ĠR av
Ġra ff
ard ie
Ġor chestre
Ġri z
ĠPro vin
ral itÃ©
Ġcommand Ã©
Ġcondam nation
atis me
Ġdiver si
Ġplaf ond
C alais
l ons
ĠT ot
Ġavant ages
Ġdisp oser
Ġoffici elles
Ġposi tive
Ġsymp h
Ġath lÃ¨tes
ĠAnth ony
R oy
o j
il y
ab a
ĠH os
Ġass ister
ath on
ign ons
ril lique
Ġpublique ment
Iv oire
Ġave ug
ti ver
et z
our ir
Ġb a
ĠS ui
ĠA ni
ĠF Ã©lix
ĠT a
expl oit
Ġindispens able
ĠcongrÃ© gation
f eld
Ġc og
Ġn utri
ag h
ĠV ik
ins piration
Ġcou per
Ġinf ec
gra de
Ġmain tient
Ġcr Ã¢
Ġartis an
Ġpuiss ants
Ġmass acre
lav ie
Ġaffron te
ĠPhilipp ines
or ent
ra lement
ĠP ales
ĠN y
Ġapp aritions
Ġacc Ã¨de
Ġaut och
aur a
Ġvois ines
orth os
ĠGl ob
ĠMath ieu
Ġhy per
j Ãł
Ġa ig
ur ich
ci r
Ġch aise
ĠB ibliothÃ¨que
Ġh onn
Ġcour ir
ĠÃ©vo quÃ©
Ġath lÃ¨te
ĠprotÃ© ines
aper Ã§
B ody
Ġpar rain
ĠL A
ĠH erb
Ġtr istes
Ġfin ales
mÃ© nie
Ġchar te
Ġrel Ã¢
ĠfÃ©min iste
ĠRen ault
Ġsing les
Ġproch aines
effec tu
ouch ure
ĠMade leine
ajou ter
A ub
F L
T T
Ã¨ bres
ĠS ong
Ġj um
ĠN a
lus ions
Ġrend us
Ã©cur ie
Ġferm er
Ġprim aires
ĠGui che
ĠconsÃ©cu tive
Ġconstell ation
Ġs oie
or able
ĠC oc
pe aux
Ġan aly
em me
Ġent housi
raph e
Ġopp ort
Ġvoul ant
Ġconcern ent
Ġparois ses
ĠrÃ©serv Ã©e
Ġpouss Ã©e
Ġglob al
Ġaltern ative
Ġdesser t
ĠNav arre
Ġasse mbl
ran e
ĠF ilm
ĠrÃ©p utÃ©
Ġvi f
ĠCa en
Ġterritori ales
ĠAcade my
Ġm out
ol at
ĠS en
ĠA ct
os c
Ġsorti t
Ġatta quÃ©
Ġqualif iÃ©s
ĠMÃ© rey
Ġfall u
ĠsÃ©v Ã¨re
Ġprotoc ole
ĠLiver pool
us anne
ĠS anti
Ġ( âĪ
ĠH ou
ex per
Ġins iste
Ġloc alitÃ©s
Ġaband onnÃ©e
Ġcy rillique
Ġsauv ages
Ġrecru tement
ĠmÃ©diÃ©v ale
Ġfir me
Ġf ief
Ġb erg
Ġb iblioth
ĠdÃ© esse
mi c
Ġpas teur
Ġro tation
ĠÃ©p onyme
ĠgÃ© ographie
Ġtri ple
Ġpuiss ances
Ġinspi rÃ©e
ĠtÃ©moign ent
Ġlogici els
hydrog Ã¨ne
g ard
p lÃ©
un itÃ©s
Ġf ri
ĠdÃ© tenu
ĠM oun
ĠR oc
oc al
ex amen
Ġins ta
ĠdÃ©n omb
Ġconvain c
ĠarchÃ© ologiques
ĠĠĠĠ ĠĠĠĠ
d oc
Ġl inÃ©
Ġb iÃ¨re
ai m
ĠB il
ĠB ible
ĠJ ersey
Ġal phab
Ãī O
An ti
Ġtant Ã´t
ĠLi ve
amÃ©ric ain
Ġlev Ã©e
mou th
Ġvall Ã©es
Ġs tress
Ġch aire
Ġsur vie
ĠF ox
ĠJ ou
Ġmar in
Ġca chÃ©
ok er
ĠChar ente
Ġcoup les
ĠmÃ©di atique
Ġali ments
Ġpal marÃ¨s
ĠinterprÃ© tation
Ġmante au
g uerre
Ġp alestin
in ations
Ġf osse
Ġt ube
Ġg Ã¨re
ĠG ood
ĠW ay
iss aient
Ġcer tific
ĠrÃ©p onses
Ġaut onomie
Ġsta bil
Ġpri or
Ġindustri elles
Ġ185 9
Ġment ale
n otamment
Å Ļ
Ġm y
Ġre tenue
ge ance
Ã¢ mes
Ġ7 9
ĠIn c
Ġfa une
Ġindi quant
enc ie
Ġbou tique
Â» ,
Ġrecons truit
Ġap ost
Ġtyp ique
Ġstatis tique
immi gration
f ant
g ro
Ä ĥ
on el
er ge
qu aient
Ġson s
ist ante
Ġ18 00
ah n
Ġconstru cteurs
Ġense ig
Ġvari ante
Ġmusic aux
Ġrasse mblement
ĠimpÃ©ri al
audi ence
Ġharc Ã¨lement
C ol
Ġp ant
ous ie
ĠJ en
Ġtr ous
Ġma dem
Ġcommun s
Ġinf rarouge
ĠdÃ©s espÃ©
Ġbat teries
Ã©l as
ĠMi ami
Ġexpri mÃ©
Ġcommunau taire
ĠMol iÃ¨re
Her z
ĠrÃ©pli qua
ce aux
eu l
ĠN oire
ĠLa p
Ġpers Ã©cu
Ġremp li
Ġeur ent
Ġappar u
Ġplan Ã¨tes
esp Ã¨re
ĠNew s
Ġpens ait
ĠGen eral
Ġrat tra
ĠMondi al
Ġved ette
Ġbasil ique
Ġmadem oiselle
. ),
A quitaine
Ġla issent
ĠÃ© puis
Ġpar lent
Ġh e
Ã´ ture
vis ible
ĠÃ©v acu
Ġprofessionn elles
heure usement
ĠmÃ©n age
Ġacces sibles
Ġsin on
env oi
Ġnett oy
ĠVenez uela
Ġ ira
ĠM ang
ĠD J
Ġsub ir
Ġsig nÃ©e
ĠSp or
ĠChe lem
ĠHam as
Ġasse mblÃ©e
Ġhumi de
Ġmanuscrit s
ĠLew is
li ques
Ġch antiers
ir ant
ex tension
Ġconf usion
ĠChar leroi
ĠRo ad
Ġabb Ã©
R en
d its
ar Ã©
ar is
Ġb oy
ĠF rÃ©
ĠdÃ©c ouverts
Ġsou tenue
aut orisation
ali Ã¨re
Ġentrepr end
ĠChe v
ĠPales tine
Å ¾
at ori
ĠR C
Ġ18 14
ĠPar allÃ¨lement
Ġam oureuse
Ġ8 6
Ã¼ l
ĠJapon ais
ĠlÃ©gisl ature
ĠcÃ©rÃ© ales
Ġgend armerie
Ġoccas ionn
Ġore illes
ĠL ady
as tes
ĠD a
Ã©g ovine
amp leur
Ġinter venir
enti elles
ĠcrÃ© Ã©es
Ġins criptions
Ġress enti
66 6
Ġpal Ã©
ĠToul on
Ġminim ale
Ġanalys es
M ex
h en
ĠD ec
am ine
ĠN os
og o
st ra
Ġcol lis
Ġ8 4
Ġindi enne
Åĵu f
Ġ/ /
ĠrÃ©v ol
att le
ĠGeor g
Ġconv oi
Ġpharm ac
Ġp este
Ġa cide
or isme
ĠP it
Ġdev ront
ĠParis ien
Ġaccus Ã©s
Ġpsych ologie
Ġrele vÃ©
Ġprolon ge
ĠGusta ve
B e
l ins
w ich
Ġp iliers
ĠLe c
Ġconc entre
Ġaff ai
aiss es
oris tique
Ġactu elles
Ġ186 9
Ġadministra teur
Ġboule vers
Ġphotograph ies
t rÃ©e
le cht
or ado
Ġf ib
ins titution
Ġro ses
opp er
Ġcr Ã¨me
Ã©tu di
}} }
Ġcondam nÃ©s
Ġvainque urs
Ġtransfor mÃ©e
Ġafric aine
Ġbass es
r ouvez
Ã¨ ches
ch an
ĠS oud
id ation
oy ers
Ġres pi
ĠAn vers
Ġ7 1
ĠrÃ©s ister
Ġorganis er
tic s
ĠrÃ©sul te
Ġ186 8
Ġfestival s
ĠBur kina
Ġlour des
Ġfati gue
Ġgo Ã»
Ġavoc ats
I M
f Ã¨res
ĠA pol
ĠR ail
Ġson ore
mi citÃ©
ang s
ĠAl ger
ĠZ i
Ġmen ant
Ġgra vement
Ġratta chÃ©
Ġsurvi vants
allen ge
Ġn app
au le
Ġb and
ne au
Ġre z
Ġin time
ĠG orbatchev
av enue
ĠdÃ©c rire
Ġy ou
Ġhab ite
Ġappar ait
Au jourd
ĠCor se
Ġsouff rance
Ġarchite ctes
Ġperman ent
ĠdÃ©place ments
ĠdÃ©riv Ã©
ĠcompÃ©t ence
Ġ itinÃ©
el ler
ĠL E
at tent
ĠO ut
Ġapp els
Ġti rage
Al bert
ĠJoh ann
Ġindustri e
Ġcircu its
ram me
ĠdÃ©je uner
Ġponc tu
g Ã©nÃ©ral
u in
Ġd resse
in de
ar ma
ĠS ie
Ġin noc
and ball
Ġparti elle
ĠdÃ©b ou
ler c
Ġvis iter
Ġatta quant
ĠprÃ©f Ã©rÃ©
Ġ179 4
Ġress orti
ĠbÃ©nÃ© v
Ġfranc ophones
ĠAli ce
ĠrÃ©public aine
Ġpromen ade
Ġpy rami
ĠÃ©di fices
Ġ æ
Ġen gl
as ter
ĠC elles
Ġan tis
ĠPar ce
ites ses
Ġbou e
exp liquer
ĠBon aparte
appro visionnement
Ġtraite ments
ĠSing apour
USS I
ĠNob el
Ġrestri ctions
Ġargile ux
ĠCatalog ne
A ir
ĠL au
ĠS or
av an
ĠQu oi
ĠÃ©cl air
Ġillus tra
Ġbre ton
Ġsh ow
Ġgaranti r
Ġaustrali enne
Ġachev Ã©e
Don ald
Ġhoriz ont
e Ã»t
g ers
os hi
ĠprÃ© limin
ĠAl an
Ġ9 6
Ġpass Ã©es
Ġcomment aires
effec tif
Pro vence
ĠSteph en
Ã© te
ĠR af
Ġsi re
Ġren oncer
Ġ9 3
ug u
Ġcompos Ã©es
Ġbar oque
Ġdos siers
Ġtop onyme
Ġjuri diction
Ġgraph ique
Ġexig ences
Ġvicom te
B r
b ro
Ġp ente
er on
Ġt axe
ĠC P
ĠA USSI
ĠT aÃ¯wan
ot ti
Ã´ tre
Ġcou teau
Ġfer mes
Ġmondi aux
Ġtomb es
Ġ185 7
Ġciv iles
ĠJul ie
l ast
Ġb eur
ĠS tone
ran ces
vi du
Ġav enir
Ġcl Ã´ture
Ġcou pÃ©
Ġmont s
Ġfond er
Ġpouv ons
aiss Ã©
Ġconstitu ant
Ġense ignement
ĠBel ge
Ġquit tent
Ġmor al
til itÃ©
Ġpou ces
ĠÅ ģ
oxy de
Ġproje ctions
Ġgerman ique
Ġdissi mul
Ġcinquant aine
f amille
r ari
Ġan onyme
Ġcomp rÃ©hension
Ġsec rÃ¨te
Ġacc use
Ġprom esse
Ġense ignant
Ġtermin us
ĠÃ©quival ente
Ġsti mul
Ġcamar ades
Ġd ois
ent endre
Ġad h
illet te
Ġmunicip aux
Ġfig ur
Ġvoul ut
Ġadministra tives
ĠAt lantique
ĠmÃ©m oires
Ġdo tÃ©e
Ġpleine ment
Ġtransp orter
Ġtempor aire
Ġparf aite
Ġoubli Ã©
g ence
k u
is ta
Ġpar as
ĠC ath
Ġg Ãª
Ã§ onn
Ġcons truis
ĠCh at
Ãī lys
Ġmuni tions
ĠFin ances
ĠrÃ©sid ents
alog ues
adap ter
Nic olas
l lon
Ġs qu
ĠK a
ĠÃ©c la
uss ie
20 15
Ġpi aniste
der lecht
exp rimer
appu ie
ĠnÅĵud s
Ġculmin ant
D A
Ġt we
ĠC S
au rer
ĠA ctu
ĠrÃ© bellion
Ġin tra
Ġinstitu tion
IN E
Ġsoup Ã§on
Ġdor mir
archi pel
Ġvraisembl ablement
ĠtÃ©lÃ©specta teurs
Mex ique
C H
m atur
ti co
Ġle cteurs
Ġv ec
ĠA ch
ĠT it
ĠCh al
Ã©d onie
Ġat ter
Ġjou ait
Ġcor onavirus
ras h
tionn aire
Ġchois ie
igh ts
Ġcoloni ale
Ã©lab oration
w i
Â ²
om i
Ġun d
Ġb ol
ĠprÃ© side
ĠV il
mÃ© trage
riv ent
ĠQ atar
ĠÃ©t endu
ĠrÃ©c olte
Ġorganis me
In d
Ġatt estÃ©
Ġdiv orce
Ġray onnement
ĠintÃ©ress ant
Ġsensi blement
ĠTib et
ĠExpl orer
Herz Ã©govine
h ire
ri x
ol ic
ĠB ry
ĠF aso
Ġar rond
Ġinter n
Ġopp osant
ĠTur in
ĠChap elle
Ġhol otype
Ġa z
au tel
ĠB rand
ĠT ik
Ġson de
Ġav ancÃ©
ĠV ent
ĠCh an
Ġsy mÃ©
illi ers
Â» .
ĠarrÃª tÃ©e
Ġconfir mer
Ġenregist rÃ©e
Ġsatis fait
Ġsignific ative
Ġbombarde ment
ĠCub a
Ġd orm
om on
ĠS oc
ot tes
Ġor gue
Ġam Ã¨ne
Ġappar tements
Ġbat teur
Ġsyn drome
Ġ187 9
Ġexpl oitation
Ġperd ent
Ġespagn ols
Ġukrain iens
' '
ĠS z
ĠA j
ĠCh ac
ens ky
ct or
An cien
Ġbar rages
anti ne
Ġinv ite
ĠprotÃ©g Ã©e
Ġreb onds
ĠrÃ©serv oir
Ġfrapp er
Is raÃ«l
Ġaim Ã©
Ã© lec
ra teur
ĠS ark
ĠP il
Ġpl ats
Ġsou ci
Ġesti mations
Ġconserv ateurs
ĠmathÃ©m ati
ĠhiÃ©r archie
Ġcuri ositÃ©
ĠYougos lavie
R obert
Ġv itesses
ĠÃ© th
ĠC lo
de aux
ĠrÃ© uni
ĠW ell
Ġes tiv
Ġ8 3
Ġ8 9
Ġvie illard
20 13
ĠAm sterdam
Ġconfir mÃ©e
ĠconsidÃ©rÃ© es
Ġagric ulteurs
ĠVI D
Ġrense ignements
t ch
Ġla v
Ġm ill
at us
ĠG Ã©nÃ©ral
ill ent
Ġses sion
ass an
Ã©ta ires
ĠCor ps
Ġsau vÃ©
ĠFranc fort
Ġcroiss ante
ĠPi et
rÃ©g ation
Ġterr estres
Ġexcep tionnel
Ġdouce ment
ĠStock holm
ĠAls ace
ĠHamb ourg
à ½
ra ison
ĠI ci
ac ts
end ront
Ġtr ompe
Ġcont enir
Ġcommun ications
val le
Ġeffectu Ã©e
arrÃª ta
Ġvas tes
ĠhÃ© lic
Ġchristian isme
ĠPhiladelph ie
en ay
ou z
ti ni
or ique
ro d
ĠC ord
res sent
si bilitÃ©
ci es
ĠB aud
tu m
ĠprÃ©sid ents
sionn aires
Ġsub di
Ġplu me
ĠOr dre
mont re
Ġserv ait
Ġmalheure usement
riss age
D om
Ġc end
Ġb ret
Ġre qu
ĠM ira
di ctions
ĠT est
ette z
ĠW W
Ġti ra
ĠsÃ© ances
Ġsau ce
Ġall aient
oz y
Ġoccident aux
Ġinves ti
ĠÃ©quip Ã©s
Ġrappro cher
Ġcalc aire
ĠC all
ve il
Ġg orge
ci Ã¨re
ill ages
Ġdou leurs
Ar thur
Ġami cal
blis sement
Ġsouhait ent
Ġprolong ation
ĠVID ÃīO
r ud
Ġpar ach
si x
ĠM aÃ®tre
cc itanie
ĠZ urich
amb assade
Ġpropos ant
Ġparta gÃ©e
ĠBru ges
Ġproduis ant
Ã©do ine
Ġgenti l
ĠGrÃ©g oire
i cher
w orth
Ġp ension
Ġn et
am ing
Ġex ces
Ġar istocra
ĠCh au
ĠdÃ©c orÃ©
Ġ8 7
20 19
ow a
ok u
Ġpsych ologique
ĠmÃ©can ismes
ĠlibÃ©ra ux
ĠPeu t
ĠÃ©quip Ã©e
ĠHub ert
b ois
ou ts
ra ines
ĠS N
ĠB oris
os ter
ĠG Ã©nÃ©
st Ã¨me
Ġman ager
Ġremp lir
20 12
Ġinc erta
Ġindi rec
ĠlÃ©g itime
ĠrÃ©un ir
itt le
Ġrecommand ations
Ġcollabor ateurs
ĠdÃ©barque ment
Ġorthod oxe
Ġpar i
Ġg erm
ĠP ress
ĠR asse
ĠT rÃ©
ĠLe v
pl ie
Ġman quÃ©
Ġent rent
Ġsol itaire
Ġag ir
ĠdÃ©velopp Ã©s
Ġappel er
je ction
Ġtest er
Ġdessin ateur
gar ie
Ġremarqu ables
ĠJon athan
Certa ines
ĠantÃ©ri eure
E mp
r ure
Ġ 00
or Ã©es
ĠB ang
Ġinter dis
Ã¯ de
emp orte
Ġemp Ãª
ĠOr ganisation
Ġmor ph
Ġdomin ant
Ġja unes
Ġattribu Ã©e
ĠFrances co
pron onciation
Ġsimultan Ã©ment
ĠHit ler
D S
G r
Ġd ata
Ġc ouverte
Ġa ran
in Ã©s
Ġf ure
om er
ĠJ oy
bre u
Ġmil itant
Ġob tenue
Ġclass Ã©es
Ġiniti ative
Ġhui le
et ts
ĠM r
ĠT es
Ġaut obi
Ġag it
ende z
ĠmÃ©di oc
Ġterre ur
aille ment
ĠÃ©lect ro
Ġ179 1
Ġfav ori
ĠBra d
ĠpÃ¨ler inage
V ic
k m
Ð ³
ĠP Ã©ri
ĠR ouss
ĠF aites
vi ces
Ġra vit
ord ogne
oy ez
iti mes
ĠÃ©qu ilibre
ĠrÃ©public ains
Ġtransp ortÃ©
Ġsensi bles
ĠthÃ©Ã¢ tra
e ctions
l ue
Ġt oiles
ĠC ob
ĠS Ã£o
ĠR oh
onn iÃ¨re
ĠO Ã¹
Ġconf inement
Ġnouv ellement
Ġgrande ur
ori Ã©tÃ©
ĠRÃ© union
ĠÃ©lectr oniques
Ġsensi bil
Ġpous siÃ¨re
Ġordin ateur
Ġsmartph one
ĠsÃ©min aire
l oc
m ore
r Ã¨tes
Ġl onge
ig an
ĠJ r
Ġpos Ã©e
Ġcor ri
Ġliv rÃ©
Ġst ars
Ġdist ances
Ġrend it
Ġarriv a
je ct
Ġpa ci
Ġvain cu
Ġsymb oles
Ġquanti tÃ©s
Ġfisc alitÃ©
ĠsuÃ©d oise
Ġessay Ã©
ĠmÃ©diterran Ã©en
ĠJord an
Ġconfig uration
Ø ¯
Ġ |
Ġ Åĵil
Ġt ar
Ġpar d
Ġh all
ff Ã©r
ĠV oir
Ġac tivement
itu Ã©
ĠdÃ©p assÃ©
ry s
Ġpart ent
ĠChar lie
Ġfra gment
Ġviv ants
ĠGe off
Ġbal les
Ġru ine
auc un
ĠCos ta
Ġnot oriÃ©tÃ©
clav age
ĠFig aro
p ic
or ations
Ġle aders
om s
ĠP re
li o
ĠN ou
ob iles
ĠMar t
ĠMar ch
Ġdiff use
Ġrapp eur
ĠgÃ© org
ĠdÃ©clar ant
ĠPe tite
Ġgagn ant
ĠÃ©quival ent
ĠRoche fort
ĠmagnÃ© tique
ĠprÃ©dÃ© cesseur
ĠChurch ill
ĠDeu ts
as ie
ta gon
Ġg estes
at u
ĠP orthos
ĠLa usanne
ens tein
ĠFran co
ĠdÃ©b ris
ler a
ĠlÃ©g ers
Ġrepr enant
Ġw allon
Ġprovo quant
Ġadop ter
ĠBro ad
ĠdÃ©v oile
Ġentour Ã©e
Ġfabri quÃ©
arme ment
Ġvig il
math bb
Ġsph Ã¨re
Ġmyst Ã¨re
ĠBR GM
ou bli
Ã©v aluer
Ã©p Ã©e
Ġmis sile
Ã©t oile
Ġamb iti
orb onne
ĠGl as
ĠOs car
Ġmauvais es
alli ance
Ġly onnais
ĠdÃ©sign ation
ĠLaur ence
Ġramen er
j eu
Ã© omorphes
ĠÃ ģ
ol ais
ĠF all
ĠN ag
Ã©ra l
Ġcour tes
Ġorganis ateurs
Ġlit res
Ġarriv ant
Ġqualif iÃ©e
200 7
b Ã©
c ra
Ġen quÃªtes
ĠS Ã©ville
ĠA ud
ĠT ab
Ã©ra tions
Ġcri a
Ġtomb Ã©e
att endre
ĠSte in
ĠFor ces
Ġru meurs
Ġpap iers
indi vidu
ĠcÃ©lÃ© brer
ĠAll ons
Ġcontrib uer
ĠvariÃ©tÃ© s
ĠperpÃ© tu
Ġg ain
ĠM Ã©m
am s
Ġan ime
Ġcomp agne
im on
onne urs
ĠÃ©c osyst
Ã©lÃ© ments
acc Ã©der
Ġappar tiennent
Ġind Ã©
Ġtech ni
Ġeffectu Ã©es
Ġlog o
Ġmention nÃ©es
Ġafric ain
ĠGas ton
Ġmam an
Ġerre urs
ĠChampions hip
Ġfoul Ã©e
Ġaran Ã©omorphes
c ass
È Ļ
ond er
Ġag ences
ĠpÃ©ri mÃ¨tre
Ġobserv ant
ÃŃ o
Ġaccomp agner
Ð° Ð½
ĠnÃ©cessaire ment
ĠConf Ã©dÃ©ration
S h
f ille
Ġs Ã¨che
is lam
ont an
ch aient
de urs
ĠB ord
Ġin telligence
ĠR ib
ĠH av
ond ation
Ġren ommÃ©
Ãī c
Ġco opÃ©ra
ĠFre der
ĠVill a
Ġul tÃ©rieure
ĠJup iter
F or
t ons
v ar
w en
qu Ãª
el lÃ©
Ġpr en
Ġcons ole
Ġloc alement
ĠprÃ©v ues
ĠprÃ©par Ã©
ĠPau lo
ĠbrÃ©sil ienne
ĠFi eld
Ġprolon gement
C ela
k es
o on
u ant
ĠL un
ĠV ich
Ġman ne
Ġmort es
20 14
ĠCar n
Ġprob abilitÃ©
Ġtrou b
Ġviol ente
Ġsyn agog
Ġbata illes
Ġparta gent
Ġaccord Ã©e
200 9
ĠsÃ©par Ã©s
ĠChe val
ĠmÃ©t aux
Ġadolesc ents
ĠVos ges
envoy er
ĠPenn s
A A
an Ã§on
Ġm n
ro vis
ic ale
oc le
man in
Ġass urant
ĠrÃ©s ume
adi er
Al b
Ġexpl osi
Ġsymb ol
Ġmusul man
Ġfrag ments
Ġcris es
instru ment
y ss
ment aire
Ġpar aissait
ĠR and
remi Ã¨re
ĠCh el
Ġinter p
olog istes
ĠrÃ©c ent
Ġdra g
Ġcorrespond ent
alle mand
ĠdÃ©cis ive
Ġassi mil
Ġboute ille
ĠbactÃ©ri es
D P
c tement
t ers
Ġc Ã¨de
ĠC ris
im meub
ĠMar tine
Ġk W
Ġcour rier
Ġexc ellent
Ġkilom Ã¨tre
Ġ180 1
Ġmine ures
Ġfaibles se
Ġbot anique
olith ique
Ġpisc ine
Ã© lo
Ġs te
ĠD anton
am as
Ġpr estation
ĠCh ab
ĠO ccident
tri ces
Ġprend ra
ĠdÃ©rou lÃ©e
ald o
ĠVill eneuve
Ġtor p
ĠL omb
ĠC ole
Ġb ec
ol Ã©e
at ch
ĠI er
ĠN asa
Ġvo tes
Ġconstitu tionnelle
ĠÃ©crit ure
ĠOr lÃ©ans
ĠdÃ©fense urs
Ġ185 5
ĠintÃ©g rer
Ġmobil ier
Ġfol ie
ĠAmer ica
ĠCamb ridge
k k
Ġf oc
ĠL yn
ĠrÃ© hab
am o
ĠV ieux
Ġconse ille
Ġeffec tif
Ġprog ress
Ġfix Ã©e
Ġorient ales
Ġcontinent ale
ĠLÃ© opold
Ġsor tis
Ġhydrog raphique
ĠHow ard
ur ies
Ġb ale
ĠG uer
Ġex trÃ©
Ġcar n
enti er
cul ture
ĠBel ges
ĠDi ane
Ġpropre ment
aisse aux
Ġcommuni quer
Ġconsta mment
ĠJuli ette
Ġprati quer
auc une
ĠBarb ara
ĠAth Ã¨nes
Ġbass ins
ĠGon z
Ġs ages
ro c
ĠP omp
onn aise
ven ues
Ġappar ence
ĠJoh annes
ĠMe use
ĠBe at
ith me
Ġpron once
Ġillus tre
Ġnu age
ĠRet rouvez
ĠHub ble
ĠdÃ©cer nÃ©
Ġbeur re
I ON
l aient
p rÃ©sent
Ġre tenir
ĠM aine
ai mer
Ġat traction
Ġrec ond
Ġren once
ĠdÃ©n oncÃ©
ĠrÃ©par ation
Ġrappel ant
Ġconcer nÃ©es
Ġoise au
ĠÃ©pous Ã©
ĠClar k
ĠDire ction
ĠLeb ia
c rÃ©
k rain
n g
Ġn aÃ¯
Ġb les
li us
ĠA fric
ĠB og
ĠB ec
ĠD ig
ĠR S
ĠT ang
iv ern
ĠAl phonse
emp Ãªche
Ġdev ons
Ġprodu ites
Ġrefus er
Ġconsta tÃ©
Ġsond age
Ġabat tu
ĠLour des
ĠRasse mblement
L i
Ġa ile
Ġqu ais
Ġv iens
Ġv aisseaux
Ġb aies
se y
Ãª le
mb ert
Ã©ri en
Ġal erte
ong o
itu Ã©e
ĠprÃ©sent Ã©s
Ġmis Ã¨re
ach a
ach us
ĠdÃ©s astre
Ġrom anci
tionn ellement
Ġriv es
Ġlic enci
Ġdat ent
Ġjudici aires
Ġcompli quÃ©
Ã©quip ier
ĠGold en
Ġtiss u
Ġfaill ite
g ate
Ã© par
Ġs l
Ġf umÃ©e
al tern
ĠB la
Ġpro ie
Ġpro tagon
ĠF id
ĠX box
ĠRe ine
Ġproch ains
Ġenregistre ments
exÃ©cu tif
ĠcomÃ© dien
Ġpotenti ellement
C ons
c our
c ro
v ard
Ġv Ã©c
ch ron
Ġad join
ĠAl len
Ġconf ier
cien nes
Ġco fond
Ġsol aires
ĠspÃ©ci aux
Ġplan ches
ĠdÃ©ta ille
ĠentraÃ® nant
Ġvoul ais
Ġfranch ir
zon a
ĠvulnÃ©ra ble
Ġavanc Ã©es
Can ada
g are
v ert
Ġp od
Ġqu elles
Ġn ar
ĠB ond
end a
ĠT en
ĠH ous
ĠcrÃ© ent
Ġprop ul
ĠRe y
Ġform Ã©s
ĠPaul ine
Ġimm un
ĠcollÃ¨ gue
ĠEm ma
Ġlaisse z
O c
P e
Ġc asser
Ġf Ã¢
ra ille
Ġmar keting
id al
imp lant
ĠMar co
Ġtrans met
20 10
Ġcas ting
prÃ© f
Ġbord ure
ĠSta te
Ġlibre ment
rass Ã©
ĠthÃ©or ique
Ġperman ence
Ġbais ser
Ġtub es
s te
Ġp ommes
Ġc aisse
Ã¨ g
Ġn Ã©s
ĠS up
ĠF la
vi ers
Ġav ancÃ©e
ĠN oir
one y
Ġcompos ants
ĠdÃ©m ographique
ĠBar ry
Ġviol ents
Ġpens Ã©
ĠfÃ© lic
ĠPr Ã¨s
Ġaband onner
ĠQue ens
Ġalg or
Ġcens ure
ĠmystÃ©ri eux
M I
Ä Ľ
it able
ra ble
ĠrÃ© jou
mb lÃ©
lÃ© matiques
ĠK le
Ġjou Ã©e
Ġinc omp
oth Ã©rap
ĠdÃ©clar a
Ġtrib un
Ġmu et
ĠWil helm
Ġdouce ur
ĠBul garie
Ġmam mi
Ġcontrain te
Ġfortif ications
ĠirrÃ© gu
ĠmolÃ©cu les
ĠSark ozy
B el
u ch
Ġl ob
se ction
ĠprÃ© texte
ĠQu elle
ĠspÃ©ci alisÃ©s
iz iÃ¨me
ĠConf Ã©rence
es sions
in ions
Ġv ib
ĠB oc
tra ges
amb assadeur
ute au
Ġtomb eau
Ġdiffus er
Ġvari antes
ĠnÃ©g atif
Or dre
expl oration
Ġorient al
atis ation
Ġbre vet
ĠthÃ©or Ã¨me
ĠÃ©vent uellement
ĠRap ha
oblig ation
H ar
b ul
Ï Ħ
Ġ ×
Ġv Ã©l
ĠG T
20 16
Ġli aisons
Ġsp ons
Ġliv rer
Ġop tim
Ġense mbles
Ġpat tes
rat oire
ĠrÃ©ussi r
A f
R hin
e uses
r Ã¨rent
ĠJ ose
av y
Ġor age
Ġcel l
Ġperm it
ĠdÃ©p Ã´ts
ĠZ h
Ġrou le
ĠsÃ©lection nÃ©s
Ġtermin ent
Ġenj eux
Ġbijou x
S t
ĠR oth
ĠJ es
Ġra ge
Ġac cidents
ĠdÃ©c ors
ĠdÃ©f ilÃ©
ak u
Ġrel atif
Ġanim Ã©
Ġindustri es
ĠvÃ©rit ablement
Ġcaus er
Ġtron Ã§on
Ġapost olique
B eau
k el
s oit
ĠL R
Ġb Ãªte
pe ction
and ro
uis s
ĠH MS
Ġfin aliste
Ġrest Ã©s
Ġ12 5
Ġsal ut
Ã©l ine
ĠbÃ©nÃ© fices
Ġgard Ã©
Ġorgan es
Ġconver sion
rem lin
ĠdÃ©fic it
M on
Ġt Ã©n
Ġb os
ĠS tal
Ġsa chant
Ġmar ier
tri gue
Ġconc urrent
ath lÃ©tisme
Ġsol enn
ĠBel grade
Ġgen ou
Ġ185 8
Ġexer cice
ĠexÃ©cu tÃ©
Ġtend ances
Ġgrav itation
Ġatti rÃ©
Ġcur ieux
ĠtÃ©lÃ©f ilm
ĠStand ard
B en
b ot
m os
Ġt ante
Ġpar king
ch ard
ci ces
ĠF am
Ġman uf
Ġconc lure
ĠdÃ©p endant
ĠgÃ© ologique
ĠGra m
ĠdÃ©li m
ĠBru ce
ĠrÃ©di gÃ©
Ġsubs iste
ĠBrig itte
Ġcomprom is
Ġsauvet age
b ec
i as
Ġc Ã©der
ĠM ann
Ġch o
ut ant
Ã©r Ã¨se
ĠÃ©v alu
aff ec
Ġpens Ã©es
Ġconsul tation
import antes
anim itÃ©
ĠSeu lement
Ġrecue illi
Ġracont er
Ġpay Ã©
Ġmang a
Ġheb domadaire
achus etts
Ġn Ã©c
Ġpar tant
ĠC la
ap est
tif ication
Ġat mosph
vis tes
Ġoff rent
Ġcher chent
ĠCor poration
Ġreconn us
Ġatta quer
ĠDÃ© partement
ĠÃ©vo quant
ĠStu dios
Mari time
f aite
ter rand
mb a
Ġex tr
ĠLa ke
ĠdÃ©c omp
anim aux
Ġdiscu ter
Ġautrich ien
B ern
i Ã¨mes
Ġs Ã©c
ĠB and
ĠB onne
ĠI d
ĠF ul
ĠN ath
ist res
Ã©r indi
ici ens
20 11
inter national
200 8
ĠmÃ©tÃ© o
ĠUS A
Ġjet a
Ġtac tique
ĠCri mÃ©e
Ġbombarde ments
ĠAuc un
S te
z ac
us ter
Ġh Ã©rÃ©
ab lo
ĠV allÃ©e
Ġces ser
Ġrep roche
Ġcour be
assi que
Ġcommer ces
Ã¡ r
Ġsigni fication
Ġremplac Ã©s
appel ait
IS E
Ġglob alement
ĠBi Ã©lor
ĠsÃ©p arer
observ atoire
Op Ã©ra
Ġrach at
ar abe
ra ham
Ġsur veiller
ac tive
am an
ĠG P
ĠH end
Ġmar teau
Ġrec om
Ġcer titude
ell ence
Ġrepr ennent
oles cent
Ġop tique
ĠÃ¢ ges
ĠprÃ©v us
Ġvend ue
ĠrÃ©volution naires
ĠQue en
ĠdÃ©truit s
ĠdÃ©mis sionn
verg ure
ĠRÃ©public ains
g y
Å ł
Ã© miques
Ġs eni
Ġf is
Ġex terne
Ġapp ellation
Ã©c oute
Ġjoue uses
Ġref roid
Ã©li en
Ġamb ition
Ġannonc ent
Ġtropic ale
Ġsusc ite
ĠA ustrali
Ġsur p
ĠD ark
ĠD ordogne
Ã©r one
ĠÃī v
Ã©v ent
Ġcour ante
20 21
acc Ã©lÃ©
Ġloc alisÃ©
Ġretr ans
ĠrÃ©c lame
Ġsusp end
ĠBan k
Ġinflu ences
Ġradic al
el er
ĠL og
Ġb ur
Ġb riques
ĠS par
ĠJ uni
Ġra mes
use ppe
Ġsupp ose
ĠAb del
ĠnÃ©g lig
ĠinterprÃ© tÃ©e
Ġremb ours
Ġhuman itaire
P eu
l yn
m Ã´
t oire
es sionn
ar istes
ar rive
Ġ20 30
ĠF ut
ĠT od
Ġal pin
ang a
Ġsou mettre
ĠAr c
Ġemp re
Ġvari ant
ĠAg ence
Ġdiscip lines
Ġmass ac
agas car
L R
o en
p re
ĠrÃ© Ã©d
Ġpro li
ĠV ig
ĠmÃ© cont
Ã©g er
Ġeff ond
tern itÃ©
ĠConc ours
Ġpare il
ĠTourn oi
Ġimmeub le
ĠdÃ©mons tration
ĠredÃ©c oupage
ĠPubli Ã©
b org
p Ã©e
Ġau th
ag rÃ©
Ġpro jec
ĠN ad
az ines
Ġinc royable
An n
Ġprom ul
Ġess aie
ĠFer rari
ĠalgÃ©ri en
D C
S ud
T ok
Ġv ass
ĠÃ© checs
Ġcon formÃ©ment
od ge
Ãī v
Ġindi gÃ¨nes
Ġappar ent
Ġsp ontan
Ġconserv Ã©s
ĠsÃ©par Ã©
ll ons
Ġsubst ance
Gu illaume
ĠapprÃ©ci Ã©
ĠRy an
Ġcenti mÃ¨tres
hÃ©s ite
ĠChristoph er
O h
Ġ }}
ri ra
ĠdÃ© chi
ĠS tation
Ġsa ur
ins ta
ĠLa f
Ġes calier
Ġpo Ã¨tes
ĠdÃ©f endu
Ġoff ice
pi ce
Ġbou cle
ĠpÃ©n al
ĠJus tin
Ġdisposi tifs
Ġattend ait
ĠWil d
Ġjuri diques
Ġ ultime
es e
Ã¨ tent
Ġb en
ĠrÃ© vision
ĠV ern
tr ont
ss on
ĠÃ©c rans
ĠÃī ditions
Ã©c os
Ġco Ã©quipier
Ġprodu c
Ġag gra
Ġsupp rimer
Ġesti mant
off rir
Ġneu tre
Ġbre f
ĠdÃ©cis if
ĠprocÃ©d ures
Ġprotest ante
Ġsouter raines
ĠrÃ©glement ation
Ġmeu bles
Ġsmartph ones
) )
O P
d un
l os
o lement
es cad
er be
is ations
Ġcon cession
ale t
ĠH as
ĠV oi
ad hÃ©sion
Ġal lÃ©g
ĠU R
ĠW is
Ġju ger
ate d
orte ment
Ã©c onom
ĠCar lo
Ġdemand ait
Ġtrouv Ã©e
Ġsouff rir
objet s
ĠVi Ãªt
Ġinstall ation
Ġterr oriste
ĠPort o
ĠidÃ© al
Ġmira cle
g ow
ĠS T
ĠP ant
ĠH avre
tis ation
Ġnota ble
Ġ9 8
ĠrÃ©alis ations
ok s
Ar c
inter prÃ¨te
oud ite
Ġquoi que
V inc
V oici
b ack
p c
Ã© re
Ġc ouvrir
ĠL ittle
ĠdÃ© tri
ĠdÃ© rive
ĠH il
ĠH aÃ¯
ĠEn se
ob us
Ã©v el
Ġcor rection
ĠprÃ©c ur
Ġemp lacement
ĠMal heureusement
import ants
Ġoccup ent
Ġnul le
Ġdiv ine
ĠrÃ©di ge
B run
Ġd auph
is ent
ĠÃ© lar
ĠC F
ch s
ĠdÃ© d
ĠE mp
ĠE mil
ĠE lisabeth
ĠG ames
Ġdon nÃ©s
Ġpi Ã©t
atta quer
Ġench Ã¨res
Ġchoc olat
ĠÃ©mo tions
Ġanc Ãªtres
Ġmos quÃ©e
Ġpeupl Ã©e
C omm
M i
Ġc Ã©li
ĠR aj
ĠN Ã®mes
Ġmar gin
mÃ© ment
ĠMar ne
Ã©p idÃ©mie
Ġco Ã¯n
Ġmen Ã©s
ĠTh aÃ¯
Ġstu pÃ©
ĠCas tille
vit ch
Ġgri mp
Ġrenouvel ables
ĠP ost
Ġro s
od Ã©
Ġpays an
ĠreprÃ©sent Ã©s
Ġmondi ales
Ġbr Ã¨ve
Ã©l itÃ©
ĠdÃ©n ommÃ©
Ġterr orisme
Ġfabric ant
Ġjuni ors
ĠZel ensky
Ġinterd ite
ĠÃ©ri gÃ©
ĠVich y
l ais
ĠS lov
ĠP akistan
ag one
Ġin tÃ©rim
Ġsa vent
ass o
Ġvie il
ak er
pi ers
ĠdÃ©velopp ent
Ġ183 1
Ġchasse ur
ip zig
Ġcuis son
ĠÃ©vid ent
ĠBud apest
Ġquan tique
A h
A lle
L A
t rÃ©s
ar isation
ur ier
Ġch Ãªne
ĠrÃ© form
ale tte
ĠLa v
Ġcomp ortant
Ġpe ines
Ġcor de
Ġpropos Ã©s
Ġtrouv Ã©s
Ġoblig ations
Ġcontribu tions
Ġprofond es
Ġda tÃ©
Ġfabri quer
Ġtempor airement
Ġtrah ison
Ġinuti le
ĠRoch elle
0 5
f ri
Ã© di
on Ã§ant
ĠdÃ© ni
ĠS yste
Ġre lier
ĠD ak
ĠO ri
ĠÃ©g alitÃ©
Ġsol de
20 17
Ġliv raison
rai rie
ĠCol orado
Ġmag azines
Ġ185 1
Ġretrouv Ã©e
âĢ¦ )
Ġattribu Ã©s
ĠLis bonne
ĠchÃ¢ ss
ĠrÃ©pert ori
ĠColumb ia
Ġprest ations
n elles
y an
Ġa Ã©ro
in the
ĠB az
ĠF is
onne c
Ġ4 50
po ques
Ġconc lusions
Ġco des
Ġrel atives
Ġretour na
ĠSon y
Ġproc Ã©der
Ġbi ographie
ĠmÃ©di a
Ġrespons abilitÃ©s
Ġenvoy Ã©e
200 6
ĠenquÃªte urs
ĠMag azine
Ġsan itaires
Ġnour rir
tig ieux
Ġpassion nÃ©
ĠEsp agn
ĠRÃ©s istance
D Ã©but
b ation
o ver
Ġl ot
ar bres
Ġf Ã©c
Ġf oyers
Ġt ome
Ġpar ad
Ġin habitu
ĠJ ak
ĠV Ã©n
Ã©m erg
Ġag glomÃ©ration
Ġatte ignant
ĠRuss ell
Ġnuit s
Ġami tiÃ©
Ġsac rÃ©e
Ġ185 6
ĠArn aud
C Ã´
v ens
Ġl ent
Ġg ir
Ġh Ã©roÃ¯
Ġe mm
ĠJ ar
ĠprÃ© dic
Ġtra g
rit z
Ġtrans mettre
Ġcher chant
Ġvoy ager
ĠbÃ©nÃ© fice
Ġgal eries
ĠCour t
Ġpatri e
ĠMin istÃ¨re
Ġliber tÃ©s
Ġamp hib
Ġrejet Ã©
Ã± a
Ġgratu itement
Ġrele ver
ĠRT BF
Ġdispu tÃ©e
niti alement
Ġ(âĪ ¼
b lie
is ne
ĠL N
Ġj etÃ©
Ġh Ã©li
ĠLe y
Ġtrav Ã©es
Ġmin istÃ©ri
ĠcrÃ© ations
Ġman iÃ¨res
Ġpri me
tel s
Ġdom inÃ©
Ġven ger
Ġatte ignent
Ġmot o
ĠMon seigneur
Ġparticuli Ã¨res
ĠComm and
rist o
Ġus ages
Ġ183 9
ĠLu cien
Ġtravaill ait
Ġsensi bilitÃ©
ĠSw ift
ĠdÃ©vo ilÃ©
Ġautomatique ment
techn ique
m od
Ã© larg
Ġs age
om pÃ©
ĠLa z
ĠO ccitanie
Ġapp ropri
ass a
Ġexp osÃ©s
Ġinc ul
ĠTh ib
Al li
Ġsais ir
ĠMad agascar
ini um
ĠdÃ©termin Ã©
Ġappare mment
ĠMex ico
ĠdÃ©couv rent
ĠMit terrand
Ġreporta ge
Ġextr Ãªmes
H aute
Ñ Į
Ġb ain
ĠS id
ĠD ah
og Ã©e
ill ac
Ġfin es
els on
ĠCar aÃ¯
Ġmati nÃ©e
ĠRob in
Ġsuff rage
Ġtre mblement
Ñģ Ðº
Ġfar ine
b ell
d Ã©s
h Ã©ritage
Ġd in
ĠD Ã©p
ĠN ich
Ġra dar
Ġtra um
ĠO rient
imp os
ex traction
min istre
Ġad dition
Ġ9 4
Ġinc luent
Ġsupp orter
Ã©quipe ment
Ġparc elle
ĠÃ¢ mes
Ġconsul ter
Ġfix er
urr ence
Ġsouv ient
ĠFre e
Ġdange reuses
Ġsty les
Ġpsychi atri
A mi
F R
S O
m u
on ais
Ġt ol
ĠÃ© larg
ta tif
ĠF a
vi de
ig es
ĠW ide
utilis ateur
ĠMor gan
ĠAlex is
Ġ184 9
Ġ185 4
Ġposi tifs
Ġtre mbl
Ġlois irs
ĠspÃ©cifique ment
ĠLim oges
Ġjustif ier
ĠDub lin
Ġensole illement
Ġgig antes
d ra
f aire
k an
Ġa Ã©rop
ĠL ig
ĠC ah
ĠC ologne
se p
ĠP Ã¢
ĠB lues
ĠJ O
ĠCh ron
ĠO ber
alis ant
tin ction
Ġat titude
Ã©n in
Ã©n aire
20 22
ĠAr g
Ġinc on
Ġemp loie
oris er
emb ouchure
Ġessenti elle
ĠBra b
ĠHam ilton
ĠdÃ©mont re
ĠmÃ©tal lique
Ġarb it
ĠOt to
Ġarr Ãªte
ĠflÃ¨ che
Ġsynagog ue
h em
m ons
rÃ© tion
ĠC R
ĠM Ã©l
og ie
Ġac cess
ĠMar sh
Ã©m ont
ĠcrÃ© ature
Ġquel s
Ġtrans e
ĠIn des
Ġfonction naire
Ġouv rier
ĠCol bert
Ġinst aller
off s
Ġpil o
ĠpÃ©n it
Ġru de
ĠÃ©limin er
ĠTrois iÃ¨me
Ġappli quÃ©e
ĠMaj or
Ġgaranti e
ĠBes anÃ§on
Ġn ap
Ġch ants
ac Ã©
ul Ã©s
ĠG ord
Ġter rasse
Ġti rant
Ġvo let
ĠrÃ©s olu
ĠRe vue
Ġsp Ã©c
Ġouv rit
Ġmag ique
ĠAnd erson
Ġsenti er
ĠLu ke
ĠDra g
Ġsubst ances
Ġcollis ion
S ch
T outes
f roid
g nÃ©es
Ġ ion
or di
Ġb ic
ĠM ous
ist ol
Ġcont amin
Ġmar ches
Ġju gÃ©e
ĠdÃ©b uter
Ã©p aule
Ġ9 1
Ġag ressi
Ġcan aux
ĠGrand s
ĠvÃ©rit ables
Ġsil enc
Ġdel la
ĠrÃ©parti es
Ġrac ine
ĠInf ra
Ġprovinci al
our geois
ĠPar ker
Ġrec yc
Ġor ange
Ã©ta ge
Ġcommun Ã©ment
Ġpres ti
Ġcompos iteurs
enc y
Ġsais i
Ġappr ouv
Ġhabitu des
ĠDra gon
Ġexploit ations
Ġcoord ination
ĠpossÃ©d ant
Ġbaptis Ã©e
Ġcav aliers
ĠJim my
ĠFac ultÃ©
f re
v int
Ã ½
Ġt aill
ĠS oul
ĠG erm
ĠLa val
Ã©ra trice
mÃ© lie
Ġmin uit
Ã©v acu
ense ur
Ġnation aliste
Ġpermet trait
Ġall Ã©e
Ġ184 6
ĠMÃ© dic
ĠÃ©nor mÃ©ment
ĠpÃ¨ler ins
Ġgall o
ĠPenns ylvanie
C rÃ©
b is
c ale
z el
Î »
Ġf al
ĠC GT
Ġcom tes
Ġh tt
ac ad
ĠLe ipzig
ĠEn d
ĠW ars
co ce
Ġfin issent
aine ment
ob ie
lÃ¨ ne
ner a
ĠprÃ©sid Ã©
Ġver ra
ok i
Ġ0 9
vÃ© cu
ĠBar th
Ġpil ier
Ġtest ament
Ð° Ñ
Ġrais onn
Ġdomin ante
amme d
Ġjamb e
ĠÃ©cou ter
Ġpure ment
ĠrÃ©gi ments
Cal Ã©donie
Ġbrusque ment
ĠSanti ago
ur Ã©es
ve re
ĠD ic
ĠR ous
op tÃ¨re
Ġcomp lot
od rome
ĠÃ©p idÃ©
ĠAu vio
serv atoire
Ġdisp osant
ĠrÃ©c onc
adi g
ĠprÃ©f Ã©rence
Ġlaiss ait
B ar
V ous
b ule
ti de
in form
il ia
ĠC A
ĠM em
Ġsi ff
ĠK remlin
ĠW TA
ĠdÃ©p endance
20 23
gram me
Ġchemin Ã©e
Ġtravaill iste
Ġidentif ier
Ġdiv ise
ĠfaÃ§ ades
Ġdiplom ate
Ġaf ro
ĠecclÃ©si astique
ĠTroy es
P N
V ille
s oci
Ġd ense
Ã¨ bre
ĠÃ© min
ĠC ot
Ġest hÃ©tique
ĠP ower
Ġin vo
ĠT in
ĠW er
ĠJe une
Ġrep li
Ġdev ise
20 18
int ensitÃ©
Ġinst ance
Ġartis ans
Ġsembl ables
Ġtran che
Ġconne xion
ĠAndre w
ĠPoi tiers
ĠGouver nement
Ġbap t
ĠHous ton
b en
Ġd ys
Ġm Ã©r
Ġm Ã¨res
un animitÃ©
Ġv ern
ĠA yant
ph ine
amp a
lÃ¨ rent
Ġrou m
ĠGu inÃ©e
Ġassoci Ã©es
ĠMus k
Ġcomprend s
ĠFranÃ§ais e
ĠGen e
Ġindividu elle
Ġeffic aces
Ġimmeub les
ĠBun des
g et
Ġa ides
ch ons
ĠP av
ĠB eck
ĠD ame
Ġra Ã¯
ĠW rest
app uy
Ġman Åĵuvre
oul Ãªme
Ġfus Ã©e
ĠStu dio
Ġaccompag nÃ©s
Ġax es
Ġfich iers
Ġtristes se
attent at
Q ue
Ġc Ã©d
ar che
or um
Ġt ric
ĠM ati
ĠM eur
ĠD auph
ĠJ amais
Ġac ous
Ġcont am
ass istance
Ġat omique
tis sent
Ġexp ul
ĠSh ang
Ġten ues
oe il
Ġval oir
Ġmas ter
ĠHug ues
agu ay
Ġspec tre
es el
en ko
on ienne
ch in
ĠS of
ĠA D
ic ie
Ġne w
Ġno tÃ©
Ġag rand
orti er
Ġplan ification
Ġcir que
Ġbi ologie
ĠTr ente
Ġchap ite
ĠdÃ©sig nÃ©e
Ġpoursui vent
ĠSeu l
Ġacad Ã©mique
ĠAf ghanistan
ĠprÃ©al able
Ã©vel opp
p ine
Ġt onne
Ġch rom
ĠB illy
ĠR is
ĠT omm
ĠK elly
imp ulsion
Ġimp Ã´ts
ath lon
Ġemp Ãªche
lin aire
ĠgÃ© ographiques
oli ve
Ġ185 3
Ġenti tÃ©s
Ġchante urs
appar tement
ĠrÃ©vÃ© ler
ĠrÃ©vÃ© lation
Ġcend res
Vinc ent
ĠThaÃ¯ lande
G A
u eux
Ġt om
ĠL at
ĠP od
Ġcon quis
pp i
ang o
ire r
Ġcol omb
Ġquel conque
Ġpor tion
ok o
Ġrend ait
Ġcommer Ã§ants
Ġopp osants
ĠMac Ã©doine
Ġ185 2
ĠÃ©cl ate
Ġcy ber
Ġenregist rÃ©s
Ġmodifi Ã©e
anth rop
Ã©ron autique
ĠmÃ©ridi onale
ĠEuropÃ© ens
Ġparoissi ale
A v
G rand
r m
u ki
is tiques
et ter
ta Ã¯
Ġsur vÃ©cu
ĠD y
tin o
ex tra
Ġob tint
Ġrep ous
Ġab ords
ĠY an
Ġmet tait
Ġeur o
ĠtÃ©lÃ© char
ĠDi jon
her be
ĠEnvi ron
Ø ¨
Ġ ol
an os
Ġs k
Ġc ort
ch im
ch ets
Ġj olie
ul f
Ġsa ti
Ġaux ili
Ġmar ges
ĠdÃ©c Ã©dÃ©e
app Ã©
emp are
Ġdit s
tent ri
Ġtu telle
ani me
Ġprofesse ure
Ġdomin ic
Ġtitu lar
ĠdÃ©mont rÃ©
ĠdÃ©gra dÃ©
Ġfame use
Ġviole mment
c Ã©es
d l
Ġc uire
ou g
at z
ĠprÃ© coce
ĠH aye
ĠU CI
ob tention
Ġinc ons
Ġrev Ãª
Ġcit ad
Ġcommen Ã§ait
Ġconfront ation
ĠPD G
E ur
b f
h aÃ¯
Ġp entes
el Ã©
ch al
Ġcom tÃ©s
se a
Ġpl ages
Ġin cident
ĠJ ay
Ġtr il
ĠU E
Ġmon Ã©taire
ĠrÃ©g ler
ĠcrÃ© atures
ver sement
Ġco Ã©qui
Ġexp osÃ©es
int endant
Ġdou bl
Ġpublic itÃ©s
ĠdÃ©s espoir
Ġorigin ales
Ã³ r
ĠmÃ©dic aux
ĠdÃ©mont rer
cesse urs
Ġspiritu el
Com tÃ©
ĠÃ©gyp tien
feu ille
ĠBoul ogne
Ġconjoin tement
Ġcorrec tement
ĠchÃ¢ss is
ä ¸
İ les
Ġpar ution
ta h
di oc
ois se
Ġob tiennent
Ġcol lÃ©g
Ġtemp les
ari um
aÃ® tra
Ġtrans it
Ġsol ides
ak ov
Ġim mer
Ġw ith
ĠVal en
ĠarrÃª ts
Ġ184 5
duis ent
my r
Ġexpri me
ume ur
Ġvig nes
Ġnaz is
Ġplong Ã©e
habit at
ĠrÃ©pÃ©ti tion
Ġtribun aux
R Ã©
S auf
Å Ľ
es pi
ĠM Ã©tro
mp es
ĠI rak
ĠG ros
Ġar bus
em mes
Ġacc ou
Ġ9 7
Ġemp ortÃ©
Ġsour iant
ĠBe ach
ĠâĢĶ ,
Ġcra tÃ¨re
Ã¤ n
Ġconsta ter
Ġpel ouse
Ġautrich ienne
Ġp omme
as ile
Ġcom Ã¨te
Ġpl ur
ĠB ros
ĠF leur
ĠG Ã©ra
ĠN ant
Ġcons ens
ph Ã©m
tis an
Ġmin oritÃ©
Ġlit urg
Ġsus citÃ©
Ġaffir ment
ĠprotÃ©g Ã©s
Ġmand ats
Ġoccident ales
ĠÃ©d iteurs
Ġatti rer
Ġprotest ants
ĠStan ley
Ã©merg ence
Ã©vacu ation
U r
d orf
l ois
v aux
le ton
al erte
ĠÃ© man
ĠÃ© poques
ĠdÃ© truis
ĠM att
ĠP ay
oi d
Ġcl ar
Ġph on
emp loy
ĠdÃ©p oser
acc ue
Ġcompos ent
ĠrÃ©c ents
Ġviv es
ĠCo oper
Ġperd us
Ġconfir mÃ©es
ĠlÃ©gisl ative
Ġcam ion
Ġtre mp
ĠSy stÃ¨me
Ġconcep ts
Ġacqu ise
ĠEur opa
ĠcamÃ©ra s
ĠAlli ance
ĠMarg aret
ĠVend Ã©e
Ġrenforce ment
G V
H Ã©lÃ¨ne
Ġl and
Ġl its
Ġde uil
ĠP on
Ġch ag
ĠI ss
Ġcont our
ĠK l
Ġcl os
Ġimp ati
Ġprincip autÃ©
ĠZ o
Ġpres tigieux
Ġsuper be
ĠSp ir
ĠWh it
Ġflam and
identif ier
Ġfonctionn alitÃ©s
dÃ©mocra te
owns hip
en aires
ta is
ĠS ad
Ġre viennent
at titude
Ġcon cile
ĠD ion
mi x
ĠEn f
An ton
Ġtri mestre
ĠSte ven
Ġroman tique
Ġ183 6
appel er
ĠGre cs
Ġgratu it
ĠcommÃ©m or
Ġott oman
GB T
ĠGlas gow
w w
Ġn auf
ĠG an
ĠDe vant
Ġins pire
Ġcap tur
Ġchar me
ĠdÃ©s accord
ĠbÃ¢ ton
Ġsus pec
Ġ184 1
car b
Ġcam ions
ES CO
Sa Ã´ne
Ġbra ve
ĠSeu ls
ĠCer cle
exemp laires
ĠNÃ© er
Ġsouter rain
ĠOlymp ique
Ġproje ction
Ġfres ques
ĠthÃ©rap eu
Ġincap able
Ġrand onnÃ©e
M ad
t our
Ã ²
it oy
or ia
Ġparti t
tr ons
ĠMar ion
onc ent
Ġaff lu
ĠrÃ©alis ant
Ġsuiv it
ĠdÃ©n oncer
ĠPr om
ĠWe ek
ĠBour ges
Ġfant astique
Ġaper Ã§u
Ġpare ille
ĠLud wig
Ġcapt urÃ©
J uli
S M
p ins
ri ens
ĠL IRE
Ġb Ã©n
Ġg Ã¢
ĠM ission
ĠrÃ© vis
ĠT on
ĠH ur
Ġob tenant
Ġvi es
grÃ© di
Ġfus il
hum our
Ġoccup ation
Ġfavor ise
Ġdiplom atiques
dom in
Ġmass es
Ġcrimin elle
Ġrelev Ã©e
Ġuni forme
Ġcig are
Ġa is
Ġm Ã»
il ie
ĠD all
ĠF ay
ĠJ a
ĠN ight
ĠH ez
Ã©ri es
ad ress
Ġmar itimes
ĠIn donÃ©sie
Ġdisp ens
ĠÃ©criv it
Ġdimin ue
Ġremont ent
Ġaim ait
Ġprolong er
Ġsuccessi ves
Ġmyth ologie
ĠMig uel
Ġpresti gie
C N
en cier
Ġs et
Ġs aga
ĠL oc
ĠL ight
Ġin demn
ĠT oy
ĠT ah
ĠLe cture
che f
ĠMar vel
Ġimp rÃ©
Ġconf r
Ġfa usses
ĠÃ©t ouff
Ġmain tenu
Ġexemp laire
Ġtravers ant
ĠSe bas
Ch amp
Ġanim Ã©e
Ġcommand Ã©e
ĠChamp ion
lant a
Ġmi roir
Ġ183 7
ĠopÃ©ra teurs
Ġpron oncer
identif ication
ĠdÃ©tri ment
Ġtranse pt
b oy
Å Ł
á »
Ġp li
Ġs Ã©nÃ©
in aug
ta m
Ġch Ã¢teaux
Ġ: )
Ġmo dule
ĠU p
Ġres titu
ĠdÃ©b ord
ĠprÃ©sent Ã©es
Ġmort alitÃ©
ĠprÃ©sid entiel
Ġfond ations
vÃ© ni
Ġ179 5
ĠCro ss
ker que
Ã¤ r
Ġitalien nes
Ġdimin uÃ©
Ġafric ains
Ġhy bri
Th omas
Ġregret te
Ġasc ension
affront ent
Ġrevendic ations
effectu er
I F
a ac
r Ã´
Ġc ibles
ĠS imp
Ġg ang
Ġj un
ĠP oin
ĠB erne
ĠB uteau
ĠO xford
Ã©n a
od a
Ġpo Ã©tique
Ġenvi ronn
ĠgÃ© ants
Ġsoi gne
cal ade
ĠnÃ©g lige
oli tique
ym ne
Ġcroiss ant
ĠintÃ©ress Ã©
ĠBor ne
ĠBul l
Ġinvent Ã©
Ġdrain Ã©e
it ar
Ġf ui
as k
Ġb ibli
âĢ ²
ĠR an
im ages
ow e
Ġposs Ã©der
Ġfac ilitÃ©
eff ort
ĠdÃ©n ommÃ©e
Ġextra its
Ġamb itions
Ġdiplom atie
ĠdÃ©te ction
adel oupe
bol lah
B er
S av
U L
Ġs inc
Ġ( "
Ġat mosphÃ¨re
Ġper ception
ĠdÃ©p our
ĠdÃ©f aill
Ġappar ue
Ġfl amme
Ġâ ī
Ġtomb a
Ġfac ul
Ġdistin ctes
ber ge
ĠGar cia
Ġterr oristes
Ġrecommand Ã©
hor reur
ĠFern ando
Ġhypoth Ã¨ses
Ġrecom mande
C P
Ġ á
es que
Ġs pi
or ateur
il o
ĠL itu
ĠP ur
Ġo xy
ĠrÃ©g ul
az i
Ġhabit ations
Ġgra mm
Ġplan if
Ġsoi gner
200 5
Ġcab ine
Ġchev et
Ġfusion ne
oty pes
ĠpÃªche urs
ĠÃ©lab orÃ©e
ĠSib Ã©rie
Ġdicta ture
ĠÃ©rig Ã©e
ĠMast ers
Ġmammi fÃ¨res
C onc
l ots
Ġl ente
rÃ© n
Ġb erce
Ġb lues
ĠS us
ĠF A
Ġdi ction
ic orne
Ġpos th
Ġph ras
Ġconc entrer
Ġdev in
acc ro
ĠlÃ©g al
ĠOn tario
Ġbr ise
ĠVal Ã©rie
intÃ© ress
Ġamb assade
ĠstratÃ©g iques
mon ies
intÃ©g ralitÃ©
ĠfrÃ©quent ation
ĠMoh ammed
ĠrÃ©ta blir
Ġbais er
Ġrapproche ment
ĠSl ovaquie
ĠAuc une
effond rement
Occident ale
ĠbÃ©nÃ©v oles
C o
V A
u vi
es a
Ġv el
ĠdÃ© tro
Ġg ise
ĠP IB
Ġcon te
Ġch lor
ac Ã©es
ac tivitÃ©s
Ġtou chÃ©e
ĠK ou
Ġ18 12
ĠÃ©c oute
Ġor ph
Ġins ou
Ġpropos Ã©es
Ġplac Ã©es
Ġsyn onyme
ĠÃ©tudi ante
Ġentrepr is
arriv er
Ġcos tumes
ĠMax ime
arr estation
Ġabou tit
Ġflam mes
ĠcinÃ© aste
E F
M L
h of
} .
ri ez
ĠC onn
ĠS omme
ci el
ĠB rÃ©
Ġor ages
Ã©p aisseur
ĠIn g
ĠdÃ©f av
ign ait
Ġvol ley
Ġjourn alisme
duc teurs
ĠBl ois
Ġpou les
Ġautoris Ã©s
ĠHer vÃ©
Ġda tÃ©e
amÃ©ric ains
ĠcomplÃ© ter
champ ion
Ġnoc es
ĠabrÃ© gÃ©
Ġcarre four
Ġdign itÃ©
ĠHez bollah
Ġd oyen
ĠÃ© ol
ĠÃ© tions
Ġcon cevoir
Ġsur venue
ran de
Ġpas sionn
Ġra bb
id Ã©s
ĠW omen
ib lement
Ġconf is
Ġexp ert
ĠsÃ©rie usement
Ġcher chÃ©
Ġsouff ert
Ġ184 2
Ġscol aritÃ©
tig ation
Ġinten si
ĠalgÃ©ri enne
Ġengage ments
Maur ice
Ġautoch tones
Å ¿
Ã© tra
ĠR ot
ter r
Ġcomp ortent
Ġsui vis
ach eter
ali de
Ġreconn aiss
Ġimpli quant
Ġbanc s
ĠmÃ©ta ph
Ġcav itÃ©s
ĠBerg er
Ġby zan
ĠrÃ©ac teurs
ĠsystÃ©matique ment
ĠHein rich
ĠcrÃ¢ ne
n ab
or ait
Ġf lan
ĠrÃ© agir
ter nes
ĠprÃ©sent ait
ĠCar ol
ĠDi am
Ġsuff ixe
Ġconserv Ã©es
Ġ183 2
Ġblan ch
Ġrecru tÃ©
Ġbass iste
Ġabou ti
Ġmenac Ã©
ĠdÃ©lic at
ĠNiger ia
ĠrÃ©hab il
H C
e ting
Ġde vez
ar z
Ġpar don
que z
Ġh andball
og n
ĠAn cien
lÃ¨ vent
ĠCar cass
Ġaccue il
Ġvir tu
Ġlabor atoires
Ġstri ctement
Ġign ore
ĠrÃ©flÃ©ch ir
N or
i ane
m ers
v ette
ci us
ui ra
Ġpas tor
ĠCh am
Ã©ta il
Ġconf ort
az e
Ġbas Ã©s
Ġsta ge
Ġpri e
Ġindi quer
Ġdonn era
Ġatte ints
tic a
Ġtechn ologiques
ĠfÃ© od
uri el
ĠdÃ©cla rer
ĠGre at
Ġsup ers
Ġexplo sion
Ġble us
ĠMass achusetts
champ s
Ġsoud ain
Ġapproxim ativement
Ġf lore
ĠL anc
me z
Ġpour cent
ue Ã¯
av ar
ĠO ld
ĠEn core
ĠMar ÃŃa
ĠÃ©p Ã©e
Ġbr illant
Ġbar riÃ¨re
Ġcit ron
Ġrefus ent
Ġexer cices
ĠagrÃ© able
ĠOff ice
Ġso eur
ĠrÃ©compens Ã©
entrepr ises
Ġcertific at
ĠBiÃ©lor ussie
m ort
p as
Ġs ir
Ġa st
Ġa cier
ou tre
ol k
ĠG ou
Ġdi ab
Ġ" .
ĠÃ©v ac
Ġcas que
Ġrou tiÃ¨re
In s
Ġatte intes
Ġurb ains
Ġemploy Ã©e
ĠcÃ©rÃ© monies
Ġrenouv ellement
ĠMel bourne
Ġang les
ĠdÃ©tec ter
Ġgre cs
ĠBoe ing
ont aine
ĠS ovi
ĠP os
Ġch en
ran ie
oc y
ass Ã©e
riv Ã©
app rÃ©
Ġchar itÃ©
ĠBer th
ĠSta dium
Ġsing uli
Ġcroy ez
ĠmathÃ©m atique
Ġcart ographie
appr endre
Ġsatisf action
ĠdÃ©ploie ment
C or
f on
l ations
t ot
w art
Ġc ors
Ġpar ue
ĠS ylv
ĠM S
ĠM W
ĠP ot
Ġh ivern
um inium
par tie
Ġentre p
ĠJe unesse
ĠAr k
raph ie
ograph ies
inter romp
Ġurb aines
ĠMer ce
ĠGir onde
ĠconsÃ©cu tives
Ġchirurg ie
thiop ie
a qu
a ussi
h ong
m oiselle
t oile
ĠL umi
end es
ĠG y
Ġan gle
Ġal er
Ġtra gique
Ġ3 60
tin ation
ĠFran ck
Ġat omes
Ġinter ventions
Ġexp lication
Ġparticip ations
Ġarriv ait
Ġcath olic
ĠrÃ©guli ers
200 4
Ġukrain iennes
Toute fois
D R
R ouge
b io
d ad
Ġp Ã¨res
ra Ã¯
au gh
Ġj adis
ĠG Ã¶
tes te
eur opÃ©
ĠÃ©g ard
asse ment
Ġco ins
ĠÃ©p ic
ĠreprÃ©sent ait
Ġclasse ments
Ġcontinu ait
Ġautor ise
Ġ180 6
ĠconÃ§ us
Ġeffic acitÃ©
Ġenregistre r
ĠsÃ©n ateurs
Ġtur que
ĠÃ©tro itement
cap itale
ĠrelÃ©gu Ã©
Fer rand
Ġbruxell ois
Ġdron es
Ġbiblioth Ã¨ques
C y
I tal
P er
U nivers
h umi
Ġs pl
Ã¨ lent
ĠS car
ĠB FM
ĠI gn
ĠF au
Ġav oue
Ġsa oudite
ĠW ater
Ġju d
Ġsou mise
he b
Ġass ise
Ġdisp osait
In di
con tinent
Ġautom obiles
ĠdÃ©termin ation
ĠBu ff
ĠbÃ©nÃ©fici ent
Ġpatron yme
Ġprolong Ã©e
ĠfrÃ©quent Ã©
Ġappli quÃ©
Ġboute illes
ĠLub lin
ĠSpr ing
ĠStef an
c in
e aux
Å º
Ġen tiers
ch ot
ĠB lu
Ġsur pl
ouver tement
Ã©ta blit
Ġad met
enti els
ĠÃ©v angÃ©
Ġvol Ã©
Ġfac ture
je ctoire
ĠmÃ©dic ales
ĠÎ ¸
Ġprati quÃ©
ĠraÃ¯ on
C risto
g nÃ©s
w o
Î µ
Ġp Ã©ni
Ġs pect
Ġle vÃ©
si gne
Ġpl as
ĠB M
ĠI an
Ġav ancer
Ġsa x
ĠK r
ob s
Ġres sent
Ġsy l
Ġab orde
erg y
Ġparticip a
Ġten us
Ġbat tent
Ġmag ie
Ġintro duite
Ġsouver ains
Ġfol le
ĠFab ien
ĠSÃ© oul
Ġtub er
ĠExp ress
ĠÃ©me utes
D avid
d ing
w ays
Ġ ouvertement
Ġun if
ri an
Ġtra jectoire
lis Ã©
Ġfil iÃ¨re
iss ance
Ġco que
Ġpo table
Ġcor po
Ġcap su
Ġsol itude
ak es
oph ile
Ġcompos er
Ġopp osÃ©s
Ġgu eu
ĠGi useppe
Ġriv alitÃ©
Ġenregist rÃ©es
Ġclo che
ĠMes si
Ġfisc ale
ĠdÃ©lic ate
Ġremer cie
Ġarchitectur al
Ġpist olet
ĠInfra red
A ix
Ġs arc
Ġla s
Ġun is
ĠJ ura
ic us
ĠH Ã©ra
ad Ã©
ĠmÃ© pris
Ġann oncer
ach i
Ġsais it
orie use
Ġquelque fois
Ġplate aux
ĠChris ti
Ġchron iques
Ġsignal Ã©
Ġbanc aire
ĠrÃ©pand ue
Ġchauss Ã©e
Ġempris onnÃ©
ĠnorvÃ©g ien
ĠvoÃ» tes
ĠBÃ¢ le
y in
Ġn ig
ĠdÃ© pose
de bourg
ĠT ER
ĠprÃ© venu
ĠH ain
og Ã©nÃ©
all y
ĠAr mand
Ġrou e
Ġsucc Ã©der
Ã³ d
Ġis olÃ©
Ġemb lÃ©matique
Ġcomplex itÃ©
Ġanne aux
Ġmyth e
Ġcrist all
ĠCaraÃ¯ bes
ĠBrab ant
Y ves
on ia
Ġp ans
Ġs ombres
Ġc ali
Ġf ru
vi r
ue z
ut o
ĠV a
oy a
ĠX i
Ġmari ages
att an
ĠComm on
Ġsigni fier
Ġconsac rÃ©s
ĠRen aud
Ġdocument aires
aci er
Ġexer cer
Ġbomb es
Ġprolong Ã©
Ġrac isme
ĠDun kerque
ĠabrÃ© vi
d ale
ĠÃ ´
Ġt s
au th
Ġre lÃ©gation
ĠF ire
ĠG ol
Ġex istÃ©
og a
ĠU krain
Ġcar riÃ¨res
lis er
Ġph yl
Ġeff ray
Ġ10 1
ĠQu int
Ã©t roit
Ġquit ta
ĠrÃª ver
Ġpanne au
Ġherb acÃ©e
Ð¸Ñ ĩ
Ġexcell ente
Ġgout te
ĠEspagn ols
Alli ance
L ou
f us
m orph
È Ľ
Ġs tÃ©
Ġc ryp
Ġa h
ĠÃ İles
Ġg e
ĠB omb
ĠB ussy
Ġan tiques
ĠLe m
Ġex tÃ©rieures
uti litÃ©
Ġfut ures
Ġfon te
ĠFor um
ĠdÃ©g uis
ĠcollÃ¨ ges
Ġenti tÃ©
ĠÃ©volu ait
Ġmol Ã©c
aband onner
ĠpÃ©dagog ique
Oli vier
ĠBuck ingham
C omp
S al
c il
v ais
Ġd urÃ©
Ġdans es
ĠA x
Ġin grÃ©di
Ġimp oser
Ġsou pe
ign it
Ġrel ance
Ġdeven ait
Ġgar diens
ĠLi bre
ĠHar vard
ĠmÃ©can iques
Ġmu tu
appar ence
Ġair s
Ġsurvi vre
ĠMari anne
Ġdivin itÃ©s
Ġsatisf aire
Ġcoul oir
0 3
A mb
c ieux
h op
u teurs
Ã °
es sence
on tiers
ent ra
it ait
or ro
Ġt ables
Ġdu rer
ĠM itch
eu vre
ac teurs
Ġtr onc
Ġ18 20
th an
ĠrÃ©p lique
Ġloc ation
ach Ã¨ve
ĠGu adeloupe
ĠgÃ© omÃ©trie
Ġlanc ent
hÃ´ te
gi Ã¨ne
ĠrÃª ves
Ġsouhait ait
Ġidentif iÃ©s
Ġsuccessi fs
ĠindÃ©pendant es
Ġprovinci ale
ĠCop enh
Ġom ni
Ġgouvern ance
Ã©limin ation
l ain
p an
in novation
ĠS ara
ĠG R
onn ait
remi er
Ġcont es
Ġapp ellent
tis sements
la teur
app lique
Ġ7 50
ĠrÃ©s istant
Ġgrande ment
ry pt
ĠCar th
Ġop inions
Ġouv rant
ĠCons t
ĠSta tes
Ġcondam ne
Ġtend resse
Ã©les te
Ġportug aise
ĠinÃ©d ite
Ġclient Ã¨le
ĠextrÃ© m
P ologne
s ans
s ax
Ġcom ique
li Ã¨res
ĠA P
ĠrÃ© acteur
ĠO rig
ĠK as
Ġjou Ã©s
Ġco h
Ġann ulÃ©
ĠRe yn
ĠÃ©t al
Ġsal ons
Ġmain tenance
Ġsupp li
ĠRoy ale
Ġmarqu ise
til lon
Ġaccomp li
ĠaÃ® nÃ©e
Ġsuppri mÃ©
Ġremb our
Ġintercommun ale
ĠRapha Ã«l
W ISE
s ay
Ġl umine
Ġp acte
Ġs log
Ġb Ã©tail
ag li
ĠB leu
ĠD ist
ĠE le
ac er
Ġo h
ĠH ell
ins tein
Ġam ant
ĠdÃ©f ait
... ).
Ġty ph
ani um
Ġqualif ic
Ġprot Ã¨ge
ĠprÃ©cis er
Ġcompar Ã©
ĠÅ ł
Ġsoup Ã§
ĠIb n
Ġrob ot
Ã©cl ai
ĠLamb ert
immeub le
A ignan
m ante
Ġp ompe
Ġc asse
in ki
Ġn aÃ®tre
ro ite
as ka
ta wa
Ġre man
Ġcon forme
ĠG amb
Ġdi esel
Ġsu isses
Ġmin ce
Ġcontre forts
Ġsoci ologie
ĠdÃ©p osÃ©e
ĠTh i
Ġcr ue
Ġeng end
ĠPe y
Ġ183 3
ĠdÃ©fini tif
Ġphysique ment
Ġprogressi ve
Ġcop ies
ĠalÃ© as
ĠÃ©mo tion
Ġargu ment
AmÃ©ric ain
ĠJane iro
ĠUR SS
ĠVÃ©n us
dioc Ã¨se
á Ģ
in dique
ve illÃ©
Ġra s
ĠO d
Ġpos tÃ©
fin i
Ġsui cid
Ġchamp ignons
Ġchar p
nation ale
Ġgr Ã¨s
ĠdÃ©ta chement
Ġemb au
Ġ183 4
ĠSim one
ĠÃ©quip age
Ġacad Ã©mie
ĠpÃ©nÃ© trer
ĠrÃ©cup Ã¨re
Ġmons tre
Ġchor Ã©g
ĠdÃ©tro it
0 7
n ale
Ġl ant
er ai
qu ise
Ġv igne
Ġv aud
ol le
ĠG ond
Ġro cher
ver y
ĠQu ar
Ġiniti atives
Ġcanton al
ĠDÃ© jÃł
pital ier
Ġsouhait Ã©
Ġrej ette
ĠÃ©lab orÃ©
Ġcaval ier
ĠEnse mble
l ers
en cou
ĠL it
ĠL GBT
ĠS em
ais sez
ĠA ix
Ġh Ã©rite
ĠR ain
Ġex ception
Ġcons entement
Ġsou tiennent
Ġren voie
ert y
Ãī ta
Ġri di
ros cop
Ġgouvernement ale
ĠgÃ© omÃ©
Ã©tu dier
ĠpÃ©n urie
Ġorgan ique
Ġrasse mbler
Ġbourg mestre
oxy gÃ¨ne
ĠfunÃ©ra illes
Ġluc ra
ĠTik Tok
ĠNath alie
C ap
S T
s Ã©rie
Ġc ouverts
Ġg our
og Ã¨nes
Ġar ticul
ct uration
ess a
ĠCour onne
Ġir landaise
ĠexÃ©cu tion
Ġinstall Ã©es
Ġpolici Ã¨re
ĠbÃ©nÃ©fici Ã©
Ã± o
astr onomie
inaug uration
. "
D el
b s
ĠÃ© ro
ĠS oit
ĠP ent
ĠA gn
ĠB ug
Ġh Ã©ritage
ad vers
Ġ18 10
Ġconc rÃ©
ĠlÃ©g ale
isse z
ret t
Ġdiffus Ã©s
Ġvari Ã©s
ĠAnd y
Ġlig ues
Ġferm Ã©s
ĠsÃ©par Ã©e
Ġadap tÃ©s
Ġexpli quant
ĠindÃ©pend an
Ġtor ture
ĠnÃ©goci er
Ġmens uel
tiss ant
Ġbouddh isme
ĠAmaz on
ĠFI FA
ĠexpÃ© ditions
Ġvot ants
' .
M a
g ouver
n est
Ġl ion
Ġde mie
Ġc anc
ar chevÃªque
ĠS orbonne
ĠD ave
ut en
ins ter
Ġal lusion
ĠCh yp
ici lement
Ġad hÃ©r
Ġbas Ã©es
vel and
Ġver d
Ġrou main
Ġspecta culaire
Ġgrav ure
autom obile
Ġimpli quÃ©s
ĠcÃ©ra mique
ĠCopenh ague
Ġl os
Ġn aiss
au be
ĠA us
oc Ã¨ne
ĠCh inois
id Ã©es
ĠW ur
Ġrec ouvert
Ġcou pes
th eta
Ġvis ages
land s
Ġop tions
Ġmer ci
ĠSe p
Ġhau teurs
Ġagric ulture
omÃ© ranie
wit z
Ġillus trÃ©
Ġsuffis ante
Ġos c
Ġimmob ilier
ĠInd ustri
Ġnoctur ne
Ġba illi
H Ã´tel
d Ã©c
m ais
Ġp Ã¨se
el o
ĠL en
ĠS at
ĠM lle
ĠP R
Ġpl aÃ®t
di ennes
ac tif
vi ctoire
ĠV and
ier ges
ing t
des c
Ġrep oser
Ġmen tionn
ach im
Ġsal uÃ©
Ġsau ter
ĠVal entin
oly te
ĠMag dal
Ġmassi fs
Ġbomb ardi
moi ries
Ġlumin ositÃ©
ĠSyn dic
ĠdÃ©cal age
ĠCarcass onne
G i
t ariat
ar ticles
Ġm aires
ant enne
Ġre la
am is
ĠH ers
ĠIn dien
Ġas tron
Ġpor tÃ©es
dic ation
Ġcontra c
ĠSh i
Ar d
Ġstatu ts
Ġsign ale
Ġsign aux
Ġuti les
Ġcroy ances
Ġsignific ations
ĠGuy ane
ĠMiss ouri
Ġtiss us
Ġnata tion
Ġsul f
ĠVoy ons
Ġoccas ions
Ġaudi ence
Ġcylind res
ĠcÃ©li b
Ġcort Ã¨ge
Ġcatholic isme
O lymp
h Ã©b
Ġs tÃ©rÃ©
Ġv enti
li b
ĠrÃ© elles
ĠrÃ© agi
ĠB eth
di rent
os o
Ġh Ã©m
ĠN g
Ġfin ancÃ©
Ġma Ã¯s
iss aire
od or
ĠZ NIEFF
Ġdeven ues
Ġsour is
Ġvit raux
Ġtomb ent
Ġcondam nÃ©e
Ġvain cre
Ġcra indre
Ġrenfor cÃ©e
ĠrÃ©comp enses
ĠConc ernant
ĠNeu f
Ġcoloni al
ĠBow l
ĠÃ©li re
ĠMb appÃ©
Cont rairement
ĠGÃ©ra ld
Ġposth ume
C roix
n ord
Ð ±
Ġ ç
ne z
Ġpro v
ĠCh ant
ĠÃī va
az ar
ak s
ĠrÃ©alis atrice
Ġdou zaine
Ġven ez
ĠdÃ©partement aux
Ġconsid Ã©rant
ĠGu ardi
reu il
ĠdÃ©rou lÃ©
Ġsouff rant
Ġadministra tifs
ĠSec ond
Ġ183 5
Ġfant Ã´me
burg h
ĠRem y
ĠSerg ueÃ¯
ĠMÃ©dic is
b r
b ou
z ar
ti Ã¨mes
Ġt rÃ©
Ġv amp
ro log
ĠB od
pp es
ĠT chÃ©
ĠT ed
ĠH eure
Ġex tÃ©rieurs
ĠCh em
rit annique
Ã©m otion
Ġins ol
Ġesp Ã©rant
Ġsta des
gÃ© lique
Ġpres tige
Ġviv aient
ĠMal aisie
Ġexc lu
ĠMan h
Ġsex uels
Ġperd ant
ĠPl ou
ĠAs ter
ĠcontrÃ´ lÃ©e
ĠdÃ©clen chement
Ne w
Ġintellectu elle
ĠenchaÃ® ne
Ġpharmac ie
ĠSoud an
Ġbapt Ãªme
S D
T F
Ġla mpe
Ġm Åĵurs
Ġen rich
ĠC ul
ol er
ais er
Ġch asser
Ġin verse
Ġson n
Ġparti tion
tr ant
Ġfin landais
Ġrec ouv
Ġdiff icilement
Ġsitu ent
ĠdÃ©b orde
Ġdou tes
Ġloc om
Ġpi tiÃ©
Ġsour i
Ġsus pect
ĠdÃ©rou lant
ouvre z
orta ient
Ġpouss a
ĠcontrÃ´ les
Ġcontinent ales
ĠBlac ks
ĠMas ter
ĠinÃ©d it
astr onome
Ġargu ments
Ġphras es
0 1
t oi
Ġ <
Ġt amb
ĠD ut
Ġh aÃ¯
Ġh Ã¢te
pp en
Ġdi ra
tres se
ĠK ansas
Ġinter diction
Ġass urent
ak o
Ġcas erne
Ġrel atifs
Ġcro ate
Ġord onnance
Ġrelig ions
Ġsuper vis
aj out
ĠmatÃ©ri els
ĠlÃ©gisl atif
Ġ180 9
Ġrecons truire
Ġbomb ard
Ġfabric ants
ĠapprÃ© h
Ġdange reuse
Ġchauff age
hom osex
Ġflu vi
ĠMerce des
p ard
v Ã©e
w are
ur al
el ine
ĠC lin
Ġj ure
Ã¢ n
Ġcl oÃ®
ĠAn derlecht
endre r
ĠcrÃ© ateurs
vel ines
ograph es
Ġsoi rÃ©es
anne au
Ġ184 7
ĠNic ole
Ġcra int
Ġnour rit
Ġmorte lle
ĠPol ice
Ġpotenti els
ĠMassi f
ĠGord on
acad Ã©mie
ĠLitu anie
A ur
C C
O t
Ġf ug
Ġf estiv
ĠS Ã©rie
Ġg ai
Ġex amin
Ġal cool
Ġar moiries
Ġser p
ĠdÃ©par ts
Ġemp ois
Ġreg istres
ĠspÃ©ci alitÃ©
Ġqualif iÃ©es
Ġvale t
Ġbal ance
ĠGal erie
ĠAh med
Ġchinois es
ĠTer rit
Ġta ches
Ġfondament ale
Ġmodern isation
Ġbourgeois ie
Ġmous quet
N A
N euve
re ct
ĠP es
Ġpl aintes
ĠrÃ© tic
ĠB Ã©nÃ©
ap o
ori o
ess ais
Ġvoul aient
Ġ184 4
Ġaim er
Ġdiv or
ĠamÃ©n age
accep ter
Ġneutra litÃ©
Ġmilit ante
Ġwall onne
B M
b u
Ġm Ã¨nent
ro ck
Ġdu es
Ġpar aly
ĠC au
ĠS D
Ġg ag
Ġre pl
ĠR as
ĠT Ã©
ap olis
ĠU SS
Ġ18 16
Ġmon arque
imp Ã´t
aut o
ili o
Ġpublic itaire
Ġpres sions
Ġdist rib
ĠÃ©ch o
ĠfÃ©min ines
Ġvolont airement
ĠPer p
Ġsing ulier
ĠEd mond
ĠMc K
opÃ©ra teur
Ġmig ration
Ġnaz ie
ĠantÃ©ri eures
Ġsond ages
Ġfau bourg
ĠTrib unal
Ġlimitroph es
Ġib n
attrib ution
g ir
in iÃ¨re
us sent
ai g
ĠU s
Ġcar ton
Ġcou lÃ©es
Ġprop ulsion
Ġ10 5
ĠÃ©p ais
Ġfond ent
Ã©t endre
ĠtÃ©lÃ© commun
Ġdra gon
Ġcollab orÃ©
Ġlun aire
veill ance
ĠisraÃ©li enne
harm onie
Aug uste
ĠFed er
ĠlaurÃ© at
Ġmanne quin
H ol
an tis
Ġv ierge
ci ale
de p
Ġcon ces
Ãª ve
ĠF ound
ĠG rÃ©
ap an
Ġcar ross
20 24
Ġvis ibilitÃ©
ĠQu in
Ġmod Ã©rÃ©e
lam m
Ġchois is
ĠÐ ¡
ĠrÃ©sid ant
ĠMin istre
ĠprotÃ©g Ã©es
Ġrecons truite
Ġreli ques
ĠimmÃ©di at
Ġrepro duire
ĠAlli Ã©s
Ġtari f
ĠdÃ©grad ation
corÃ© en
ĠChel sea
C D
E A
k ine
w al
ĠB oud
ĠR ue
am us
ic z
ĠprÃ© visions
ill Ã¨re
ĠK it
oin es
ex il
omm er
Ġpersonn ellement
lic a
Ġcr Ãªte
resse ur
Or ganisation
och ine
ĠVi etnam
ĠPal erme
ĠMur at
Ġmusul mane
ĠcomÃ© dienne
ĠBab yl
ĠErn st
ĠDup ont
Ġrach Ã¨te
0 2
n ais
} ^{
in us
ĠB urg
ĠJ ava
Ġpr ouve
ĠH eures
tra vail
Ãī douard
Ġexp ortations
Ġca ve
Ġremp arts
Ġag ran
Ã©t oiles
oh en
Par allÃ¨lement
ĠmÃ©th od
200 3
Ġexist ant
ĠcÃ©lÃ©b ration
ĠrÃ©flex ions
ĠdÃ©sign ant
ĠNet work
ĠmÃ©diÃ©v al
Ġmul titude
ving t
Ġpne um
ĠGlob al
Ġpourcent age
A I
k ir
l antÃ©
y ang
Â Ĵ
Ï ĥ
ti ment
Ġla ve
Ġf lex
ĠC aire
Ġb Ãªtes
ol les
Ġj oint
ĠP ablo
Ġin hib
Ġh ou
onn ie
Ġ18 13
Ġter rib
ici o
ĠÃ©v Ã¨nement
Ġsep tentri
ĠAr ena
Ġmes urent
Ġrest aurer
Ġindi ce
Ġindi ces
Ġmod Ã©
ĠSch mitt
ina e
Ġchap itres
ĠÃ©qu ilib
Ġoccup Ã©s
Ġcompar able
Ġpoursuit es
Ġral ly
ĠdÃ©lÃ©gu Ã©s
Ġcle f
P yrÃ©nÃ©es
k ar
Ġch ou
Ġch utes
ĠV as
ad en
Ġtour ment
Ġins ul
ĠÃ©p aisse
Ã©t al
ĠSh in
Ġfac es
inf rastru
ĠEx c
Ġfou dre
Ðµ Ð²
ĠhÃ´tel s
col onel
Ġnaz i
Ġstre aming
Ġidenti ques
B ois
F ield
P rÃ©
Ġp is
Ġle Ã§ons
Ġn atal
Ġpar adis
ĠS Ã©curitÃ©
Ġj onction
ran gement
ĠI MD
ĠF ro
ĠF iat
ĠT rop
ill ers
ĠdÃ©c om
id o
ph al
ass Ã©s
Ġpos tu
emp arer
Ġann uellement
ĠÃ©ch ouÃ©
Ġouv riÃ¨re
Ġcrois Ã©e
Ġinv itÃ©e
Ġsac re
ĠDeux iÃ¨me
Ġant enne
ĠsÃ» rement
oÃ¯ de
Ġdistribu Ã©
Ġcalcul s
Ġdest roy
Ġarg entine
Ġexploit Ã©e
Ġhui tiÃ¨mes
Ġenvis agÃ©
ĠlÃ©gend aire
ĠdÃ©pass ant
atter rissage
Ġcog ni
0 8
H um
Ġp uni
Ġf oncÃ©
ais ant
ĠB ron
ni Ã¨res
Ġinter actions
Ġexp ansion
ĠdÃ©f ensif
Ġpor n
Ġfra ction
ĠSt ory
Ġrem or
ik h
ĠEl ena
ĠpÃ©n ale
Ġrestaur Ã©
ON G
ĠconÃ§ oit
ĠSc ot
appar aÃ®t
ĠOli ver
ĠFond s
Ġconfront Ã©
ĠLang ue
L u
U D
i ches
Ġd Ã´me
Ġp leur
Ġs ic
el age
au m
ol ont
ĠS ier
ĠS Ã©g
Ġin cidents
ĠD res
ĠD Ã©but
ĠF anny
ĠF BI
ĠH autes
ad olesc
ati ale
ĠdÃ©c Ã©d
ten aient
opp oser
Ġform ellement
ĠâĢ ļ
once au
Ġobserv ateurs
ĠChamp s
ĠHar ris
Ġsembl aient
Ð¾ ÑĢ
Ġsup erm
install ent
ĠmÃ©l anc
Ġgla cier
Ġbris Ã©
ĠprÃ©serv ation
ĠCle veland
Ġchau des
Ġnettoy age
Ġfib res
, ,
er gement
Ġau dition
ĠE L
ab ond
ĠG un
ad mi
mar ine
ma il
Ġinst ances
ennes see
Ġmarqu Ã©es
ĠMor ris
ĠAd rien
ĠTra itÃ©
Ġfavor ite
Ġcui r
ĠFr Ã¨res
Ġdesqu els
Ġmagistra ts
Ġdr Ã´le
Ġhtt ps
S u
n try
p res
Ġ urg
it at
Ġpar ap
ĠL CI
ĠC oul
ĠV es
ion e
ĠCh allenge
Ġes car
ici de
Ã©lÃ© ment
Ġmat ri
ĠpÃ©ri odique
ĠthÃ© olog
Ġroy aumes
ck er
Ġdess inÃ©
Ġreven ant
ĠSu z
aj oute
Ġconsul tant
200 1
ĠâĪ Ī
Ġ180 2
Ġsouhait ant
ĠlibÃ©ra le
Ġgui d
Ġparall Ã¨lement
ĠBol iv
Ġintellectu els
ĠNik ol
illus tre
ĠsupplÃ© ant
E lles
b eau
er ont
ĠJ in
and ra
Ġsub li
chi z
Ġchap elles
Ġmi el
200 2
Ġ183 8
Ġoccup ant
Ġchev aliers
Ġspiritu elle
ĠisraÃ©li en
Ġconvo quÃ©
ĠprÃ©cau tions
ĠÃ©chanti llons
Ġambiti eux
Ġconsens us
ĠIMD b
W illiam
Ġs lov
Ġa cides
ti bles
om ac
Ġ1 19
ĠB ot
Ġr onge
ĠF res
Ġan arch
ad j
Ġra id
av en
ĠK enne
Ġcl avi
ĠrÃ©g ulation
Ġsou lÃ¨vement
els inki
An vers
ĠÎ ±
ĠÃ©limin ation
ĠAug ust
accomp agner
Ġrect angulaire
ĠlinÃ© aire
ĠLec lerc
ĠMarsh all
P rin
Ġ ombre
Ġc Ã©leste
Ġf oie
est on
ĠS ak
ĠE u
ĠG Ãªnes
ĠV anc
ĠV erts
Ġcons tant
Ġcou tume
ĠdÃ©f is
Ġinc ur
Ġhabit ats
cid ence
Ġlieu es
amb ition
ĠSh er
Ġense igner
Ġattrib uer
ĠLib ye
Ġmatern el
Ġner veux
Ã©mis ph
ĠmÃ©dioc re
S ans
c tive
g rants
n ien
Ġs que
Ġf um
ĠS ard
ĠJ eu
Ġra d
ap s
lis h
Ġcou lis
Ġph osph
Ġph arma
ĠÃ©v al
Ġ15 00
Ġoff res
Ġliv ret
ani el
isl as
Ġappr entissage
Lors qu
ĠprÃ©cis ant
rÃ©g or
Ġamp li
asc ension
ĠtÃ©lÃ©vis Ã©
ĠRi viÃ¨re
Ġexplo itÃ©
ĠNat ura
Ġincont ourn
Ġravit aillement
ĠÃ©cosyst Ã¨mes
othÃ©rap ie
Ġrepous ser
ĠextrÃ©m itÃ©s
A uc
L M
an z
et e
Ġen quÃª
Ġt ress
our iez
al and
pr in
ass el
ĠPar fois
Ġrec ouvre
iss a
Ġremp lis
ĠreÃ§ ue
Ġsucc Ã©dÃ©
Ġinst ants
Ġviv ante
exp ortation
Ġsex ualitÃ©
ĠFor est
Ġoblig ation
rÃ©g ion
Ġfamili ales
ĠWal ker
ĠgÃ©n oci
ĠdÃ©plac Ã©
Ġmyth ique
ĠÃ©vent uelle
Ġparcour ir
ĠdÃ©cro cher
Ġcontras te
Ġafflu ents
ĠChyp re
) =
å ¤
ĠL ions
ĠL iga
ĠC iv
ĠrÃ© els
ĠF un
ic ot
ĠdÃ©c oupage
Ġimp rovis
Ġpol it
Ġpubli a
ari es
Ġprof itÃ©
Ġca chÃ©e
Ġpopul ar
mar k
Ġop timis
Ġcher chait
Ġreconn aissant
Ã« n
Ġlanc Ã©es
oz a
Es prit
Ġtari fs
ĠBus iness
Ġroul ant
ĠmathÃ©mati cien
ĠC rois
ch eux
Ġh Ã¢
Ġh orm
tu aires
ĠR oute
ĠT rou
ab ou
ni fer
amp ton
he ad
Ġsoci o
ats u
aur ation
ĠMal te
ĠprÃ©cÃ©d ant
Ġspecta teur
Ġval u
ãĥ ¼
Ġcontro verse
Ġjoin dre
ocal yp
humi ditÃ©
v ance
Ġ Åĵ
ar ti
el ier
ĠC Ã©line
Ġ2 20
ĠM R
ĠM are
Ġin att
id jan
Ġser pent
Ġob us
Ġren f
Ġcer c
Ġref erm
Ġrecher cher
ĠÃ©conom ies
Ġopp osÃ©e
ĠMos elle
Ġpati n
Ġinstru ctions
ĠtÃ©lÃ©vis Ã©es
ĠÃ©lectr om
ĠSeu le
ĠSil va
ĠHug h
ĠAnti lles
ĠON G
ĠRaf ael
Ġl Ã¨ve
Ġde ttes
in ten
Ġen n
Ġpar venu
Ġb ond
que ur
ĠS atur
ĠP ard
Ġpl ai
ĠE lect
ĠR MC
ĠH ond
ill ards
Ã´ pital
Ġapp l
Ġob last
app liquer
emp orter
ĠdÃ©p ou
ĠdÃ©f unt
Ġfa Ã§ons
Ġrest ru
ĠÃ©ch ang
quel ine
Ġinst alle
ĠPro g
Ã©qu ation
Ġvoyage ur
emb ar
Ġposi tives
ĠJuli a
Ġregroupe ment
Ġvert us
Ġfrag ile
ĠMiss issi
Ġmagist rat
Ġrachet Ã©
Ġbrass erie
ĠcoÃ©qui piers
ĠMÃ©tro pole
M os
a un
c ott
Ġs ale
Ġs oyez
ar u
ra de
us Ã©
ĠÃ© cu
tÃ© b
ĠM oÃ¯
ĠP ok
ĠP ublic
Ġin j
ĠLa ura
nes ota
Ġam as
ess or
enf uit
ĠcaractÃ©ris Ã©
af t
Ġdistin cts
Ġsenti t
Ġaliment ation
Ġriv er
vid ence
lÃ¨ve ments
Ġhos pitalier
ĠÃ©chapp Ã©
Ġrele vant
Ġpropag ation
ĠBoy s
comp os
Ġlumin eux
Ġdiscrimin ation
Ġpatrou ille
Ġprosp Ã©ritÃ©
Ġflui de
ĠPerp ignan
B ains
W e
a tÃ©
b ac
f ia
r itÃ©s
Î ·
es clavage
Ġm un
Ġen lev
ĠS ap
Ġj oign
ag ression
ĠT rÃ©s
ĠT andis
ab at
Ġsa vant
Ġser vit
ob sc
Ġam or
Ġdev ance
Ġvis u
ah a
Ġvol ontiers
Ġsupp orte
Ġretra ce
Ġdirec tive
Ġi Phone
fait s
Ġfou et
ĠopÃ©ration nelle
Ġfid Ã©litÃ©
ĠAdam s
Ġordin ateurs
ĠÃ©loi gnÃ©
Ġbrill ante
xi Ã©tÃ©
Ġvigil ance
altern ance
Ã© lan
Ġn a
Ġb aign
ĠG oth
ons o
ĠdÃ©c oup
Ġti ck
uss ards
Ġmen u
ĠÃ©t roit
Ġsimp licitÃ©
Ġeng agÃ©es
Ġtex tile
ĠrÃ©un issant
Ġban quier
ĠPhili p
Ġbout on
ĠÃ©limin Ã©e
Ġlyc Ã©es
appro bation
Ex p
ĠvÃ©gÃ©t aux
Ġinsc rivant
Ġpair s
Ġasi atique
ĠCheval ier
j ord
l um
an alys
in cident
Ġb ous
si Ã¨res
Ġg y
ille m
ĠN elson
op Ã©e
Ġmar ti
opp ort
Ġsorti ra
Ġst opp
Ġbar be
Ġdiri gÃ©s
Ġatt ente
Ã« t
ĠprÃ©cÃ©d Ã©
Ġcomment Ã©
Ġquoti diens
ĠGro tte
Ġappli quer
Ġgratu ite
ĠÃ©pous a
Ġherb es
ĠZel da
ĠfunÃ©ra ire
Ġhal te
ĠBard ot
ĠprÃ©cau tion
Bern ard
ĠÃ©pidÃ© mi
P A
U T
g art
l ui
te d
Ġb ains
ĠB ush
eu il
ĠD own
ĠH ome
Ġtou chÃ©s
ĠK in
ĠK or
Ġentre tient
ate au
ĠrÃ©s istants
Ġloc alisation
Ġrel ate
Ġgra ins
Ġsub mer
Ġatt entes
ĠMich u
Ġorigin aux
ĠAd olf
ĠrÃ©sid ent
Ġhistorique ment
Ġlun ettes
Ġcrimin els
math bf
ĠDer riÃ¨re
ĠRT L
Ġdan oise
ĠchrÃ©tien nes
Ġaigu Ã«
ĠbÃ©g u
ĠRid ge
D Ã©
d ite
z ia
Ġl ond
an us
er d
ar ab
om inal
ĠÃ© chÃ©
ol in
ĠA re
Ġch ats
ĠF L
ĠF R
ĠF ren
ill is
ĠDe f
acc umul
land o
inc er
Ġproc Ã¨de
Ġbat tus
Ġsoi gn
Ġ184 3
ĠsÃ©par Ã©es
Ġ180 7
Ġrur ales
ĠAlbert o
Ġsignific atif
Ġcrimin el
ĠlÃ¢ che
ĠlÃ©gend es
ĠHi pp
Ġaveug le
ĠNÃ©er landais
I mp
p irant
Ã© ans
te ch
Ġb uste
ĠdÃ© ter
ol ore
ci ers
Ġse mbler
Ġk ur
anc ourt
Ġexp lications
ili pp
ĠChar le
Al ger
ĠdÃ©pl ore
Ġfi bre
Ġexpri mer
ĠCa o
Ġvar ient
effec tue
Ġchauss ures
Ġinterro gÃ©
Ġtranspar ence
ĠSoc orro
Emp ereur
Ã³d Åº
l ux
ar en
us k
ĠdÃ© vi
ĠS E
Ġh ur
ac ture
ĠG ode
ĠG rant
ĠH orn
Ġtra duire
Ġfor cer
Ġ18 21
En vi
all a
Ġnation alistes
Ġrom ane
ĠSh ar
Ġinv olont
Ġpoi gnÃ©e
Ġpartis an
ĠdÃ©mar re
Ġpan or
Ġral enti
Ġvar ier
ĠArn old
App le
ĠcÃ¢ ble
P E
S ource
a Ã©ro
s ung
Ġf lÃ©
el lan
est a
au er
ĠP ris
Ġse gment
ĠA ction
vi Ã¨ve
Ġar cs
itu des
ĠY u
ĠrÃ©alis te
ĠprÃ©c ises
Ġpor tÃ©s
Ġmod estes
Ġven geance
esp ierre
Ġvari ation
ĠPri me
ĠdÃ©mocra tes
Ġautoris Ã©e
Ġconseill Ã¨re
Az ur
Ġsti p
Ġexam ens
ĠMik haÃ¯
Ġmaroc ain
ĠCru z
ĠprÃ©limin aire
espi onnage
W h
Î º
Ã© o
Ġc oton
qu ateur
ĠM pc
ĠA N
ĠD Ã¼
Ġpro cession
ĠR aw
ouv elle
ĠdÃ©c ap
th a
Ġperm ission
Ġinc arc
adi a
gu Ã©e
Ġreven dique
ouss es
Ġfus ill
ĠVer dun
ĠdÃ©cis ives
Ġglob e
Ġpropor tions
Ġfabri quÃ©s
ody myr
Ġchirurg ien
Ġconvi ction
ĠmystÃ©ri euse
ĠÅģ Ã³dÅº
Ġintern autes
ĠHain aut
T ra
in eux
il Ã©s
el Ã©e
ĠP lant
Ġpl ates
Ġpl aign
ĠN ak
Ġtou l
Ġcar rÃ©e
Ġti rÃ©s
omm Ã©s
app orter
Ġent rain
ĠprÃ©sent a
Ġri ant
Ġconstitu Ã©s
ĠMe dia
ÃŃ s
Ġexer cÃ©
oÃ¯ des
ĠfrÃ©qu entes
ĠMay ence
Ġvacc ins
Ġacqu it
Ġanne au
ĠprÃª ter
ĠcomplÃ© tÃ©
aus ire
ĠjÃ©s uites
expri me
ĠSpor ting
ĠRous seau
N ote
Ġd ors
en tis
Ġc reux
qu alif
ĠÃ© phÃ©m
Ġb oxe
ĠB est
ĠB Ã©r
Ġin vers
ĠR ick
ĠF le
ĠN ex
op ro
Ġtou chÃ©es
ill ait
Ġhab ile
oris Ã©
ĠMich igan
Ġvois inage
ĠRobert o
Ġfi able
haus en
Ġinten tions
ĠAndre a
ĠespÃ© rer
ĠMoul in
ĠActu ellement
Ġberce au
tot alitÃ©
ĠBoliv ie
A fin
S ainte
i di
Ġm ousse
Ġb Ãª
Ġin ta
tu euse
ĠF eu
ĠN an
ic itÃ©
ette urs
Ġapp ui
Ġser ai
ĠmÃ© dit
cip ation
En fant
Ġtrav Ã©e
ari us
ann ulation
ow ell
aud it
Ġprom esses
ĠÃ©quipe ment
ĠdÃ©clar Ã©e
Ġcombat tant
Ġsuffis ant
ĠCont re
Ġferrovi aires
Ġannon Ã§ant
Ġisol Ã©e
ĠquÃ©bÃ©c oise
Avi gnon
ĠVanc ouver
O tan
p os
p ot
à ¦
in os
in ondation
Ġm g
ra ctions
ĠL ens
ĠS ex
li en
ĠR al
am ende
ĠmÃ© lo
alis ations
Ġtour istiques
cher che
ĠcrÃ© a
Ġcer cles
Ġper tin
Ġaut onomes
Ġmont ait
Ġhab itÃ©
ĠAr my
Ġfa unis
Ġmis sionnaires
Ġdisp utent
Ġref lÃ¨te
ĠCo ok
osph Ã¨re
ĠCamp bell
Ġrecommand ation
Ġmultip lication
Gr Ã¢ce
Ġ Ë
us a
ĠL ine
Ġb ib
um s
ĠU rs
ĠMar ti
ĠÃ©p idÃ©mie
Ġfer ont
ĠspÃ©ci alisÃ©es
Ġcompos ant
be y
ĠOr chestre
oise aux
Ġlog istique
ancienne ment
Ð¸ Ð½
ram mes
ĠLin k
Ġhi pp
ĠrÃ©pand u
Ġpin yin
Ġfile t
Ġendomm agÃ©
prÃ©sid ente
Ġchag rin
advers aire
O xford
c entre
v us
Ġ osse
an Ã§ant
at tra
ĠB enn
Ġan ge
ĠprÃ© ju
Ġsu g
op ath
Ġcomp are
ĠK ol
Ġ18 26
Ġpe indre
Ġor chest
Ġco hÃ©r
Ġni Ã¨ce
Ġpi Ã¨ge
Ġoc Ã©ans
fi Ã©s
Ġposs essions
ĠLouis iane
ĠTe ch
Ġdeme urent
Ġremont ant
ĠTar n
Ġmit raille
ĠMath ilde
Ġamen er
ĠAf ro
ĠLui gi
ĠÃ©dit ori
ĠArch ives
vad or
Ġgentil homme
P al
Ġl oup
en vie
ti ser
in ale
te mberg
Ġt umul
ĠP ix
ĠP anth
ĠrÃ© agit
ĠR angers
ĠG asc
ĠMar che
Ġpoin g
gn ation
ĠRe v
Ġloc aliser
Ġappel ant
Ġporte urs
Ġprob lÃ©matique
oth er
ĠprÃ©f ect
Ġconcer nÃ©
ĠAug ustin
Ġcoord onnÃ©es
ĠamÃ©n agÃ©
ĠhÃ©ri tiers
Ġtropic ales
Ġmerc ato
Ġhomosex uels
Ġrub rique
Ġsurn ommÃ©e
ĠDÃ©s ormais
ĠingrÃ©di ents
r or
r ence
} {
Ġ ours
Ġs chiz
ĠC IA
Ġb alis
ĠM ys
ĠG aller
Ġex ister
ap erce
all ait
Ġ5 50
Ãī quipe
ĠrÃ©p Ã©ta
ĠrÃ©alis ateurs
Ġrest ants
Ġsuiv ait
ann on
Ġop inion
ĠThe atre
Ġbord Ã©e
aj outent
ĠAng ers
Ġrefus ant
Ġexist antes
Ġfrapp es
ĠLor enzo
ĠbrÃ» lÃ©
ĠtÃ©lÃ©ph ones
Ġdivin itÃ©
ĠrÃ©cup Ã©ration
Ġott om
ĠSah ara
ĠManh attan
Ġp anc
an Ã©
Ġn id
ri mÃ©
Ġg uise
di x
ĠG ay
ĠJ as
mb la
av Ã¨nement
ĠO mar
ĠK il
ing o
ĠcrÃ© di
Ġexp ress
Ġdou bles
Ġ0 1
Ġ0 6
Ġconser vant
ox yd
Ġbi ologiques
Ġfac to
erre ur
Ġqualif ient
Ã¼ h
ĠIs aac
Ġgaz on
Ġgl yc
Ġrenfor cÃ©
Ġfranch it
ĠRol ling
Ġbul gare
olÃ© rance
ĠFern and
ĠBat man
Me mbre
ĠBrook lyn
ĠpÃ©ti tion
Ãīlys Ã©e
INE AR
Ġatmosph Ã©rique
Ġtrag Ã©die
ĠShang hai
homosex ualitÃ©
en chon
in aires
Ġm ord
ri rent
ĠL er
ĠB rou
ĠI v
op ol
erm ann
lis sement
ĠMar in
Ġren dement
Ġrep orter
acc ou
Ġrom ains
Ġroy ales
Ġdess ine
ĠSp ider
Ġajou tÃ©e
ĠDom in
ĠcontrÃ´ lÃ©
ĠMat ch
ĠdÃ©l ais
Ġbru te
Ġtue ur
Ġcompens er
Ġlimitroph e
B lanc
E ss
f ient
m ati
y les
Ã Ī
Ġles b
ĠC auc
ch ange
Ġh ip
ĠR amb
Ġex acte
op es
Ġfor mid
uti lise
ĠAr senal
Ġinc l
Ġpri Ã¨res
ĠZ ag
Ġchar ts
Ġpi onnier
ĠCar ter
Ar g
Ġess ence
ĠdÃ©si re
Ġreven ait
ĠbÃ©nÃ© dic
Ġimm obile
ĠMo ore
ĠVol odymyr
Ġcous ine
Ġfondament al
ĠGri ff
Ġfur ieux
ĠpÃ©riph Ã©rie
ĠViv a
Che z
Br uxelles
ĠcloÃ® tre
p al
u lique
Ġ _
on age
er ve
Ġm ondes
ĠM A
at y
ĠrÃ© utilis
ac ces
ĠF air
Ġar ros
ĠmÃ© ch
Ġrec teur
ĠÃ©v aluer
Ġmont ra
Ġmus cles
vel t
ĠdÃ©velopp ant
Ġpres by
amb iance
Ġsig le
eff ici
Ġtri angle
ĠBer ry
oun t
Ġcomment aire
ĠdÃ©cid Ã©e
aci onal
Ġnor mand
Ġexist ants
ĠMay enne
Ġdiss oute
ĠCat al
Ġfondament aux
ĠprotÃ© ine
Ara gon
Ġattent at
Ġ> >
ĠopÃ© rÃ©
Ġcatal an
Ġhonn Ãªte
Ã©tudi ants
ĠBroad way
dl r
A bb
d ay
ans k
Ġpar alys
at ric
ĠA ustin
ĠR w
ĠJ osh
pe urs
ĠN oirs
Ġal ter
ĠO ise
Ã©g ide
Ġsou tiens
ver n
Ġper cÃ©e
Ġhab itude
mis tice
ĠTh ur
Ġvic aire
Ġsupp osÃ©
Ġcad avre
Ġreconn ait
inf ection
ano ine
Ġmarqu ants
}} \
ĠMor rison
ĠrÃ©guli Ã¨res
Ġtransf Ã©rÃ©e
ĠMin nesota
we alth
Ġcyc les
ĠVan nes
wit ch
Ġgrav ures
ĠRh Ã©n
Ġconfond re
Ġhame aux
Ġfournisse ur
Ġcompta bil
Ġarrond issements
ĠChac un
P ont
R i
a cide
v on
Ġd am
ĠÃ ĸ
Ġt witter
ĠdÃ© tÃ©ri
ĠM Ã¨re
Ġj oli
ĠB ed
ĠR usse
ĠN il
Ġcons istant
Ġ18 24
Ġann ulÃ©e
ind er
Ġpor teur
Ġrom aines
ĠMont b
Ġsyn chron
Ġ179 6
oti ves
199 9
ĠinfÃ©ri eures
Ġjaponais es
Ġdiss ous
ĠprocÃ©d Ã©s
Ġaltern atives
histor ique
ĠEv ans
ĠÃ©pr ouv
ĠminÃ©ra ux
accus ation
Ġharm onie
ĠMÃ©l enchon
E sta
L iste
c tif
j ourn
Ġp unk
Ġv alide
ĠdÃ© pe
ĠS pi
li es
ous in
ĠT ong
ĠprÃ© ven
ĠIl linois
ad uc
ins crire
ate l
Ġimp orte
Ġ10 9
Ġmat uritÃ©
ĠrÃ©s umÃ©
ĠspÃ©ci fic
Ġbr uits
Ġ24 0
ĠOr ne
Ġ179 8
Ġbal let
Ġconsomm er
Ġcontribu ent
Ø§ Ø
Ġenseigne ments
Gar ros
Ġracc our
Ġprud ence
Ġiran ien
Ġvign oble
ĠtÃ©n Ã¨bres
ĠLN H
C R
I X
r h
z es
Ġs ien
Ġs iens
Ġv ides
ĠP og
li an
ĠA V
ĠrÃ© si
ĠrÃ© organisation
ac a
ĠF ur
onn ante
Ġtou ch
ĠO per
Ã©r in
Ġju gÃ©s
Ġti mi
Ġsou lev
app ort
Ġconf Ã©d
od on
Ġmont a
aise meaux
Ġreconn aissent
gue z
Ġtourn a
Ġviol entes
Ġfix Ã©s
ĠMc G
ĠÃ©vo quer
Ġorgan e
Ġattend ue
Ġtran qu
Ġentend it
Ġprotest ant
Ġclo ches
Ġbulle tin
ĠRest auration
Ġbles se
heb domadaire
A mer
N GC
s al
t d
Ġ è
Ã© ge
Ã© puis
ou ard
er c
Ġn uis
ro pole
oc a
ins c
Ġcont ente
Ġcar ic
amp h
Ġme eting
Ġma Ã§onn
Ġimp osÃ©e
Ġco qu
Ġ11 5
Ġven ues
Ġfl oristique
Ġloin tain
ĠSec rÃ©
ĠfÃ©dÃ©ra les
Ġocc itan
ail y
ĠWh o
Ġhabitu el
Ġparis iens
ĠPortug ais
rimer ie
Ġforc Ã©e
quier t
Ġaffron tements
Ġglac es
ynam ique
ĠlatÃ©ra les
Ġenseig nÃ©
O MS
g ger
s aison
Ġs ourd
Ġc Ã©dÃ©
ĠP ors
ĠB res
ĠB ass
ĠB out
ouv rages
ĠG ers
ĠG are
Ġpas sions
Ã¢ tres
Ã¢ tel
ĠW y
ĠW el
oin ette
lis Ã©e
Ã©c oule
Ġrep rÃ©s
Ġpoli ti
Ġth r
ĠAr ist
rib ourg
Ġrel ancer
ĠâĢ ²
ĠMe dic
Ġcomment e
ĠMc Donald
Ġoccup ait
199 5
Qu ant
ĠcÃ©lÃ©b rÃ©
appr Ãªte
ĠdÃ©riv Ã©s
sis micitÃ©
ordin ateur
Ġaus tro
ĠUkrain iens
o di
Ġs cep
Ġs ocle
ĠT cher
ĠJ azz
ĠN arb
ĠCh ann
ĠO tt
Ã©ra le
Ġcol le
la ment
Ã©l oign
Ġexc Ã¨s
ĠVal ley
ony mie
Ġcrois iÃ¨re
ĠAb b
hÃ© ran
Ġcommerci alisation
ĠNouv el
termin ation
Ġconten ait
ĠÃ©cl aire
Ġtran ches
ĠQuel que
Ġenvironnement ale
Ġtax es
ĠUnivers al
ĠboÃ® tes
ĠGh ana
Ġsurmont Ã©
ĠDre am
ĠItal iens
implant ation
an aise
ent housi
le ft
it ure
Ġf ret
ra te
ĠdÃ© ci
Ġg as
Ġch Ã´me
Ġin tÃ©rieures
ab ulaire
ist ori
Ġon ziÃ¨me
Ġconf ection
ĠrÃ©alis ent
Ġinf lig
ore t
ĠChar tres
ĠPe ti
occ er
Ġessenti els
Ġ180 5
Ġbre v
ĠStu art
Ġrecru ter
AT P
hyd ro
Ġphilosoph ique
affront er
ycl op
Ġfaunis tique
I ss
v ins
Ä ħ
on iens
Ġa ilier
ĠC az
Ġg lu
Ġg rÃ©gor
ĠM Ã©ri
ĠM ond
ĠP oz
ĠP aix
ĠP otter
ĠB D
ĠR ig
ĠR este
ĠT ennessee
ĠprÃ© voir
Ġra ces
Ġtou chant
og l
ay es
Ġmar ines
ĠdÃ©c rÃ©
id on
Ġoff ensif
Ġappel ait
Ġ0 4
Ġple urer
Ġvari Ã©es
Ġprog resser
ĠnÃ©g ative
Ġpasser a
ty pe
199 8
Ġsignal er
ÅĤ aw
ĠGro ss
Az erbaÃ¯djan
ĠprÃ©voy ait
Ġais Ã©ment
t rop
w iller
Ġd orÃ©
Ġd oses
ĠS M
ĠS ound
ĠP oul
Ġpl astiques
ĠB it
di mbourg
ĠE ls
Ġo deur
ĠF itz
ĠJ ason
ĠN ow
Ġmar athon
Ġmon g
Ġinter f
em a
ĠAn nie
Ġro chers
Åĵ ux
Ġca deau
Ġgroupe ment
Ġvis itÃ©
ĠRe in
ĠCor ne
Ġsour it
Ġvict or
ĠComm erce
ĠGal ax
Ġ180 8
Ġpoi vre
ĠÃ©volu tions
Ġautoris ation
ĠÃ©lÃ©ment aire
ĠPan ama
tim ore
Ġsoix antaine
OT AN
ĠCÃ© cile
ĠreprÃ©s ailles
g roupe
Ġd ort
Ġd urent
an isation
in trigue
Ġt aure
Ġn us
tu es
ĠV ari
Ġtou relle
Ġcomp ortait
Ġar range
Le ur
ĠK id
Ġ18 29
for mÃ©e
Ġmod Ã©rÃ©
ĠdÃ©m olition
ĠBr istol
ĠgÃ© rÃ©e
ĠGra ce
Ġmention nÃ©e
Ġ180 3
ĠÃ©tabli es
Ġindividu els
ĠMat the
Ġrecue illir
ĠsÃ©qu ences
Ġconduis ant
ĠGaz a
Ġobsta cles
Ġfrau de
ĠCommon wealth
Ġlocom otives
B ri
U P
j in
o ven
Ã© checs
ar itÃ©s
Ġm iti
as is
ĠN A
Ġra vi
Ã´ tres
Ġ18 25
Ġmin eure
Ġren forts
Ġjou a
Ġtrans formations
Ġvers er
omp son
amb a
Ġind o
nÃ©s ie
Ġ179 9
Ġentrepr eneur
gon f
ĠmÃ©t all
Ġressour ce
Ġprivil Ã¨ge
ĠdÃ©clen che
Ġvoud rais
Î¿ ÏĤ
ĠAvi gnon
ĠCanadi ens
Ġfournisse urs
ĠKenne dy
ĠTrÃ©s or
Ġn ue
ĠL al
as tres
ĠC af
Ġre mix
ĠB ess
op ota
onne z
ble au
anc Ã©s
ĠAl tesse
ĠY our
Ġas pi
lie z
Ġgra m
oris Ã©s
gue ur
ades h
Ġcit Ã©e
cl use
ĠBern ad
Ġinstitu t
Ġparall Ã¨les
Ġradic ale
ĠdiplÃ´ mÃ©e
Ġinvestis seurs
Ġastr onomique
AmÃ©ric ains
ĠHerm ann
aÃ¯s me
ĠSqu are
ĠthÃ©m atiques
ĠBeat les
ĠTomm y
ĠSyndic at
Ġschiz oph
H S
t ol
Î ¼
Ġp it
Ġf os
Ã¨ ze
us Ã©e
ri m
ans on
ie fs
Ġg h
Ġg rain
ĠA TP
Ġch antÃ©
Ġsur venues
ran ch
Ġh onneurs
ois in
ĠV oie
Ġman agement
Ġmari Ã©s
Ġpein te
Ġdra ft
ĠAb raham
Ġgard ant
Ġreli Ã©
Ġjui ves
ĠBrit annique
Ġsugg Ã¨rent
ĠVe gas
Ġconduis ent
Christ ophe
Ġcapture r
ĠsÃ»re tÃ©
Ġrebaptis Ã©
exper ts
Ġprotagon istes
ĠdÃ©missionn er
Ġrefroid issement
ĠMississi ppi
0 4
D ieu
o tiques
u ent
z iers
Ġd op
Ġc ock
ta lement
Ġb oss
de v
ĠP am
ĠF ore
ĠJ ardin
ĠN ah
Ġan ec
im Ã©
th y
Ġcontre r
Ġpri ori
ĠÃ©ch ou
anci ers
Ġviol onc
dÃ© partement
til l
ĠintÃ©g rÃ©s
Ġtest Ã©
Ġhom onyme
199 7
Ġcha os
ĠJuli an
ĠbrÃ» ler
Ġterritori al
ĠGir l
ĠmÃ©tal liques
ĠpÃ©riph Ã©rique
Ġfier tÃ©
ĠÄ Į
Ġnavig ateur
Ġnauf rage
H y
Ġs oph
re aux
is ti
om al
ĠL ise
ĠL Ã©n
ta tive
ĠP atrice
Ġar cades
ĠCh ois
Ġcou chÃ©
Ġcor rid
ĠdÃ©f auts
ĠAr te
Ġdou ces
Ġdou ziÃ¨me
ĠspÃ©ci mens
ĠMe di
ĠmÃ©da illÃ©e
Ġcircul er
ĠVer di
ĠAss oci
ĠintÃ©ress antes
ĠAth os
ĠLÃ©on ard
arb itre
Ġjustif ie
jon ction
Ġmerc enaires
Ġmultipli ent
ĠRach el
Ġbor nes
Ġdesqu elles
Ġclin iques
Ã©cos l
Ġrabb in
gonf lement
M Ãªme
p ing
Ġ urgence
Ġp ent
ie c
Ġb ob
ĠdÃ© tresse
Ġcon quÃ©rir
ĠB eng
Ġin formÃ©
ĠF Ãªte
ĠG arc
ct ori
ex tinction
Ġat tÃ©n
Ġinter cep
Ġpol ym
Ġconf luent
omp tion
ĠlÃ©g Ã¨res
Ġpor c
Ġgr ise
Ġcompos antes
ĠJac queline
ĠbÃ¢ti e
ĠrÃ©v Ã¨lent
Ã©ch anti
ha w
Ġbata illons
Ġdra matur
ĠAb ou
Ġconserv atoire
atta che
Ð° ÑĢ
Ġreb ond
ĠdÃ©pend ent
ĠMet al
Ġcroy ance
AD N
Ġgre ff
Ġhonor if
ĠhÃ©b erge
ĠmolÃ©cu le
ĠSum mer
ĠClassi c
ĠvÃ©l os
Ġgigantes que
Ġclar tÃ©
Ġbyzan tin
ĠGasc ogne
0 6
A dam
L ong
s tein
ĠS is
ĠM end
ĠP ath
Ġpl atine
Ġch Ã¨vre
ĠD anny
ĠT ant
ĠT own
ĠG am
mb o
Ġapp ortent
rou nd
asse oir
Ġtrans vers
Ġper Ã§u
Ġcour b
ĠrÃ©c urrent
Ġvoy ons
Ġconser vent
Ch ris
ĠnÃ©cess itant
Ġdispar us
ĠdÃ©ta illÃ©
yrÃ© nÃ©
Ġmenac Ã©e
hom a
Ġmoul ins
Ġdiale cte
ĠhÃ©rÃ© d
Y ork
h n
i os
en sions
Ġb rique
Ġcom itÃ©s
ĠF ribourg
ĠprÃ© pond
Ġ18 11
ĠW right
Ġcontre b
Ġaff ection
Ġcul tes
Ġliv rÃ©e
aur us
Ġpa quet
ĠSte wart
Ġferm Ã©es
Ġfourn issent
ĠsÃ©par ent
ĠJus te
Ġrece vant
ĠRÃ© forme
Ġreli Ã©e
Ġtoit ure
Ġvoc abulaire
ĠPic tures
Ġfoss Ã©
vey ron
attend ait
bor ough
Ġpoign ard
ĠjÃ©s uite
ĠUE FA
0 9
A ig
O range
f u
n or
z io
Ñ ĭ
Ġl in
ou jours
in titu
Ġf es
ĠS che
ĠM ata
ab re
ĠO range
Ġam er
Ġam ants
emp his
ets k
Ġple ins
ĠVal liÃ¨re
Ġanim ale
Ġmur aille
oÃ¯ s
Ġhom ologue
ĠstratÃ©g ies
ĠAra bes
exc lusion
ĠCÃ´ tÃ©
ĠdÃ©bar rasser
Ġhonor aire
Off ice
Ġadh Ã¨re
carb ures
ĠLangue doc
Ġfos sile
: --
S Ã©bastien
a ques
b ons
g ang
h Ã©roÃ¯
on Ã§a
ti o
it rice
ur ances
Ġv us
au tiques
ai a
Ġh ard
ĠF ame
ĠH ern
Ã´ nes
ĠdÃ©c rivant
Ã©m on
la homa
Ġad ressÃ©
Ġbas cul
ĠdÃ©f enses
ame di
Ġrencont rÃ©s
Ġfl ash
Ġbl og
Ġtransf erts
Ġfix es
Ġgrec ques
ĠopÃ©ration nel
ĠAir lines
Is le
ĠMat th
Ġgagn ent
Ġpseud o
ĠinÃ©g alitÃ©s
E sc
R om
S eu
r ing
Ã Ĥ
Ø ©
en ger
Ġn dlr
ĠL ock
ĠA ve
ĠR ai
ĠT av
Ġson ores
ul li
alis ent
Ġfran chi
Ġjus tesse
are z
Ġemp ÃªchÃ©
ĠTh or
oph y
ĠDi ff
ĠRob espierre
ĠnÃ©g ociation
Ġpatri moni
Ġexpli quent
Ġvend ues
Ġremont Ã©e
Ġentour ant
Ġcrit Ã¨re
Ġjur is
ĠVoy age
Ġromp re
ĠÃ©gyp tienne
Ġconnais sez
Ġattest Ã©e
Ã©rindi ens
ĠDres de
H or
Ġc aisses
in ti
Ġla ine
Ġen cl
ĠL yc
res sement
ĠI ris
ue use
Ġcont estation
Ġte int
id ou
rou th
Ġti mbre
Ġsec s
Ġper c
Ġremp orta
Ġvi aduc
Ġmeur ent
ĠMus ique
ĠEx position
ĠMer ci
Ġve iller
ĠdÃ©termin Ã©e
Ġcivi que
Ġacqu Ã©rir
accomp agn
Ġly rique
ĠDam on
Ġfres que
Ġmill Ã©naire
ĠStal ine
ĠVoi ce
ĠMoÃ¯ se
H erb
Ġ ond
Ġa dep
ar ie
om et
Ġt Ã©tra
ch inois
ĠF ils
ab el
ĠG end
ĠprÃ© vision
ĠV Ã©r
Ġex trÃ©mitÃ©
Ġar om
Ġcol oss
ĠÃ©v aluation
Ġsc ri
form itÃ©
An dre
ori um
Ġbl ason
ĠRob inson
Ġlanc Ã©s
Ġi mb
Ġmas ques
Ġsucces seurs
Ġsav ants
Ġprogressi f
ĠdÃ©truit es
Ġplant ations
Ġchronique ur
ĠWat ch
ĠCond Ã©
Ġfores tiÃ¨re
ĠKos ovo
ĠrÃ©mun Ã©ration
Ġparach u
fri ed
ĠMitch ell
ĠMagdal ena
T rÃ¨s
V ID
v as
Ġl enti
ĠS ti
ĠM ob
ĠrÃ© veill
Ġsur sis
ĠD aily
ous er
ĠR ER
ĠH az
ub ert
ĠLa h
ĠdÃ©c ou
ĠFran cs
lu vi
ert on
ĠDe ad
Ġman quent
Ġman quait
ud son
Ġvi rage
ĠAr m
Ġmod alitÃ©s
Ġrel ay
aff ich
Ġcro yant
ĠMal icorne
Ġbal ay
ĠrÃ©par ations
ĠmÃ©da illÃ©
ĠdÃ©sig nÃ©s
ĠMc L
Ġorient ation
ĠChe f
ĠBal timore
ĠBas ket
ĠLor ient
ĠBour se
Ġinqui Ã©tude
Ġassi Ã©g
ĠÃ©chapp e
EN T
Ġbris er
Ġglis ser
ĠPC F
Ġblo quÃ©
stan bul
ĠPiet ro
Brun swick
ĠValen ciennes
ĠgÃ©noci de
c f
g ents
r iste
is a
or c
Ġle vant
ra di
ant a
ro po
âĢ ľ
Ġse g
Ġch anoine
ĠB ras
ĠprÃ© vient
onn iÃ¨res
ĠH ors
ĠH Ã´tel
ĠV u
Ġra tion
ĠLa mp
ĠCh ild
Ġmil ice
Ġren ouveau
Ġad olescent
Ġab att
Ġmont rait
ĠY uan
Ġmal Ã©
Ġind Ã©si
Ġ0 8
ĠMont agne
ĠdÃ©pl a
less is
Ġdirec teurs
Ġlut tes
ĠSam sung
Ġrece v
Ġsav ais
Ðµ ÑĢ
Ðµ Ð½
ĠcoÃ» tÃ©
pro f
Ġcommen Ã§ant
Ġchaud s
Ġinterromp u
ĠCamer on
Ġvertic ale
ĠKen ya
Ġtril ogie
en rich
an aly
Ġc age
Ġa char
it ta
Ġm aux
Ġf as
al g
Ġpour rez
ĠB Ã©nin
ĠJ ur
ĠN as
ct orat
imp Ã©ratrice
oin g
Ġinter pr
ros pec
oph age
ĠsupÃ©ri oritÃ©
Ġbal con
Ġcommerci alisÃ©
Ġprote cteur
ĠGi org
Ġfranc isc
Ġhos tile
Ġstri ct
Ġjur iste
ĠPers onne
Ġtox iques
Ġtranquille ment
ĠRhÃ©n anie
L C
N ouvelle
b urn
Ġc Åĵurs
Ġm ers
Ġt rot
ri ble
ĠS ens
Ġg Ã¨nes
Ġdans euse
at ou
ĠP ac
ĠB ris
Ġra don
Ġtra itant
ĠdÃ©c line
ĠPar me
Ġph ares
Ġins pecteur
Ġmal aise
ĠlÃ©g ion
Ġcompos ante
Au tre
Ġtu ant
Al ain
Ġlim itÃ©es
ĠbÃ¢ti r
Ã©ti e
Ġdiffus Ã©es
Ġmarqu ent
Ġorient Ã©e
ĠopÃ©ra teur
Ġsoulig nant
Ġsav ons
ĠÃ©volu ent
Ġpous sent
Ġpod cast
Ã©velopp ement
N on
i al
Ġp aille
Ġc rypt
Ġla iti
Ġm etteur
al phab
ĠÃ© ton
Ġsur vient
ĠD ru
ouv rit
ĠF rom
ul u
Ġpr ouvÃ©
tr ans
ĠO f
ing Ã©ni
st one
Ġren v
ĠJe w
ĠgÃ©nÃ© rer
Ġman uel
Ġvi etnam
Ġcli chÃ©s
Ġret ran
ĠNe ar
ali ment
Ġporte feuille
Ġcad ette
Ġess or
ĠdÃ©clar ent
Ġdisc ret
Ġcircul ent
ĠinterprÃ© ter
ĠPol onais
Ġaction naires
Ġdiver tissement
offici ers
Ġram Ã¨ne
ĠKur t
ĠultÃ©rieure ment
Ġraisonn able
B L
U M
v at
Î ¯
en eurs
Ġp iv
Ġc ut
re e
Ġm Ã©rit
us cule
Ġre desc
ĠB ack
ers en
ĠE ff
Ġh Ã©ritÃ©
ous t
ac tiv
urs us
Ġav ais
onn aire
Ġses sions
ĠdÃ©c l
ex agone
Ġor nement
Ġmin iÃ¨re
ĠAn at
la f
Ġent raine
ĠrÃ©p arer
Ġvis iblement
ĠNe y
Ġfl Ã»te
Ġsub issent
Ġlit h
Ġall Ã©es
Ġsign alisation
ĠdÃ©g age
ĠGar y
atis Ã©
ĠLand es
Ġfusion nÃ©
Ġprivil Ã¨ges
Ġforc Ã©s
ĠDum ouriez
ĠLet tres
Ġpharm ace
Ġmexic ain
ĠProvin ce
ĠHerb ert
Ġtwe et
Ġconfr Ã¨res
C T
R ich
Ġp ais
ar ent
Ġn oix
al ia
ri o
ĠS O
ĠS tri
si ca
Ġpl aide
Ġin tes
Ġin tÃ©rieurs
Ġson ner
ad or
ĠW ang
Ġsec our
ret our
Ġbar que
ĠbÃ¢ tis
ed s
inf o
ĠCom tÃ©
cad ie
ĠMac k
ĠnÃ©g atifs
hÃ© on
ĠMarc us
Ġve ine
ĠMur ray
Ġserv iteur
ĠCrÃ© dit
ĠfraÃ® che
ĠfraÃ® cheur
Ġflamb oy
Ġcertif iÃ©
ĠTrin itÃ©
ĠÃīg lises
rah im
Lou ise
Ġlucra tif
ĠCauc ase
I b
L S
R T
U l
in se
el berg
ro gÃ©
ĠC Åĵur
ĠS po
Ġcon j
ĠrÃ© ci
ab lanc
Ġex ten
Ġconn ut
Ġca ta
Ġfam ine
Ġni che
lan tiques
Ġcul p
atri x
Ġtravers ent
ĠRob erts
ĠComm une
Ġru meur
AR D
Ġamp leur
Ġcens Ã©
Ġcommiss ariat
ĠconsÃ©cu tifs
ĠpÃ©r il
Ġastr onomes
Ġtardi ve
Ġrenvers Ã©
Anti quitÃ©
Vic tor
Ġcofond ateur
ĠPÃ¢ ques
ĠDall as
d le
m ois
z in
on Ã©si
Ġa y
ent on
ĠdÃ© char
Ġg ab
ĠM otte
ĠP le
ĠA mÃ©lie
ĠB j
ĠB aptiste
Ġra tif
og ul
Ã©r ons
ĠU ruguay
ĠW u
amp e
ĠJe unes
Ġad jac
ĠDe ath
emp ris
Ġper p
ose velt
ind res
gn ac
Ġgra veur
ĠreÃ§ us
enf uir
Ġanim ation
Ġami ral
Ġiniti Ã©
Ġgal op
Ġessenti elles
ĠÎ ¼
Ġpouss ant
Ġpoly val
ĠmaÃ®tr iser
ĠPÃ© rez
ĠinÃ©d its
ĠillÃ©g ale
jus qu
ĠHab sbourg
Ġgall ois
Ġasi atiques
Ġcoff re
Ġchang ent
Ġantis Ã©m
Ġlant erne
ĠSier ra
Ã©misph Ã¨re
) ;
c li
d ote
j ette
u ie
is hi
Ġt as
ra teurs
us z
ri ons
Ġre quÃªte
ĠP omÃ©ranie
ag erie
Ġsou tenant
Ġjou es
Ġutilis ait
mble don
Ġmat rice
Ġconstitu Ã©es
Ġty ran
Ġobserv Ã©s
Ġbois sons
Ġcyc listes
Ġsoulig ner
Si Ã¨ge
ban ais
Ġgraph iques
UE FA
Ġcommiss aires
Ara bie
ĠChamb Ã©ry
Ġabond ante
Ġphilosoph es
Ġexplic itement
inform atique
ĠabrÃ©vi ations
Ã©clai rage
C as
L ib
c ars
n t
s o
Ð ·
Ġd us
Ġla ss
il ienne
el ieu
ĠL ire
ne aux
Ġg Ã¨ne
Ġse rez
ĠD Ã©troit
ĠE ven
ĠR E
ĠV ide
Ġ18 18
Ġdis su
ĠÃ©c art
Ġrep ort
vis me
Ġconf luence
Ġdire ctions
Ġman Åĵuvres
Ġent ourage
Ġper cu
agn ac
Ġmilli er
Ġmis sionnaire
Ġmet tra
enc ad
ĠChar te
Ġlib rairie
Ġplan che
ys on
Ch ap
ĠmÃ©di ane
Ġtable tte
ĠHar rison
Ġus agers
ĠChe min
Ġattend ent
Ġmodi fie
Ġdiscip les
Ġregroup Ã©s
Ġral lie
Ġracont Ã©
Ã©mi tisme
ĠCy ril
ĠLis a
ĠFir st
Ġvec teur
" )
Ġs ets
ch at
Ġb orne
Ġg olf
ĠB angl
Ġh aies
ĠT ob
ĠG es
Ġcomp licitÃ©
ens uit
Ġ18 27
ang ile
Ã©n ique
ĠÃī p
Ã©c ologie
Ġtemp ore
Ġexp ressions
ĠrÃ©p Ã¨te
ton ie
mis tes
Ġag ression
ĠdÃ©velopp Ã©es
Ġouv rent
ĠBen ed
ĠÐ ľ
Ġval ent
Ġaffec tÃ©s
Ġferme ment
Ġenregistre ment
Ġrejet Ã©e
Ġimag inÃ©
ĠCÃ´ tes
Ġsalari Ã©
Ġflam ande
ĠrÃ©ta blissement
ĠWi mbledon
ĠBlanc s
ĠÃ©car tÃ©
ĠrÃ©gi mes
Ã©loi gner
Ġsymph onique
Conc ernant
F ond
Î ¬
Ġp Ã©p
ar ro
ol ini
ĠM old
ĠM emphis
Ġh ind
ĠÂ £
ĠR ow
ĠLe f
oc ations
Ġparti el
ĠO ur
ens en
ĠmÃ© trages
Ġ" ,
Ġren nais
Ġrep Ã©rÃ©
Ġroy aux
Ch er
Ġlongue ment
Ġsais ie
ĠSal vador
Ġphysi cien
ĠfÃ©dÃ©ra tions
ĠTra vail
ĠÃ©vo quent
Ġperdu es
ĠThÃ© odore
Ġperman entes
ĠÃ©m Ã©rite
ĠCer tes
ĠClar a
ĠrÃ©glement aire
Ġso dium
inqui Ã©tude
Ġquotidienne ment
ĠvÃª tement
ĠMoz art
ĠJuni or
Ġroum aine
ĠtÃ©lÃ©commun ications
p ers
Ġ é
Ġ it
Ġd ommage
Ġp aÃ¯
Ġg ib
ag isse
Ġh it
ac le
ĠR ush
Ġo x
ĠH ann
Ġtr Ãªve
Ġra me
tr ent
Ġpeu p
ĠK C
ĠW ork
Ġser ais
Ġser gent
ct us
Ġche ffe
Ġacc rue
lo o
ĠcÃ´ tiÃ¨re
Ġappar ente
ĠTh ompson
ĠSal omon
Ġconserv atrice
ĠhÃ´ tes
ĠEd gar
Ġtal ib
ĠindÃ©pend amment
ĠWal t
Ġinqui et
Ġaltern atif
Ġinconn us
Ġattribu Ã©es
Ġindic ateur
ĠRet our
Ġjal ousie
organ ise
ĠhÃ© breu
ĠCast ro
ĠlÃ©giti mitÃ©
Ġobsta cle
ĠØ§ÙĦ Ø
Ġira k
ĠAj outez
Ġsages se
Ġdiction naire
ĠFound ation
ĠChann el
enthousi asme
H ug
M ain
j ui
l au
l ature
r t
er ing
ĠC ard
ĠS erie
ag rand
ran ges
Ġh ale
ain issement
ac on
ĠR un
ĠN ash
Ġpr enez
ĠV erg
ad ou
ins k
Ġmar Ã©c
tr um
Ġma il
ĠÃ©v ite
Ġass istance
Ġvo le
Ġvi endra
Ġver tes
ĠPro ductions
ĠCom ics
Ġexpl orer
con f
Ġinform atiques
ĠintÃ©g rant
Ġrefus a
Ġdocument ation
ĠdÃ©g ager
ĠamÃ©li ore
Ġhor aires
ĠFrank lin
ĠcomÃ© dies
ĠmÃª lÃ©e
Ã©vÃ© nements
ĠdÃ©col lage
Ġfolk lor
Ġcontam ination
Ġchapite aux
V P
Ġd angers
Ġen levÃ©
al om
ĠM Ã©n
ens on
ĠW it
emp run
Ġdev oirs
lig ne
Ġfond atrice
ĠTh om
Ġpor table
Ġpor taient
Ġvillage ois
Ġobserv ation
Ġobserv Ã©es
ĠÃ©lect ricitÃ©
ĠHar vey
ĠintÃ©g ralement
Am our
Ġrestaur Ã©e
Ġint ensitÃ©
ĠOh io
rat oires
ĠÅ Į
ĠconsidÃ©ra bles
ĠWest ern
ĠÃ©lectr ons
ĠRÃ©g ime
ĠÃ©lector ales
ĠTrans ports
ĠGau le
math rm
Ġrelev Ã©s
Ġhong roise
ĠStÃ©ph anie
ĠRD A
Ġcamar ade
Ġsacri fice
ĠrÃ©cip ro
Ġbous cul
A cc
H i
Ġp aires
Ġc ure
Ġc rier
Ġv Åĵux
ont Ã©
Ġre part
Ġsur venu
am oto
che min
Ġ18 23
Ġcl avier
Ġju meaux
Ġrep Ãª
Ġco effici
Ġper ce
Ġ10 3
Ġsucc Ã¨dent
ĠdÃ©fin is
je an
ĠrÃ©un ies
ensi ves
ĠGi uli
Ġretrouv Ã©es
Ġlumi Ã¨res
Ġgro ttes
Ġinves tissement
Ġproven Ã§
Ã¡n dez
Ġprati quÃ©e
Ġbloc age
Ġtoit s
imm ense
Ġstri cte
Ġpira tes
ĠBoh Ãªme
ĠBata ille
ĠthÃ©m atique
Ġbouc lier
interro ge
ĠJen nifer
Oc Ã©an
Ġlob by
Ġcapsu le
Ġc is
ĠE y
ĠR ie
ĠG ot
ĠN og
ĠprÃ© occupation
Ġcl aires
ass ins
ĠMar the
Ġcour onnement
ind a
Ġcas cade
Ġplan cher
Ġsub ventions
Ġcr ues
inf ir
ĠBe ausire
ĠprÃ©f ace
ĠEl on
Ġban niÃ¨re
Ġaccep tÃ©e
Ġtransf Ã©rÃ©s
199 6
ĠSy mph
Ġpen al
ĠPrin cip
Ġcollabor ateur
ĠcomplÃ©ment aires
ĠprivilÃ©g iÃ©
Ġfre in
ĠvulnÃ©ra bles
Ġcrist al
Ġrestre int
Ġhydra ulique
osc ane
Ġnapp e
ĠSlov Ã©nie
accue illir
M euse
V oir
c um
k ie
â µ
Ġd orÃ©e
Ġl Ã©p
Ġp Ã©t
Ġs ion
ĠÃ Ĭ
om pl
Ġn it
Ġb ad
Ġcom ble
si m
onn erre
ĠH ig
ĠH assan
Ġmo tion
par ents
ĠPar aguay
Ġimp lantÃ©
Ġjou era
Ġver b
ĠNe v
ĠdÃ©s ar
Ġcro ss
Ġtu y
Ġcontinu ant
ĠÐ ļ
intÃ© rÃªts
Ġespagn oles
Ġbout ons
Ġorient Ã©
Ġsculp tÃ©
ĠCO P
Ġrent ra
Ġtoi lettes
Ġsor tait
ĠMary land
Ġperspec tives
ĠPa olo
Ġcub es
Ġcombus tion
Ġestiv ale
Ġpaci fique
ĠRw anda
ĠBangl adesh
E li
I G
M T
S au
f ra
l ag
p on
Ġ É
Ġl or
Ġc ursus
in vention
Ġun es
Ġau rez
Ġb ai
Ġg ame
ĠD og
Ġh ang
ĠG ue
ĠmÃ© g
Ġti ges
onc Ã©e
th el
ver a
ov re
Ġaff ect
enn etÃ©
Ġcomb inÃ©
Ar mÃ©nie
Ġref roi
af aud
Ġus Ã©es
intÃ© resser
ĠdÃ©cide urs
Ġrespec tifs
ji had
ĠpÃ¢ tes
Ġvra is
Ġpoly technique
Ġdesser te
Ġsugg Ã©rÃ©
ĠmÃ©ta bol
ĠcomÃ© diens
Ġbot aniste
Ġintellectu el
ĠCop a
ĠnorvÃ©g ienne
appuy er
ĠTÃ© hÃ©ran
ĠGaller y
C ent
L Ã©g
R em
r ues
Ġs ienne
et on
or ps
om ar
om iques
Ã¨ dre
ĠL ad
ag ua
Ġr Ã´
ĠT art
ĠH ale
ĠK ap
ĠW es
Ġser veur
Ġfin ira
Ġti mbres
man i
ĠY a
lie utenant
Ġgra du
Ġrou ler
Ġbou tiques
Au vergne
oth y
Ġhau tement
Ġvir tuelle
inv itation
arrÃª tÃ©
ĠBay onne
ĠidÃ© ale
ĠSerg io
ĠKaz akh
Ġdrag ons
ĠprÃ©cur seur
Ã©cosl ovaquie
A p
E ug
b in
Ġd og
an niversaire
Ġc Ã©p
is ants
te ure
Ã¨ des
ĠL ast
ce an
ĠR in
ĠF ron
ĠT GV
ul Ã©es
ĠG ris
um ule
av ortement
Ġno v
Ġro bes
Ġph ara
Ġcor romp
Ġcompr en
Ġpolitique ment
Ġconsid Ã©ration
Ġeffec tive
Ġchois issent
ĠMac Arthur
Ġsenti ers
ĠMartin ique
Ġnul s
ĠmÃ¢ ch
Ġconcer tation
Ġpan ier
Ġstand ards
Ġregroup Ã©es
ĠSol id
Ġchem ise
ĠchÃ¢ tel
ĠtÃ©moi gner
ĠEng ine
ĠLaw rence
ĠprÃ©occup ations
Ã¼l ler
Ġrembour sement
G illes
H E
P D
c ation
f onction
p remiÃ¨re
r um
Ì ģ
Ġp oul
Ġn ait
ĠC ec
ĠrÃ© affir
Ġpro d
ĠG uise
ĠN az
onn y
ĠV ul
ĠV ert
av res
ĠO m
ĠK re
ĠK ris
Ġ18 17
Ġmon arch
Ġor ale
ron yme
Ġexp er
Ġ10 2
ĠAr gent
Ġpouv ais
ali Ã¨res
Ġva che
Ġind onÃ©si
Ġsub vention
ith mes
ĠDi able
Ġtermin al
ĠAd olphe
ĠPer se
Ġreb elle
Ġaffec tÃ©es
Ġlic encie
Ġriches ses
Ġtoi lette
Ġdevi enne
Ġcirconst ance
Mari times
ĠFland res
ĠvÃ©gÃ©t ales
Ġrenvers er
ĠguÃ©r ison
ĠaperÃ§ ut
Sav oie
ĠSylv ain
ä º
en burg
Ġc amb
Ġa ustra
le g
om in
Ġun iques
ro irs
ĠC ay
tÃ© ch
Ġre table
ai gu
ĠP rop
ĠG et
ĠH old
ill ustra
Ġy ards
ate ment
ĠdÃ©b lo
Ġinc or
Ġdou ter
Ġliv rÃ©s
Ġw il
Ġtourn ent
ĠDi ables
exp ulsion
ĠdÃ©n ombre
Ġsuper fici
ĠFin istÃ¨re
Ġriv aux
ĠRÃ© seau
199 0
Qu atre
Ġtyp iques
ĠGro en
Ġrenouvel er
ĠDar manin
Ġtap isser
orp tion
Ġcontrain ts
Ġdistingu ent
Ġsauve garde
ĠthÃ©Ã¢ tres
Ġritu el
ĠJer ry
Ġassembl Ã©es
ĠTes la
akes pe
ĠmolÃ©c ulaire
ĠPors che
B ritannique
g ren
h ir
is olement
in ier
Ġf Ã©ro
ĠS ale
ĠB ret
ĠB io
ĠB ologne
Ġr ites
Ġan ges
ĠprÃ© val
ĠLe o
ĠV ingt
ill ie
ĠCh rys
Ġno tions
Ġser veurs
Ġdis per
ĠgÃ©nÃ© alog
endre di
ĠDe an
out ch
Ġprof itant
ĠZ ap
Ġcan ne
Ġz onage
Ġpublic itaires
uc ky
An ge
Ġ0 5
yn th
inc ar
ĠSt ars
Ġviol ation
Ġdra peaux
Ġaugment ent
Ġanglais es
Ġstru ct
ĠrÃ©par tie
Ġpil otage
ĠGar onne
Ð¸ Ð¹
Ġpense z
Ġattend us
ĠÃ©n ig
Ġimag ine
ĠmÃ©l odie
Gu inÃ©e
Ġflu ctu
ĠdÃ©liv rer
Ġnatur aliste
Ġcalc aires
ĠFontaine bleau
Ġcompati ble
ĠSof ia
Ġfacul tÃ©s
ĠchÃ´me urs
B O
I m
R O
d ot
g res
o ine
p Ã©s
p rop
en jeu
Ġc rÃª
Ġc auche
qu ence
ra ke
ĠL oy
ĠB ox
Ġin visible
ĠF Ã©d
and y
ĠV ass
Ġes su
Ġcou tumes
Ġad verse
Ġsy rienne
ov ol
ov itch
Ġcoup ables
Ġsupp oser
Ġsem estre
ĠSa Ã´ne
reg on
Ġfac iles
ĠRo osevelt
chet tes
ĠÐ Ĳ
Ġpou let
Ġdeme ura
ĠStu tt
ĠJo achim
Ġrecue ils
Ġcroise ment
espÃ© rance
ĠrÃ©clam er
ĠdÃ©ploy Ã©
Ġrenvoy Ã©
Ġappuy Ã©
CÃ´ te
H on
b et
g Ã©nÃ©
t Ã¨rent
un der
or teur
our is
ta bil
Ġg lor
ĠM oy
Ġh isp
ĠT itan
ĠV ia
Ġex ternes
Ġra dios
ct on
cu it
Ġ6 50
Ġren aissance
ris me
Ġpo ils
ĠsÃ© jours
Ġfr iss
isse ur
Ġsub ord
ĠdÃ©m oli
ĠGu ill
crit s
Ġexpl ore
Ġgu Ã©rir
ĠdÃ©t ente
Ġinqui Ã¨te
ĠrÃ©pu tÃ©e
math cal
ĠDam as
Ara mis
Ġressembl ance
Ġmonop ole
Ġiv oi
Ġethn ique
Ġparaly mp
s el
ĠÃ© lig
ĠÃ© rud
ĠB oss
ĠD et
Ġan alog
op lan
ing rad
Ġ11 2
Ġfer ai
be ek
ast ro
ĠMe h
ĠMe mbre
Ġtri angulaire
occ urrence
Ġamb iance
Ġabs or
esti me
Ġalli Ã©es
ĠGre y
Ġspati ales
Ġbrou illards
Ġvolcan ique
Ġescad ron
ĠlatÃ© ral
ĠlatÃ© rale
Ġp Ã»t
ra il
ĠS ouvent
ĠP sy
ul ent
ĠJ orge
Ġan at
ĠH D
Ġal tÃ©
Ġmar x
Ġ18 28
Ġapp lic
all ais
ubli ques
Ġcor rÃ©
Ġsta ff
Ġnouveau tÃ©
ĠrÃ©s ol
Ġmod Ã©rÃ©s
Ġgar age
ĠdÃ©m on
ĠCor an
Ġess aye
Ã¶ l
Ġprot estation
Ġtrib unes
Ġoccup ants
Ġpsych ologue
Ġdiam ant
ĠAra bie
Ġentend ait
Ġang lic
Ġimag inaire
ĠrÃ©cupÃ© rÃ©
Ñģ ÑĤ
Ġmerc ure
Ġcass ation
Ġjal oux
Ġaudio vis
ĠBey routh
Ġcond ens
accompagne ment
ĠTot al
ĠKle in
Ġseni or
Ġarbus tive
ĠstÃ© ril
Ġslog an
Ġcerc ueil
ablanc a
U ruguay
a une
b ers
s ky
Ġl uxemb
an Ã©e
Ġt ut
Ġpar aissent
ce y
ĠS ut
ais sement
ĠF uk
ĠH esse
Ã©ri enne
Ġac tives
tr ong
Ġren fort
Ġvis ent
ĠZ adig
Ġcas e
Ġli ce
ĠdÃ©velopp eurs
Ġpi onniers
Ġfer rÃ©e
Ġref lÃ©
Ġsau te
Ġparc ourt
Ġw ww
ĠÐ Ĵ
Ġali as
ĠexÃ©cu tÃ©s
Ġnour ris
ĠBas tille
Ġinspi rÃ©s
ĠamÃ©li oration
Ġprim ordi
Ġtransp orte
Ġenvironnement ales
ĠcÃ©lÃ©b ritÃ©s
Ġrenouvel Ã©
Ġach ats
ĠagrÃ© ment
ĠLut her
emm our
ĠFreder ick
oen ix
tol Ã©m
} (
Ã© a
Ġla g
Ġf autes
Ġau g
ol ia
Ġdans er
ĠP rÃ©sent
ĠrÃ© veil
ĠB assin
Ġr ente
ouv ille
ĠK la
Ġsou met
emp Ãª
Ġth Ã¨ses
Ġpri er
ature ls
ĠDes ign
ĠMont g
inter section
ĠrÃ©pond ant
Ġphot ographique
Mar s
Ġcrois Ã©s
Ġsac s
ĠÃ©tablis sant
ĠDel ta
Ġcam er
Ġsusp endue
ĠMÃ© dec
log es
Ġcompli quÃ©e
Ġcontent er
ĠprÃ©dÃ© cesseurs
Ġmaroc aine
Ġflanc s
ĠGram my
ĠnÃ©c ropole
Ġacous tique
Ġfestiv itÃ©s
k ers
v ari
Ã© trique
is ch
ĠC ow
Ġre manie
ĠB ade
Ġin tri
Ġh Ã©p
Ġh ussards
ac inthe
Ġdi oxyde
Ġsa urait
Ġra jou
Ġor nÃ©e
app li
Ġab e
Ġcour tis
Ġhab its
ode ur
Ġann uelles
Ġvis Ã©
Ġmes urant
Ġmilli mÃ¨tres
Ġten eur
aff e
In f
ĠPh illi
Ġpris ons
Ġdipl Ã´mes
Ġcollec tifs
Ġmassi vement
fer me
Ġexclus if
Ġanne xe
ĠsÃ©p ul
Ġsch iste
Ã©chapp e
ĠTch Ã©coslovaquie
Ġconfond ues
Ġprovisoire ment
Ġharm on
Ren Ã©
ĠTest ament
ĠamÃ©nage ments
ĠÃ©lectrom agnÃ©
Ġtoul ous
A V
f ontaine
n ay
Ã© ter
Ġt ailles
ra ce
ĠL aure
Ġg Ã©rant
ag eux
Ġpl aid
Ġch ers
ĠD oh
ĠH amp
ĠCh ang
Ġmon oc
Ġph y
Ġpo Ãªle
oul t
Ġfa ille
enn ant
ĠreprÃ©sent Ã©es
Ġag ro
ĠTh at
Ġcent rÃ©e
ĠÃ©ch angÃ©
Ġparc elles
Ġ23 0
ĠSch ne
Ġsouff rent
ĠÃ©lev age
ĠfrÃ©qu ences
indi ce
Ġbre ak
Ġruis seaux
Ġimag iner
Ġrepar tir
Ġhydrog Ã¨ne
otter dam
hos pit
sig nes
ĠHum an
Ġanaly ser
Ġprogress iste
Ġserp ents
A ube
D er
I O
h out
Ġp yrÃ©nÃ©
as ions
Ġb ov
ĠM Ã©s
Ġpl ain
Ġin jus
Ġque relle
ĠT as
ĠT all
ge m
uis son
imp osant
Ġinter ruption
Ġcol la
Ġrep osent
ĠgÃ©nÃ© tiques
Ġtour b
Ġ12 00
Ġappar tenu
... ,
oph on
Ġop Ã¨re
Ġbar s
ĠdÃ©fin ies
Ġroy autÃ©
arch ives
ĠprÃ©f Ã¨rent
Ġtable ttes
Ġsang u
ĠKe y
Ġhabitu elle
Ġcanadi ens
Ġgri ppe
Ġcu ite
Ġremer cier
Ġredou table
Ġtro tt
ĠOc Ã©an
Ob servatoire
Ãīc onomie
Af ghanistan
ĠHeure usement
Ġincontourn able
Ġincl use
Ġdramatur ge
Ġseg ments
M or
b ien
p op
Ġle x
est ern
ĠL aissez
ĠL td
ol ing
Ġre lÃ¨vent
ĠM all
and in
ot to
um age
ass ure
Ġces s
Ġcou lÃ©
Ã©c onomique
Ġjou Ã©es
Ġcor ni
Ġrapp ellent
Ġpri rent
ĠrÃ©s iste
Ġcul mine
ok ovic
fi Ã©es
Ġcad avres
Ġplu mes
Ġcombat tu
atta ques
Ġcollec tivitÃ©
Ġaband onnÃ©s
Ġmanifest er
ĠaÃ©ri ens
Ġaliment Ã©
Ġtitu laires
ĠconsidÃ©ra it
ĠBrun swick
Ġsoup ir
Ġexplo ite
ĠalÃ© atoire
Ġexhaus tive
ĠKir k
Ġrassembl Ã©s
Ġmanip ulation
ĠAgn Ã¨s
A isne
F ace
H z
P l
\ \
c os
e le
h all
i i
k t
n iste
u tation
w ar
Ġde dans
Ġun ie
au dio
ta ges
Ġdans eurs
ĠP ing
di ce
ĠR otterdam
ĠG our
ic on
onn aie
Ġra mpe
ĠK un
ĠK ate
ob lige
Ġor nÃ©
Ġsc rup
Ġenvi r
ĠtÃ©lÃ© g
ĠSe attle
Ġtu Ã©es
ĠNew ton
ĠSu Ã©d
Ġmeur tres
Ġlaiss Ã©e
Ġdessin Ã©es
ĠTur cs
ĠDÃ© si
ĠAt lan
rass Ã©s
ĠDan ube
Ã©tend ait
Ã©tend ue
ĠamÃ©li orations
ãĥ ³
ĠWest m
Ġassassin at
Ġmys tique
GP T
ĠAmi ens
ĠsÃ©di ments
ĠQueens land
ĠWrest ling
O l
d ine
Ï ħ
Ġl inge
Ġc au
ar ine
or re
ĠS und
ĠR ing
am ant
ĠH unt
du les
ĠÃ©c ologistes
Ġinter loc
19 45
omb es
Ġfond re
Ġci ment
ma tÃ©ri
Ġreconn ues
Ġqualif iant
enf lot
Ġdispar aissent
ĠÐ Ł
ĠrÃ©uss ie
ĠJu vent
Ġsil hou
Ġmu tation
Ġbudg Ã©taire
Ġrap iditÃ©
hyd ra
Ġsuppri mÃ©e
ĠrÃ©pÃ© ter
ĠOff ici
Ġannon ces
ĠMaz ovie
ĠLet tonie
Ġprononc Ã©e
Ġproph Ã¨te
prÃ©f ecture
Ġparad ox
Ġamphib iens
Ġauxili aire
B o
J o
h art
Ġs omp
in ets
ĠL oe
Ġcom ics
ĠP ois
Ġin Ã©v
ĠR Ã©m
vi Ã¨res
mi Ã¨res
ĠG w
ĠN om
Ġcons cient
Ġmar ron
ĠPar ty
Ġti rÃ©e
Ġor n
Ġpos tÃ©rieure
Ãī p
lan e
isse urs
fi ants
Ġbou quet
Ġsupp orts
Ġorganis ent
ĠSe a
Ġ28 0
exp lication
Ġpuiss antes
act us
Ġvoul ons
Ġlut hÃ©ri
ĠHe id
ĠSp a
Ġajou tÃ©s
Ġoblig Ã©s
199 2
Ġap ogÃ©e
ĠdÃ©cor Ã©e
ĠOp Ã©ra
ĠmÃ©tropolit ain
ĠLoire t
Ġrenouvel Ã©e
Ġradic aux
ĠDÃ©c ouvrez
ĠBuc ar
Ġpyrami de
ĠAster oid
Ġformid able
c ans
r ina
Ġl Ã¨
ti ces
ĠL eu
Ġb it
ĠP ros
ĠD RI
Ġpro se
Ġh ellÃ©
og ramme
ĠK Åį
ĠrÃ©p ri
ĠAr mÃ©nie
Ġcompr it
Ġcent enaire
Ġva ches
Ġbr une
ĠdÃ©m ante
Ġaugment Ã©e
Ġcommand er
Ġloin ta
Ġbal b
}} .
ĠGra ham
âĢ¦ ).
Ġaffec tÃ©e
ĠrÃ©vÃ© lations
Ġrent rant
Ġral lier
ĠprÃ©t endant
Ġparcour u
Ġadress Ã©e
Ġencoura ger
Ġinnov ations
hÃ©b ergement
F S
G en
G alles
c it
c ot
h at
k ai
om y
ĠD Ã©b
ĠN D
Ġpr omp
imp osent
Ġri gueur
ud a
Ġcap tivitÃ©
ĠZ emmour
Ġinf il
Ġlib Ã©rÃ©e
Ġdispar ut
ĠMor bi
Ġamb ul
ĠdÃ©mar ches
ĠWar ren
Ã©lect rique
ĠAth le
ĠBab y
Ġcommis sions
ĠHill s
ĠDj okovic
ĠMot or
ĠSqu ad
Ġdoul oureuse
Ġmout ons
Ġpyrami des
Ġcorri ger
Ġsilenc ieux
Ġterrib les
ĠMikhaÃ¯ l
akespe are
ĠStutt gart
M ax
p oste
s in
is taient
Ġm ait
Ġf oud
ĠC aval
ta ger
Ġb erb
ĠI z
ĠT ap
ĠJ ong
ort es
ĠprÃ© lat
ins ul
Ġal co
ph es
ĠÃ©c oul
ĠcrÃ© dits
aÃ® nÃ©
Ġrapp orter
Ġnouveau tÃ©s
Ġz oo
Ġgouvernement ales
ĠdÃ©m enti
ĠgÃ© ante
ĠrÃ©pond ait
ĠMe illeur
Ġanim ateur
Ġsoir s
Ġval able
Ġtransf Ã©rer
Ġmess ager
Ġappro fond
Ġfrag il
Ġmatern itÃ©
Ġfortif iÃ©e
Ġsouter raine
Ġgenti ls
Ġrede vient
Ġblind Ã©s
ĠGab on
ĠÃ©difi Ã©
ĠWW E
insta uration
ĠNich olas
Ġsoigne usement
yclop Ã©die
' ,
? Â»
D I
H il
h yp
p ons
Ġc od
ou ze
ĠÃ© lan
de puis
ĠA mis
ĠE T
Ġcomm et
ĠV ick
Ġne iges
Ġnom mÃ©es
ob server
Ġrec ouverte
Ġinter dire
Ġsec ou
Ã¯ des
ich i
Ġver be
Ġpi Ã©g
ĠrÃ©c urr
adi enne
Ġbl onde
let t
ĠPro te
erb ourg
Ġconfir mation
ĠSer vices
ĠMi y
Ġadap tÃ©es
ĠexÃ©cu ter
Ġcop ro
Ġ178 3
ĠMo on
ĠVol ks
ĠrÃ©vÃ© lÃ©e
ĠBay ern
ĠBÃ© ziers
Ag riculture
ĠAri zona
omo tive
Op en
ĠÃ©piscop al
ĠarmÃ©n ien
Ġdauph in
ĠSyste m
Ġemm Ã¨ne
ĠDy lan
E ure
c ue
c ock
i ff
Ġ ong
Ġa Ã©ronautique
Ġla me
ĠC C
ol id
Ġ( ...)
ĠD av
ĠT ul
ĠT rophÃ©e
ĠJ esse
ĠV Ã©
op rano
ad s
og Ã©
ond o
ĠK ad
ĠK ath
Ġcar bon
Ġ8 50
Ġcour antes
Ġpo il
Ġcor Ã©en
Ġ10 4
Ġchar gÃ©es
ĠâĢ ĺ
Ġbou ge
Ġrecher chÃ©
Ã©ti quette
ĠPro c
Ġtri plÃ©
Ġ179 7
ura illes
mil ie
Ġouvert ures
Ġpsych ologiques
Ġimpos ant
ĠinterprÃ© tations
Ġfall ut
ĠJo an
Ġemmen Ã©
ĠCapit ole
Ġsurpl omb
Ġlumine use
ĠBabyl one
Ġfusill ade
ĠMatth ieu
A c
C alifornie
D aniel
E arth
J ames
M M
P K
z one
Ġp ige
Ġn ou
ĠdÃ© charge
at he
ĠA BC
ĠA venue
ĠB aisemeaux
Ġin temp
ĠE va
Ġr us
Ġr ite
ĠR ut
ab us
ter ling
Ã©ri f
ord onnance
um Ã©s
ĠK och
ong es
Ġme mb
Ġpol yn
Ã©c ar
Ġman uels
Ġsoci ologue
az zo
pi ons
ĠSe an
Ġproc urer
inter valle
Ġrem it
Ã©l ue
Ã©lÃ¨ ves
urg ie
rog ation
Ġcommande ur
Ġenti Ã¨res
AC P
ĠdÃ©li vre
Ġretrouver a
Ġchron ologique
entraÃ® ner
fer ence
ĠDoc tor
oure uses
oure usement
Ġfisc aux
Ġnav ette
Hen ry
ĠBir manie
Ġordin aires
ĠÃ¨ s
Ġfores tier
Ġreporta ges
ĠsuccÃ©d ant
ĠBundes liga
B on
H Ã©ra
R ec
j n
m ingham
Ġd jihad
en lÃ¨vement
Ġre tenus
ci Ã¨res
vi us
ab ama
ĠJ T
ĠH om
ĠH omme
ad ju
st al
ĠÃ©c ologiques
Ġab st
Ġass ises
ĠdÃ©p ortÃ©s
ĠIn diens
lig ht
ĠprÃ©c Ã¨de
ah ar
Ar n
ĠPh oenix
ĠrÃ©sul tant
Ġcr ut
Ġatta chÃ©e
Ġreven ue
eng endrer
Ġfig urer
ĠBe eth
Ã¼ ck
Ġsouff rances
ĠfÃ©min istes
dire cteur
ĠXIX e
Ġplais irs
Is Ã¨re
ĠdÃ©clen cher
ĠCre ek
Ġdoul oureux
ĠÃ©chanti llon
ĠrÃ©habil itation
ĠVÃ©r onique
c lÃ©
Ë Ĩ
Ġp ond
il on
ro tte
ĠdÃ© lit
Ġg ains
ci um
ĠP ul
for te
pl ace
ense urs
Ġconf ession
Ġper dit
ĠIn v
ru ck
ĠsÃ© duit
mar s
Ġ0 7
inc onnu
Ġarriv Ã©es
ĠnÃ©cess itent
Ġexc uses
Ġexpl oser
Ġcommenc Ã¨rent
Ġami c
cons in
Ġemb lÃ©matiques
ĠmÃ©m orial
Ġcaus ant
Ġdiam ants
Ġdiscip le
Ġmonast Ã¨res
Ge orge
Ġrob ots
Ġvoud rait
ĠhiÃ©r arch
ĠAlexand ra
Ġincerta ine
Ġlicenci Ã©
Ġspi rale
Esta ing
P ol
p end
s ance
Ä Ł
Ï Į
er tion
Ġm urailles
Ġdu cs
Ġ. ..
ĠM aire
ĠrÃ© duisant
ĠV aud
Ġex act
Ġcons oles
ĠO S
Ġfor um
Ġdis sid
ĠMar rake
Ġpubli ent
19 18
Ġins crire
Ġplace ment
ole tte
Ġgouver neurs
Ġver res
ĠRe cherche
Ġsp in
Ġind is
ĠgÃ© ologiques
Ġpu ce
Ġpein ts
Ġeng ins
Ġtotal ise
ĠpÃ©n alitÃ©
ĠBeau vais
rom aine
ĠLuc ky
Ġgui des
Ġprofit ent
Ġbra v
appro cha
ĠBÃ© arn
ĠSil ver
Ġafric aines
Ġcre v
ĠLim a
mira ts
ĠsÃ©v Ã¨res
inqui Ã¨te
Ġcompens ation
zÃ© landais
Ġgout tes
afric ain
Ġressorti ss
ĠhÃ©lic optÃ¨re
opport unitÃ©
ĠDRI AS
A B
d Ã©p
l ants
m ith
Ñ ı
ou ches
ur ants
ĠC ON
ĠS ay
ĠS ign
ĠH op
ir d
ĠV aux
ex am
Ġma quis
ĠMar Ã©chal
Ġsou che
Ã©n avant
Ġtemp Ãªtes
ense igne
ari ats
20 70
Ġmet s
Åĵu fs
ĠCar re
Ġretour nant
Ġfl ag
adi en
off res
Ġpasse relle
Ġeng ager
ĠSu ff
lit z
ĠFin al
Ġfinanci Ã¨rement
Ġsuivi es
ĠdÃ©termin ant
Ġconver ti
ĠapprÃ© cie
ĠConc ert
inn oc
ĠsÃ©v Ã¨rement
Ġchirurg icale
Ġconven tions
ĠBir mingham
ĠtrÃ©s ors
Ġsympath ie
ĠÃ©duc atif
Ġpne us
Ġgaul ois
archÃ© ologie
Ġgymn astique
ĠMarrake ch
A G
le e
Ġla ser
el ay
al t
at che
ĠrÃ© t
ĠE is
Ġh Ã©r
ĠprÃ© domin
ĠK ings
ĠdÃ©c rivent
Ã©ra teur
20 41
Ġfa illi
ĠdÃ©but ent
erg ies
ĠSh akespeare
ĠCor nel
Ġlit re
ĠPro ject
Ġtri ang
ĠSal le
Ġant ennes
Ġfour rure
199 4
heim er
Ġpan ique
198 9
ĠdÃ©lÃ©gu Ã©e
ĠvÃ©gÃ©ta le
kins on
ĠTechn ology
Ġnarra teur
Ġinterdis ant
Ġcell ulaire
ĠaÃ©rop orts
ĠNarb onne
ĠgrÃ©gor ien
I rak
W est
n ique
o diques
v il
} +
Ġ omb
Ġa pl
ou til
Ġpar vint
ĠS aints
âĢ ł
ĠP elle
ĠI ron
Ġh uis
ĠG oul
Ġou t
Ġra len
ĠU TC
Ġser rÃ©
Ġsou tenus
Ġacc lam
ner gie
ĠAr ticle
Ġrest aient
orti um
ell ations
Ġ13 5
ĠdÃ©rou ler
Ġsyndic ale
Ġaffec te
Ġplais ant
Ġsouver aine
Ġprati quant
Ġign or
Ġemprun tÃ©
Ġinvent aire
Ġsubs istent
Ġsurmont Ã©e
Ġrecon ver
Ang oulÃªme
ĠUr b
ĠIndi an
ĠRoh an
Ġfis cal
empris onnement
ĠBeeth oven
D uc
p Ã©es
Ġ elli
Ã© Ã¢tre
ol ies
ĠS uc
os ta
ĠD ites
ff es
mi a
ĠG ur
ĠN aval
ĠprÃ© di
Ã§ age
Ġtra ction
Ġtra ductions
Ġcont este
Ġmar Ã©e
rois sement
Ġrec rÃ©
ĠrÃ©g Ã©nÃ©
th ers
Ġcontre partie
Ġ17 80
az ote
ud ence
ĠZ one
Ġ12 8
temp Ãªte
ĠSh a
Ġess ayant
Ġord onna
Ġbi Ã©lor
ĠMe i
Ġdispar ue
ĠvÃ© ni
Ġadministra tions
Ġdesc endance
ĠGi ro
ĠÃ©qu ations
Ġpap a
ĠRich elieu
ĠdÃ©crit s
Ġcitoy ennetÃ©
Ġrecue ille
Ġblo quer
Ġmonn aies
cast le
Ġmena Ã§ant
ĠdÃ©sespÃ© rÃ©
ĠChat GPT
Ġgerm ano
c ke
v or
an ien
ti endra
qu Ã¨rent
Ġf rot
Ġun anime
Ġdu rement
Ġpar ait
ĠdÃ© dic
ci Ã³n
ĠA G
ĠB ai
tre use
vi c
ad joint
ĠK ob
Ã©r ants
Ġ18 22
ib a
iss Ã©
Ġins u
uss on
enn on
aff a
ĠBar on
ĠPro gramme
ĠSur tout
Ġanim ales
tÃ©ra lement
ĠentraÃ® nement
ĠWe i
ĠCas ablanca
isc ard
ĠMag h
Ġdomin Ã©e
ĠdÃ©cor atifs
Ġrenouvel able
Ġisol Ã©s
Ġtardi f
Ġsab re
ĠvÃª tu
ĠMerc ure
vad os
Ġbruxell oise
Ġrh Ã©t
ĠGeoff roy
Ã©re mment
Ġvel ours
ĠClin ton
Ġcoulis ses
M ah
Ġd urs
Ġs Ã¨ches
Ġc ue
ou an
qu ois
rÃ© rie
ro pe
âĢ ³
Ġin vention
ĠD ag
ĠD aw
ĠF ly
ĠT au
mi re
ĠH uit
ĠV erb
ond ins
av ancÃ©e
ĠK ai
Ġ202 6
ĠMar ina
Ġimp acts
Ġcel tique
Ġexp uls
Ġca hier
Ġaff iches
Ġst Ã¨le
Ġdirige a
ĠnÃ©g atives
Ġaccord er
Ġenvoy a
Ġpou ce
Ġnu ances
vid us
Ġhabitu Ã©
ĠdÃ©pend ait
ĠdÃ©cor ations
Ã©tablis sent
Ġhor aire
Ġmix tes
Ġinterromp ue
hy giÃ¨ne
ĠpÃ© chÃ©
Ġinterd its
ĠTele gram
Ġarchi pel
ĠArd ennes
Ġcla use
ĠcÃ©rÃ©b rale
ĠChen onceau
ĠÃ©te int
ĠhÃ©lic optÃ¨res
Bel gique
Ġmanuf acture
Ġbalb uti
A y
D T
L Ã©on
N Ã©e
Å ¼
Ġa ri
Ġt ang
ĠC ohen
ĠS K
Ġpour vu
ĠB ent
di men
ĠD mit
ĠF en
urs t
ass ine
Ġcol lier
enti citÃ©
Ġsy rien
Ġent rait
Ġins istÃ©
ov as
ĠprÃ©sid Ã©e
ĠdÃ©s agrÃ©
Ġcoup Ã©e
Ġlim itation
Ġlongue urs
Ġi OS
hum ain
Ġ180 4
Ġpati ence
ĠVi ol
Ġquin qu
ĠdÃ©mar rage
Ġappli quÃ©es
Ġbru y
Ġchauff eur
Ġtax on
ĠÏ Ģ
Ġinterro ge
atti rer
Ġcle fs
Ġalphab et
Ġastron autes
A yant
S ou
y g
Ï ī
Ð ¿
Ù ĩ
Ġd alle
Ġp ins
an tique
Ġen lever
Ġt endu
el ot
ĠC ros
ĠS ic
ĠS ug
Ġre quis
Ġin forme
Ġsur vol
ĠD ance
ĠD ynam
ĠG lor
ĠJ ab
ĠV ander
op us
Ġcomp tÃ©
Ġcons ci
Ġ3 000
iv a
Ġdis til
Ġma tel
Ġdiff Ã¨re
Ã©c lat
Ġ' '
Ġconf Ã¨re
Ġsol licitÃ©
Ġquat u
ĠrÃ©f Ã¨re
Ġfra cture
Ġesti mation
ĠJoh an
yp ique
Ġtomb Ã©s
eng agent
ĠRoy an
Ġbois son
Ġsign ant
ĠAd ieu
Ð¾ Ð»
Ġmorte l
Ġprofond s
ĠVill age
ĠrÃ©fug ier
ĠDam ien
imag ination
ĠTourn ai
Ġglaci ers
ĠPit ts
ĠHaÃ¯ ti
Ġtuber cul
ĠBucar est
H istor
t os
t own
Ġp ignon
ar istocra
un di
Ġt an
ĠC ry
ĠS Ã¡n
ĠM ouss
Ġ( +
ag Ã¨re
ĠB ald
os si
ĠI P
ĠJ apan
Ġcomm ettre
Ġsou ple
ĠÃī tu
Ġad Ã©qu
Ġconf Ã©dÃ©ration
Ġ10 8
Ġvis ionn
int ers
gra ve
Ġcontin ents
Ġrencont ra
mbl Ã¨me
Ġretour nÃ©
ĠSh aw
ret tes
adi ens
ĠCom Ã©die
dÃ© la
anne xion
Ġstation nement
Ġreti ra
ĠÃ©lÃ© ph
ĠInter nationale
Ġ178 8
zz i
ĠGir ls
Ġdoub ler
ĠdÃ©ploy Ã©s
ĠSchw arz
ĠÃ©th ique
ĠBFM TV
Ġconces sions
ĠNikol aÃ¯
ĠprÃ©fect oral
LÃ©g ende
F rÃ©dÃ©ric
h Ã©m
v ante
Ã© anti
en za
Ġc ire
in fini
ur t
Ġf oire
ĠC FA
ĠrÃ© duits
ĠB ath
Ġh umeur
ĠN uit
Ġra ts
ĠK aw
Ġcar ab
ron e
Ġab ri
asse mbl
Ġcour onnÃ©
Ġcin tre
ĠAr ms
Ġchar mant
ke e
ĠreÃ§ ues
Ġrapport ent
Ġsig nÃ©s
cri me
Ġâ Ħ
Ġfig urant
Ġregard Ã©
ĠrÃ©un issent
ĠdÃ©rou lement
Ġremplac Ã©es
Ġgros si
Ġir rit
Ġgard ait
ĠFer ry
Ġaliment er
ĠBal k
Ġrepro duit
Ġtyp iquement
ĠRh odes
ĠBo ok
ĠtÃ©lÃ©ph onique
Ġenvis agÃ©e
Ġcous ins
Ġcoord in
Ġesc aliers
ĠPaci fic
Ġrevi endra
Ġimplant Ã©s
Ang ers
Ġmotiv ation
ĠsÃ©d uire
Ġenvelopp e
Ġclandes tin
Ġaccess oires
ĠNant erre
ĠadhÃ©r ents
ĠSard aigne
ĠMatthe w
Ġschizoph rÃ©
an ia
re my
Ġa min
ar ina
ar tisan
ĠS tel
ĠM ing
ĠA FP
ĠB CE
ĠF av
pe tit
ĠN est
ĠN ig
ĠH S
Ġar ron
Ġmo indres
ĠO g
ĠW ins
ĠW ith
co vie
nes co
pl Ã´
Ġcou ler
Ġsou mission
Ã©v Ã¨nement
Ġman i
Ġco cher
Ġvers ants
Ġdon ation
ĠsÃ©rie use
Ġform ules
Ġten aient
ĠdÃ©si rs
Ġdemande urs
yd er
Ġanim Ã©s
ortÃ© es
Ġami es
Ġval orisation
_{ \
ĠDel hi
sta dt
ĠBur n
Ġrecru te
Ġble ues
Ġcriti quÃ©e
Ġcroise ur
Ġremer ci
chest ra
ĠDim anche
ĠMaxim ilien
Ġbret onne
Cy gne
ĠGuardi an
obsc uritÃ©
A le
S ituÃ©e
e lez
r ille
u teur
Ġs atur
re k
Ġau tel
ĠdÃ© tr
ĠS ont
ĠS auf
Ġg au
ĠP O
ĠR uth
ĠF ait
ĠG ont
ĠN acional
ot he
im er
Ġapp ort
ten berg
onc ourt
Ġcou de
Ġsec rÃ¨tement
Ġrep osant
he d
Ġent amÃ©
Ġper les
Ġper cer
Ġri deau
ath lÃ¨te
Ġins tin
Ġmus cle
ĠrÃ©alis me
ĠreprÃ©sent aient
Ġindi ffÃ©r
ĠSh Åį
rig o
Ġsex es
Ġpatri arche
ĠsÃ©par Ã©ment
Ġreti rÃ©e
Ġconsomm ateur
199 1
Ġexcep tÃ©
Ġcardin aux
Ġbrig adier
Ġefficace ment
ĠDire cteur
Ġanc Ãªtre
ĠantÃ©ri eur
Ġperturb ations
Ġimplant Ã©e
Ġressembl ent
Ġexige ant
ĠTele vision
Ġarr estation
ĠMem orial
Ġcitad elle
ĠSpir ou
ĠKazakh stan
dÃ©la Ã¯de
P at
S p
T hÃ©
c onc
m acht
u tique
Ġ ^{
Ġen cer
al gor
ro Ã«n
Ġpar ag
Ġpar la
ĠL il
ĠL Ã©v
Ġj urÃ©
Ġ( -
ĠA Ã¯
ĠD avi
ĠI nitialement
ain g
ĠR ode
ĠT Ã©m
ab olition
ist antes
og en
Ġcl Ã´t
rit es
st ar
Ġcap teurs
Ġfond Ã©es
ili Ã¨re
ell ini
uc ci
Ġrel ati
Al fred
ĠCol in
ĠCol lins
Ġhum our
Ġtomb ait
ĠrÃ©pond ent
Ġlance urs
ĠVic toire
Ġmu tations
ĠOs cars
Ġguit ares
ĠâĤ¬ .
Ġsoup Ã§ons
ĠPic ardie
ĠarchÃ© ologues
Ġpla Ã§ant
ĠÃ©nergÃ© tiques
Ġdistingu Ã©
Ġgonf lement
hÃ©ri tier
Ġtechni ciens
ĠMartine z
Ġromanci er
Ġprestigie use
Ġthr iller
ĠWestm inster
U C
n il
p ation
it as
Ġt olÃ©rance
Ã¨ cle
Ġn autiques
el ins
us c
ment aires
ch io
ĠS aÃ¯
Ġcon formitÃ©
ĠB in
os tro
ĠD S
ĠN Ã©p
ĠprÃ© cep
ĠH Ã©las
av oc
Ġ18 19
ĠW he
Ġentre tenu
ph alie
Ġcar rosse
ĠMar ines
Ġti endra
Ġfil tre
vis ionn
ĠAl bum
Ġbas tion
agn y
Ġchar mante
ore au
Ġbi z
yd ay
Ġaugment ant
ĠfÃ©min ins
Ġcit ant
Ġmulti plie
Ġamb igu
ĠGi ac
ĠÃ©criv ant
ĠÃ©criv ait
Ġinves tir
Ġcommunau taires
Ġajoute z
198 1
Ġconfront Ã©s
Ġfile ts
ĠGusta v
ĠecclÃ©si astiques
Ami ens
Ġhybri de
Ġpenal ty
O rig
S in
T oujours
U V
p ied
s or
à ¥
Ġd ot
Ġla mb
un ier
or atoire
ĠM eu
ĠM TV
ĠP riv
Ġch ol
ac um
ĠR he
ig ie
ĠK ay
Ã©ra bles
Ġinter pel
Ġcol lo
ĠgÃ©nÃ© reux
ĠdÃ©p ense
ov Ã¡
ign ac
Ġgouver ner
ah u
Ġdisp osÃ©s
Ġlib Ã¨re
ĠSh o
Ġorigin el
Ġtent ant
ĠbÃ©nÃ© diction
Ġiniti ales
Ġstru ctur
ĠWe hr
Ġsembl ant
ĠEd die
indi vidus
Ġdiv ul
198 7
Ġrelie fs
ĠÃ©l ites
ĠpÃ©tro lier
Ġrap atri
ĠGir ard
Ġabou tir
ĠTch ad
Ġplant ation
ĠAz erbaÃ¯djan
ĠUl tra
ĠtrÃ©sor ier
ĠÃ©tend ues
Ġcombus tible
Ġprostitu tion
ĠLiber tÃ©
ĠMoun tain
Ġpant alon
Ġillustra tions
Ġabe illes
ĠJuvent us
A ussi
f il
m onde
n u
Ġp ig
in ominal
qu ins
ĠC ardin
ĠS auv
os aient
ĠT erm
ab side
ĠJ Ã©rÃ©
ĠN ass
ad minist
Ġcons ommÃ©
Ġimp ortations
th on
Ġren om
emp rise
Ġth aÃ¯
Ã©t endant
Ġinf ections
Ġconse illÃ©
Ġbar Ã¨me
aff ron
ĠÅĵu v
hi z
ĠTr ust
Ġsens ations
Ġbord Ã©
alais es
Ġress entir
Ġsign ent
}} ,
Ġprot ester
Ã©le my
Ġgestion naire
ĠSy rac
Ġsouhait ez
ĠgÃ©n Ã¨re
198 8
ĠÃ©pous er
Ġnav ales
Ġsynth Ã©ti
Ġeth niques
Ġrass urer
Ġfich ier
Ġmeurtri er
Ath Ã¨nes
Ġadjoin te
ĠFut ura
Ġempre inte
ĠElect ric
ĠGarc ÃŃa
ĠMorbi han
ĠprÃ©di lection
v ine
y ers
z et
} {\
Ġ oign
Ġs om
Ġs ieur
ri el
ĠL ob
as que
ĠC ors
ĠC are
ch oir
ch witz
ch Ã¢tel
Ġb ann
ĠS V
de x
Ġr uss
ĠF aire
ĠG ali
Ġan Ã©anti
Ã©ri ens
par fois
Ġcar it
ob tient
ĠAn a
Ã©lÃ© vation
ĠcÃ´ t
Ġloc uteurs
ow ice
Ġinf Ã©rieurs
Ġ11 8
ĠSt orm
ĠÃ©lect ri
Ġdra p
Ġconsul tatif
Ġmarch ait
ĠTur ner
Ġmobil isÃ©s
ĠidÃ© ologique
ĠNeu illy
ĠHan ovre
Ġnett oyer
Ġmerveille ux
Ġsensibil isation
ĠvÃ©c ut
ĠDic tionnaire
Ital ien
ĠRal ph
Ġculp abilitÃ©
Ġtalib ans
g li
Ġl us
ti gny
ĠÃ© du
ĠL Ã¼
ĠS aintes
[...]
